@0 02FE823EF // [-17  17  -6   5]
@1 1103391C8 // [-56 -56  12  34]
@2 FC86BE83B // [ 59 -12  26  -7]
@3 FC03C1A27 // [39 13 15 -8]
@4 117E37BE4 // [-28 -67  -8  34]
@5 F97F01610 // [ 16  11  -4 -14]
@6 0EFAC35F9 // [ -7  26 -21  29]
@7 FE0201637 // [55 11  8 -4]
@8 FE79453EE // [-18  41 -27  -4]
@9 F90083402 // [  2  26   2 -14]
@A F87B833E5 // [-27  25 -18 -16]
@B 058000A1F // [31  5  0 11]
@C 0000037DA // [-38  27]
