@0 0F803DDFD // [ -3 -18   0  31]
@1 F582BFE1D // [ 29  -1  10 -21]
@2 058C80A07 // [ 7  5 50 11]
@3 0380BE7F0 // [-16 -13   2   7]
@4 08FB4220A // [ 10  17 -19  17]
@5 02FDC1DE9 // [-23  14  -9   5]
@6 08FF3F209 // [ 9 -7 -4 17]
@7 FD840220D // [13 17 16 -5]
@8 FE01009FC // [-4  4  4 -4]
@9 FF7EFF9EE // [-18  -4  -5  -2]
@A F681FC40B // [ 11 -30   7 -19]
@B 047F3D5FF // [ -1 -22  -4   8]
@C FBFEBDBFC // [ -4 -19  -6  -9]
@D 03047F7F3 // [-13  -5  17   6]
@E FC8280400 // [ 0  2 10 -7]
@F 050140012 // [18  0  5 10]
@10 0A83C0DF4 // [-12   6  15  21]
@11 067C3F200 // [  0  -7 -16  12]
@12 047D813E2 // [-30   9 -10   8]
@13 00003BDF8 // [ -8 -34   0   0]
@14 02FEFF40B // [11 -6 -5  5]
@15 077F80802 // [ 2  4 -2 14]
@16 0604FEA0C // [ 12 -11  19  12]
@17 008001411 // [17 10  0  1]
@18 FA817E7E8 // [-24 -13   5 -11]
