@0 FF7F7FDFF // [-1 -2 -3 -2]
@1 FF0101005 // [ 5  8  4 -2]
@2 048000FFA // [-6  7  0  9]
@3 02FD3F3FE // [ -2  -7 -12   5]
@4 FEFFC05FA // [-6  2 -1 -3]
@5 FC80019FF // [-1 12  0 -7]
@6 02FE7FA09 // [ 9 -3 -7  5]
@7 0083405FF // [-1  2 13  1]
@8 02008080F // [15  4  2  4]
@9 FE7BFF9F7 // [ -9  -4 -17  -4]
@A 017D41A00 // [  0  13 -11   2]
@B 0002FF804 // [ 4 -4 11  0]
@C F8FA4000C // [ 12   0 -23 -15]
@D FF0100BF3 // [-13   5   4  -2]
@E FC8040404 // [ 4  2  1 -7]
@F 04003FA08 // [ 8 -3  0  8]
@10 0001BFBFD // [-3 -3  6  0]
@11 0183BF3F7 // [-9 -7 14  3]
@12 FE027FDFE // [-2 -2  9 -4]
@13 FD7CFEFEE // [-18  -9 -13  -6]
@14 01803FE02 // [ 2 -1  0  3]
@15 F88100C11 // [ 17   6   4 -15]
@16 0902BF7F5 // [-11  -5  10  18]
@17 078182409 // [ 9 18  6 15]
@18 0780C180D // [13 12  3 15]
@19 F60000809 // [  9   4   0 -20]
@1A 037DFDFF8 // [ -8 -17  -9   6]
@1B 027F00802 // [ 2  4 -4  4]
@1C F681BEFFB // [ -5  -9   6 -19]
@1D FC7EC0A05 // [ 5  5 -5 -8]
@1E 0E7F4200F // [15 16 -3 28]
@1F 188942214 // [20 17 37 49]
@20 FD04C3015 // [21 24 19 -6]
@21 FA7BFEFE9 // [-23  -9 -17 -12]
@22 F8FE803F7 // [ -9   1  -6 -15]
@23 05FF42006 // [ 6 16 -3 11]
@24 037F023FD // [-3 17 -4  6]
@25 09FEBF9FD // [-3 -4 -6 19]
@26 0C08C4011 // [17 32 35 24]
@27 06054181A // [26 12 21 12]
@28 F47D803FD // [ -3   1 -10 -24]
@29 FA0100DED // [-19   6   4 -12]
@2A 02FEFF208 // [ 8 -7 -5  5]
@2B FC7DC01F5 // [-11   0  -9  -8]
@2C 04FD7FFED // [-19  -1 -11   9]
@2D 1D0B86220 // [32 49 46 58]
@2E 0B0C87438 // [56 58 50 22]
@2F F478C040B // [ 11   2 -29 -24]
@30 0981FEE00 // [ 0 -9  7 19]
@31 0501017F8 // [-8 11  4 10]
@32 F6FB7EC02 // [  2 -10 -19 -19]
@33 087FBD7EE // [-18 -21  -2  16]
@34 309407A2C // [44 61 80 97]
@35 0E0844E3E // [62 39 33 28]
@36 FE7BBEC17 // [ 23 -10 -18  -4]
@37 0000C0604 // [4 3 3 0]
@38 FD0040202 // [ 2  1  1 -6]
@39 F57D7FFF5 // [-11  -1 -11 -22]
@3A 1100C09EB // [-21   4   3  34]
@3B 2214C7828 // [40 60 83 68]
@3C 0080C3422 // [34 26  3  1]
@3D 01FD02406 // [  6  18 -12   3]
@3E F8010020B // [ 11   1   4 -16]
@3F FA803EE05 // [  5  -9   0 -11]
@40 FE003E40B // [ 11 -14   0  -4]
@41 0505C1605 // [ 5 11 23 10]
@42 100A4401E // [30 32 41 32]
@43 F67D3E203 // [  3 -15 -12 -20]
@44 057FBFFFC // [-4 -1 -2 10]
@45 08003FA13 // [19 -3  0 16]
@46 FBFF7F407 // [ 7 -6 -3 -9]
@47 04FD80210 // [ 16   1 -10   9]
@48 068042400 // [ 0 18  1 13]
@49 FC09417F8 // [-8 11 37 -8]
@4A 007CFADD8 // [-40 -42 -13   0]
@4B 0C7F405FC // [-4  2 -3 24]
@4C 057FC1611 // [17 11 -1 10]
@4D FF0140E00 // [ 0  7  5 -2]
@4E FF01C0DFE // [-2  6  7 -2]
@4F F37F7E802 // [  2 -12  -3 -26]
@50 F409409E7 // [-25   4  37 -24]
@51 F97C3BBDB // [-37 -35 -16 -14]
@52 007F3E403 // [  3 -14  -4   0]
@53 010001E0F // [15 15  0  2]
@54 FAFEFF606 // [  6  -5  -5 -11]
@55 FF00C23EC // [-20  17   3  -2]
@56 EE7B7E9F0 // [-16 -12 -19 -36]
@57 F80D03DEB // [-21  30  52 -16]
@58 027D3D1E1 // [-31 -24 -12   4]
@59 FF7BC0E23 // [ 35   7 -17  -2]
@5A 04FC7FBFB // [ -5  -3 -15   9]
@5B F9FF41203 // [  3   9  -3 -13]
@5C FDFCBE400 // [  0 -14 -14  -5]
@5D F3F87F1FF // [ -1  -8 -31 -25]
@5E FB0A47803 // [  3  60  41 -10]
@5F 0601FCDED // [-19 -26   7  12]
@60 F9FC3E9EE // [-18 -12 -16 -13]
@61 01837F005 // [ 5 -8 13  3]
@62 0482BF40F // [15 -6 10  9]
@63 F47AFEBF0 // [-16 -11 -21 -24]
@64 F67F40600 // [  0   3  -3 -20]
@65 F90747410 // [ 16  58  29 -14]
@66 F27F7CBEF // [-17 -27  -3 -28]
@67 F8F9FD3E9 // [-23 -23 -25 -15]
@68 F900403FB // [ -5   1   1 -14]
@69 FE003F803 // [ 3 -4  0 -4]
@6A FA797EE08 // [  8  -9 -27 -12]
@6B FD7F809F9 // [-7  4 -2 -6]
@6C EDFEC4228 // [ 40  33  -5 -37]
@6D F6FA3ADDF // [-33 -42 -24 -19]
@6E 00797BDDA // [-38 -34 -27   0]
@6F 0080C3402 // [ 2 26  3  1]
@70 0202BF00B // [11 -8 10  4]
@71 F77BFFC01 // [  1  -2 -17 -18]
@72 1402BE9EC // [-20 -12  10  40]
@73 E1F880612 // [ 18   3 -30 -61]
@74 F77B7C1E0 // [-32 -32 -19 -18]
@75 017D3D7E5 // [-27 -21 -12   2]
@76 0380031FE // [-2 24  0  7]
@77 06803F5EF // [-17  -6   0  13]
@78 F7FF41409 // [  9  10  -3 -17]
@79 0F01405EE // [-18   2   5  30]
@7A EE73BE617 // [ 23 -13 -50 -36]
@7B FB7BBD1ED // [-19 -24 -18 -10]
@7C 0888FE3FB // [ -5 -15  35  17]
@7D 008042411 // [17 18  1  1]
@7E 008000011 // [17  0  0  1]
@7F FB8304C18 // [24 38 12 -9]
@80 140A41E00 // [ 0 15 41 40]
@81 F7F6FDA0F // [ 15 -19 -37 -17]
@82 068140BF9 // [-7  5  5 13]
@83 050C42414 // [20 18 49 10]
@84 F87EFFC0B // [ 11  -2  -5 -16]
@85 01FEFFBFA // [-6 -3 -5  3]
@86 170702A0D // [13 21 28 46]
@87 0A84C3023 // [35 24 19 21]
@88 F27A3FBF4 // [-12  -3 -24 -28]
@89 0C893DBF7 // [ -9 -19  36  25]
@8A 128683822 // [34 28 26 37]
@8B 047E00A0A // [10  5 -8  8]
@8C FE80C0E07 // [ 7  7  3 -3]
@8D 170A43819 // [25 28 41 46]
@8E 010784432 // [50 34 30  2]
@8F FD7EBFBED // [-19  -3  -6  -6]
@90 1200FF1F5 // [-11  -8   3  36]
@91 038782E19 // [25 23 30  7]
@92 007F80413 // [19  2 -2  0]
@93 0280BFDF9 // [-7 -2  2  5]
@94 1B8A04016 // [22 32 40 55]
@95 038844631 // [49 35 33  7]
@96 FFFAFF5EF // [-17  -6 -21  -1]
@97 1404C0A04 // [ 4  5 19 40]
@98 03864381A // [26 28 25  7]
@99 04837D9F8 // [ -8 -20  13   9]
@9A FA7F7E7E8 // [-24 -13  -3 -12]
@9B 0B080220E // [14 17 32 22]
@9C 0BFDC341D // [29 26 -9 23]
@9D FE00025F7 // [-9 18  0 -4]
@9E 0182BFA04 // [ 4 -3 10  3]
@9F 018181C12 // [18 14  6  3]
@A0 078100FF7 // [-9  7  4 15]
@A1 0902C17FA // [-6 11 11 18]
@A2 02827EC14 // [ 20 -10   9   5]
@A3 0D7E42016 // [22 16 -7 26]
@A4 FF8180218 // [24  1  6 -1]
@A5 05837F613 // [19 -5 13 11]
@A6 030600C05 // [ 5  6 24  6]
@A7 00017E1F9 // [ -7 -16   5   0]
@A8 FD7DBFDF5 // [-11  -2 -10  -6]
@A9 FF803E804 // [  4 -12   0  -1]
@AA 00F97F405 // [  5  -6 -27   1]
@AB FB808280C // [12 20  2 -9]
@AC 0880C0FF8 // [-8  7  3 17]
@AD 007D005F4 // [-12   2 -12   0]
@AE FE8240406 // [ 6  2  9 -3]
@AF 047E00A12 // [18  5 -8  8]
@B0 04FFFF3F4 // [-12  -7  -1   9]
@B1 FD8180FFE // [-2  7  6 -5]
@B2 028281E02 // [ 2 15 10  5]
@B3 FF8242816 // [22 20  9 -1]
@B4 047EC1611 // [17 11 -5  8]
@B5 09027F016 // [22 -8  9 18]
@B6 007DC09F6 // [-10   4  -9   0]
@B7 FD7C80A05 // [  5   5 -14  -6]
@B8 FB82BFE00 // [ 0 -1 10 -9]
@B9 030180810 // [16  4  6  6]
@BA 070202BFB // [-5 21  8 14]
@BB 04007F406 // [ 6 -6  1  8]
@BC F3FF80009 // [  9   0  -2 -25]
@BD FD817F00A // [10 -8  5 -5]
@BE FF83BE7FC // [ -4 -13  14  -1]
@BF 017EBFE14 // [20 -1 -6  2]
@C0 02003FFFB // [-5 -1  0  4]
@C1 F7FD81004 // [  4   8 -10 -17]
@C2 F77F7F9FA // [ -6  -4  -3 -18]
@C3 007FC0BE8 // [-24   5  -1   0]
