@0 02803F9FE // [-2 -4  0  5]
@1 FE84C1201 // [ 1  9 19 -3]
@2 017CFF1F7 // [ -9  -8 -13   2]
@3 F9FF7F007 // [  7  -8  -3 -13]
@4 05FF7F3FB // [-5 -7 -3 11]
@5 FE7FFEA02 // [  2 -11  -1  -4]
@6 0301005FA // [-6  2  4  6]
@7 02033F600 // [ 0 -5 12  4]
@8 0400807F7 // [-9  3  2  8]
@9 0202001FC // [-4  0  8  4]
@A 007F3FDF3 // [-13  -2  -4   0]
@B 0003C0601 // [ 1  3 15  0]
@C 0381BF3F2 // [-14  -7   6   7]
@D 06FE7F60D // [13 -5 -7 13]
@E FE8202408 // [ 8 18  8 -3]
@F FB8541A05 // [ 5 13 21 -9]
@10 03037F609 // [ 9 -5 13  6]
@11 01820120A // [10  9  8  3]
@12 037F40004 // [ 4  0 -3  6]
@13 068042001 // [ 1 16  1 13]
@14 057F81603 // [ 3 11 -2 10]
@15 0480C13FA // [-6  9  3  9]
@16 00787FE01 // [  1  -1 -31   0]
@17 F6003FBFD // [ -3  -3   0 -20]
@18 F78481603 // [  3  11  18 -17]
@19 F7FF013FB // [ -5   9  -4 -17]
@1A FF7E40609 // [ 9  3 -7 -2]
@1B 05FDBE3F7 // [ -9 -15 -10  11]
@1C 0401FEBEE // [-18 -11   7   8]
@1D 0302FCFFD // [ -3 -25  11   6]
@1E 08840081B // [27  4 16 17]
@1F FE7FC060E // [14  3 -1 -4]
@20 FAFFC0000 // [  0   0  -1 -11]
@21 07017EFF9 // [-7 -9  5 14]
@22 FCFCC01F9 // [ -7   0 -13  -7]
@23 FCFF3EA04 // [  4 -11  -4  -7]
@24 00003FC00 // [ 0 -2  0  0]
@25 FF7F00A13 // [19  5 -4 -2]
@26 FEFBC2400 // [  0  18 -17  -3]
@27 FE0101801 // [ 1 12  4 -4]
@28 FAFCBE5FF // [ -1 -14 -14 -11]
@29 04013EFF9 // [-7 -9  4  8]
@2A 0180C1DF2 // [-14  14   3   3]
@2B 04FF007F9 // [-7  3 -4  9]
@2C 057FC1E13 // [19 15 -1 10]
@2D 0380BFE00 // [ 0 -1  2  7]
@2E F57F00214 // [ 20   1  -4 -22]
@2F EA00BF3EA // [-22  -7   2 -44]
@30 087FFE5FC // [ -4 -14  -1  16]
@31 FEFEC0C08 // [ 8  6 -5 -3]
@32 0503C0000 // [ 0  0 15 10]
@33 0285C1412 // [18 10 23  5]
@34 0781811F5 // [-11   8   6  15]
@35 F87D3F5FC // [ -4  -6 -12 -16]
@36 F8FD7EC05 // [  5 -10 -11 -15]
@37 F7003E3ED // [-19 -15   0 -18]
@38 FFFFBFFF4 // [-12  -1  -2  -1]
@39 0A00413F2 // [-14   9   1  20]
@3A 0F8784203 // [ 3 33 30 31]
@3B 058401014 // [20  8 16 11]
@3C 03814260C // [12 19  5  7]
@3D FB007EDFA // [ -6 -10   1 -10]
@3E FB7FBF7E0 // [-32  -5  -2 -10]
@3F 02833F203 // [ 3 -7 12  5]
@40 01823FA07 // [ 7 -3  8  3]
@41 000281014 // [20  8 10  0]
@42 10074241A // [26 18 29 32]
@43 088782C27 // [39 22 30 17]
@44 FF8000C0B // [11  6  0 -1]
@45 02FDBDFFE // [ -2 -17 -10   5]
@46 0B013FDFD // [-3 -2  4 22]
@47 020481E0D // [13 15 18  4]
@48 08003F606 // [ 6 -5  0 16]
@49 03FF407FF // [-1  3 -3  7]
@4A 038301E0C // [12 15 12  7]
@4B 0805C1C0D // [13 14 23 16]
@4C FD017F1F6 // [-10  -8   5  -6]
@4D FE01C000A // [10  0  7 -4]
@4E 058601005 // [ 5  8 24 11]
@4F F1FEC0002 // [  2   0  -5 -29]
@50 F279BB7E1 // [-31 -37 -26 -28]
@51 1082C0C02 // [ 2  6 11 33]
@52 0688C3410 // [16 26 35 13]
@53 0300FFC03 // [ 3 -2  3  6]
@54 017DC0003 // [ 3  0 -9  2]
@55 0901031FD // [-3 24  4 18]
@56 F6F8BD1FE // [ -2 -24 -30 -19]
@57 E5EAB89CD // [-51 -60 -86 -53]
@58 077FFEDE0 // [-32 -10  -1  14]
@59 0F0884E18 // [24 39 34 30]
@5A 047D7F408 // [  8  -6 -11   8]
@5B 09020120E // [14  9  8 18]
@5C 0D02C0FFE // [-2  7 11 26]
@5D F67AFCFE5 // [-27 -25 -21 -20]
@5E E3F0793D0 // [-48 -55 -63 -57]
@5F 037DFC3E4 // [-28 -31  -9   6]
@60 0C03443FE // [-2 33 13 24]
@61 030180C11 // [17  6  6  6]
@62 068181200 // [ 0  9  6 13]
@63 0A85C1404 // [ 4 10 23 21]
@64 F67ABF407 // [  7  -6 -22 -20]
@65 EB75F95D7 // [-41 -54 -41 -42]
@66 0E833D7D7 // [-41 -21  12  29]
@67 10874201D // [29 16 29 33]
@68 0601C2805 // [ 5 20  7 12]
@69 FD80FFFFA // [-6 -1  3 -5]
@6A 0E0AC2C1A // [26 22 43 28]
@6B F17EC1627 // [ 39  11  -5 -30]
@6C F3753A9D4 // [-44 -44 -44 -26]
@6D 1586807EC // [-20   3  26  43]
@6E 040681421 // [33 10 26  8]
@6F FD8201219 // [25  9  8 -5]
@70 0100C0800 // [0 4 3 2]
@71 208A84FF6 // [-10  39  42  65]
@72 148A4622F // [47 49 41 41]
@73 07F9BE5F4 // [-12 -14 -26  15]
@74 0C82C5011 // [17 40 11 25]
@75 07864161C // [28 11 25 15]
@76 0104C060C // [12  3 19  2]
@77 0081819FF // [-1 12  6  1]
@78 1C07C2A10 // [16 21 31 56]
@79 23148964D // [77 75 82 70]
@7A 0505C1E3E // [62 15 23 10]
@7B 0B0842A08 // [ 8 21 33 22]
@7C 057E41008 // [ 8  8 -7 10]
@7D 0401C1406 // [ 6 10  7  8]
@7E FB81C0000 // [ 0  0  7 -9]
@7F 1386019FD // [-3 12 24 39]
@80 258F88637 // [55 67 62 75]
@81 058A06A46 // [70 53 40 11]
@82 0B0102C0A // [10 22  4 22]
@83 0F817F80C // [12 -4  5 31]
@84 007E00C1D // [29  6 -8  0]
@85 00813F608 // [ 8 -5  4  1]
@86 078180BF7 // [-9  5  6 15]
@87 1E0C02C08 // [ 8 22 48 60]
@88 038304A20 // [32 37 12  7]
@89 007E00C03 // [ 3  6 -8  0]
@8A 0504FF807 // [ 7 -4 19 10]
@8B 047FC100F // [15  8 -1  8]
@8C FE81C1402 // [ 2 10  7 -3]
@8D 02FB7F3FB // [ -5  -7 -19   5]
@8E 0504BFDEB // [-21  -2  18  10]
@8F 007C04202 // [  2  33 -16   0]
@90 007EFFDEC // [-20  -2  -5   0]
@91 0F0702400 // [ 0 18 28 30]
@92 FF80FFE16 // [22 -1  3 -1]
@93 02FEC0400 // [ 0  2 -5  5]
@94 01777FDFA // [ -6  -2 -35   2]
@95 F8003E1F4 // [-12 -16   0 -16]
@96 FB0181C04 // [  4  14   6 -10]
@97 088280A0B // [11  5 10 17]
@98 078244402 // [ 2 34  9 15]
@99 0601FF412 // [18 -6  7 12]
@9A FB803FBFF // [-1 -3  0 -9]
@9B 00FBFFFEB // [-21  -1 -17   1]
@9C FB7E3DBEA // [-22 -19  -8 -10]
@9D 01823FBF9 // [-7 -3  8  3]
@9E 05033F9F4 // [-12  -4  12  10]
@9F 03850241B // [27 18 20  7]
@A0 0382BFC09 // [ 9 -2 10  7]
@A1 0B833FBF9 // [-7 -3 12 23]
@A2 FF007F202 // [ 2 -7  1 -2]
@A3 F37B7F5EC // [-20  -6 -19 -26]
@A4 FD7D7F3F2 // [-14  -7 -11  -6]
@A5 05FF003FB // [-5  1 -4 11]
@A6 040383607 // [ 7 27 14  8]
@A7 FDFC005F2 // [-14   2 -16  -5]
@A8 0103BFFFA // [-6 -1 14  2]
@A9 F6FCBF7EE // [-18  -5 -14 -19]
@AA 0079FE9F6 // [-10 -12 -25   0]
@AB 0501403EF // [-17   1   5  10]
@AC 040001216 // [22  9  0  8]
@AD FB0200BFD // [ -3   5   8 -10]
@AE 030200A07 // [7 5 8 6]
@AF F802BDBFE // [ -2 -19  10 -16]
@B0 FC0002C00 // [ 0 22  0 -8]
@B1 007CFEBFD // [ -3 -11 -13   0]
@B2 08007F9F6 // [-10  -4   1  16]
@B3 000200A02 // [2 5 8 0]
@B4 FE01C0602 // [ 2  3  7 -4]
@B5 FE7D833F6 // [-10  25 -10  -4]
@B6 037DBEE08 // [  8  -9 -10   6]
@B7 FC7FC13F4 // [-12   9  -1  -8]
@B8 0082C080F // [15  4 11  1]
@B9 060441A00 // [ 0 13 17 12]
@BA 05833FDF9 // [-7 -2 12 11]
@BB 050200BF2 // [-14   5   8  10]
@BC 010000807 // [7 4 0 2]
@BD 0680829F8 // [-8 20  2 13]
@BE F383FF200 // [  0  -7  15 -25]
@BF F6807F605 // [  5  -5   1 -19]
@C0 0481BF80B // [11 -4  6  9]
@C1 047EBEBFF // [ -1 -11  -6   8]
@C2 0105C2608 // [ 8 19 23  2]
@C3 F7817F3F9 // [ -7  -7   5 -17]
