@0 FF813FA07 // [ 7 -3  4 -1]
@1 00FF007F5 // [-11   3  -4   1]
@2 007F3EC08 // [  8 -10  -4   0]
@3 FFFE423F0 // [-16  17  -7  -1]
@4 FB007E607 // [  7 -13   1 -10]
@5 FD0200407 // [ 7  2  8 -6]
@6 FC7DBE3F5 // [-11 -15 -10  -8]
@7 037EC23FD // [-3 17 -5  6]
@8 04803F404 // [ 4 -6  0  9]
@9 FF7F3FBF9 // [-7 -3 -4 -2]
@A 007D81C00 // [  0  14 -10   0]
@B 0286FF5FA // [-6 -6 27  5]
@C FA0000FF9 // [ -7   7   0 -12]
@D FF018180D // [13 12  6 -2]
@E 00007F80D // [13 -4  1  0]
@F FA7E7FA0C // [ 12  -3  -7 -12]
@10 FC8041403 // [ 3 10  1 -7]
@11 01023F603 // [ 3 -5  8  2]
@12 FF7D00200 // [  0   1 -12  -2]
@13 F97F40DFC // [ -4   6  -3 -14]
@14 0082BE801 // [  1 -12  10   1]
@15 FB7EFE5F5 // [-11 -14  -5 -10]
@16 FD7D00803 // [  3   4 -12  -6]
@17 0400C140A // [10 10  3  8]
@18 0D0885214 // [20 41 34 26]
@19 04FE41007 // [ 7  8 -7  9]
@1A FF7FFE3F9 // [ -7 -15  -1  -2]
@1B 05FEC0BFA // [-6  5 -5 11]
@1C 00017FA04 // [ 4 -3  5  0]
@1D 080000BFA // [-6  5  0 16]
@1E 1004C2413 // [19 18 19 32]
@1F 100601E1D // [29 15 24 32]
@20 FC824161E // [30 11  9 -7]
@21 FC79BF5EF // [-17  -6 -26  -8]
@22 0081C0FFA // [-6  7  7  1]
@23 F781BF20C // [ 12  -7   6 -17]
@24 0E0340602 // [ 2  3 13 28]
@25 0603C3820 // [32 28 15 12]
@26 068301813 // [19 12 12 13]
@27 05040562C // [44 43 16 10]
@28 F6827DFE4 // [-28 -17   9 -19]
@29 FF013F1F7 // [-9 -8  4 -2]
@2A 0700423F4 // [-12  17   1  14]
@2B 030402409 // [ 9 18 16  6]
@2C 0B8641E25 // [37 15 25 23]
@2D 0A02C1E11 // [17 15 11 20]
@2E 070683811 // [17 28 26 14]
@2F F80383214 // [ 20  25  14 -16]
@30 F8FDC05F8 // [ -8   2  -9 -15]
@31 06FFC0A0B // [11  5 -1 13]
@32 080502607 // [ 7 19 20 16]
@33 FE8100FFB // [-5  7  4 -3]
@34 038242814 // [20 20  9  7]
@35 0D08C3610 // [16 27 35 26]
@36 FF00C160F // [15 11  3 -2]
@37 08FFC160C // [12 11 -1 17]
@38 037E3F411 // [17 -6 -8  6]
@39 007F403FF // [-1  1 -3  0]
@3A F7803EA01 // [  1 -11   0 -17]
@3B 05010020B // [11  1  4 10]
@3C 080701C14 // [20 14 28 16]
@3D 030183A19 // [25 29  6  6]
@3E 017FFF3F9 // [-7 -7 -1  2]
@3F FD8000002 // [ 2  0  0 -5]
@40 F27B3DFF3 // [-13 -17 -20 -28]
@41 E9F97B5FB // [ -5 -38 -27 -45]
@42 F7FA3B9E2 // [-30 -36 -24 -17]
@43 047EC15FB // [-5 10 -5  8]
@44 03884101D // [29  8 33  7]
@45 FFFE40A17 // [23  5 -7 -1]
@46 04FE80BF8 // [-8  5 -6  9]
@47 EEF57E200 // [  0 -15 -43 -35]
@48 E1F2FA7CB // [-53 -45 -53 -61]
@49 EFFBBA7D0 // [-48 -45 -18 -33]
@4A 0708401F1 // [-15   0  33  14]
@4B 01050260B // [11 19 20  2]
@4C FF0000DF5 // [-11   6   0  -2]
@4D 0101C1800 // [ 0 12  7  2]
@4E E4F37C5F9 // [ -7 -30 -51 -55]
@4F F177797C6 // [-58 -53 -35 -30]
@50 E9FC3DBE6 // [-26 -19 -16 -45]
@51 01FD3F1D4 // [-44  -8 -12   3]
@52 007C3F408 // [  8  -6 -16   0]
@53 040380E05 // [ 5  7 14  8]
@54 FF0001202 // [ 2  9  0 -2]
@55 E4773B1F9 // [ -7 -40 -36 -56]
@56 F8FDFB3E9 // [-23 -39  -9 -15]
@57 EEFB40E09 // [  9   7 -19 -35]
@58 F67ABCBDF // [-33 -27 -22 -20]
@59 F7F63A9EE // [-18 -44 -40 -17]
@5A 037E3F3FF // [-1 -7 -8  6]
@5B 0281427FA // [-6 19  5  5]
@5C EF76FDDEA // [-22 -18 -37 -34]
@5D 1184BFFF1 // [-15  -1  18  35]
@5E F1FE03C36 // [ 54  30  -8 -29]
@5F E8FC7DDDE // [-34 -18 -15 -47]
@60 FEFBFBFE7 // [-25 -33 -17  -3]
@61 FF8300BFB // [-5  5 12 -1]
@62 FF003FE0D // [13 -1  0 -2]
@63 FFFCFE402 // [  2 -14 -13  -1]
@64 0F8603BFA // [-6 29 24 31]
@65 F17984222 // [ 34  33 -26 -30]
@66 F67B3EDE4 // [-28 -10 -20 -20]
@67 F57B7D7ED // [-19 -21 -19 -22]
@68 FA84C1E04 // [  4  15  19 -11]
@69 FCFE41002 // [ 2  8 -7 -7]
@6A 0401C0A05 // [5 5 7 8]
@6B 0407C300D // [13 24 31  8]
@6C F67E3F61A // [ 26  -5  -8 -20]
@6D FBFEBF5E2 // [-30  -6  -6  -9]
@6E 047FBF802 // [ 2 -4 -2  8]
@6F 0700BF40A // [10 -6  2 14]
@70 0501FF002 // [ 2 -8  7 10]
@71 08030380B // [11 28 12 16]
@72 FE8040C07 // [ 7  6  1 -3]
@73 F779BDA04 // [  4 -19 -26 -18]
@74 057D001F6 // [-10   0 -12  10]
@75 04827FC08 // [ 8 -2  9  9]
@76 F9FC81415 // [ 21  10 -14 -13]
@77 FE7EBE400 // [  0 -14  -6  -4]
@78 000904608 // [ 8 35 36  0]
@79 E5757E1FB // [ -5 -16 -43 -54]
@7A F1F6B93D0 // [-48 -55 -38 -29]
@7B 000003202 // [ 2 25  0  0]
@7C 07834180B // [11 12 13 15]
@7D FC82805FD // [-3  2 10 -7]
@7E 05813F9FE // [-2 -4  4 11]
@7F 0A0986E1A // [26 55 38 20]
@80 F1F0BE9F0 // [-16 -12 -62 -29]
@81 FC76B9FD1 // [-47 -49 -38  -8]
@82 0400C2000 // [ 0 16  3  8]
@83 010743408 // [ 8 26 29  2]
@84 007FC1C11 // [17 14 -1  0]
@85 067E0280D // [13 20 -8 12]
@86 100EC583A // [58 44 59 32]
@87 F97ABF814 // [ 20  -4 -22 -14]
@88 FE767DBF3 // [-13 -19 -39  -4]
@89 FFFCC03F7 // [ -9   1 -13  -1]
@8A 040604807 // [ 7 36 24  8]
@8B 0200409FB // [-5  4  1  4]
@8C 0BFD407FC // [ -4   3 -11  23]
@8D 110804A16 // [22 37 32 34]
@8E F17D41807 // [  7  12 -11 -30]
@8F F8FC01806 // [  6  12 -16 -15]
@90 0580BFFFE // [-2 -1  2 11]
@91 06878481A // [26 36 30 13]
@92 FC7E80608 // [ 8  3 -6 -8]
@93 0383421F5 // [-11  16  13   7]
@94 118442416 // [22 18 17 35]
@95 FEFEC020E // [14  1 -5 -3]
@96 FAFEBEDED // [-19 -10  -6 -11]
@97 07057F3EE // [-18  -7  21  14]
@98 038343207 // [ 7 25 13  7]
@99 007F803FA // [-6  1 -2  0]
@9A 040100008 // [8 0 4 8]
@9B FE8301E09 // [ 9 15 12 -3]
@9C 0C0002A01 // [ 1 21  0 24]
@9D 0181015F8 // [-8 10  4  3]
@9E 07067F600 // [ 0 -5 25 14]
@9F 060001C10 // [16 14  0 12]
@A0 0102FFC07 // [ 7 -2 11  2]
@A1 008200804 // [4 4 8 1]
@A2 0A0480407 // [ 7  2 18 20]
@A3 038A80009 // [ 9  0 42  7]
@A4 050381019 // [25  8 14 10]
@A5 02827F404 // [ 4 -6  9  5]
@A6 05027E1F4 // [-12 -16   9  10]
@A7 08007EA00 // [  0 -11   1  16]
@A8 02FE3D9FD // [ -3 -20  -8   5]
@A9 078400C05 // [ 5  6 16 15]
@AA 0F8542A13 // [19 21 21 31]
@AB 09848460E // [14 35 18 19]
@AC FE023FC0F // [15 -2  8 -4]
@AD FB81801F5 // [-11   0   6  -9]
@AE 0281C240A // [10 18  7  5]
@AF FE7E40806 // [ 6  4 -7 -4]
@B0 07FABF207 // [  7  -7 -22  15]
@B1 098442A04 // [ 4 21 17 19]
@B2 08008160F // [15 11  2 16]
@B3 02FB80A13 // [ 19   5 -18   5]
@B4 007E807FB // [-5  3 -6  0]
@B5 007E8080E // [14  4 -6  0]
@B6 00FF025FA // [-6 18 -4  1]
@B7 FE81825F3 // [-13  18   6  -3]
@B8 FE0000DFC // [-4  6  0 -4]
@B9 FFFEBEBF9 // [ -7 -11  -6  -1]
@BA 067F40803 // [ 3  4 -3 12]
@BB 047E7EDFC // [ -4 -10  -7   8]
@BC FC8001C0B // [11 14  0 -7]
@BD FF7EC000F // [15  0 -5 -2]
@BE 017EBE7F7 // [ -9 -13  -6   2]
@BF 06FC40017 // [ 23   0 -15  13]
@C0 020140617 // [23  3  5  4]
@C1 0200C01FE // [-2  0  3  4]
@C2 037DC0BFF // [-1  5 -9  6]
@C3 01FCFF9F6 // [-10  -4 -13   3]
