@0 077B805F7 // [ -9   2 -18  14]
@1 FE00C1005 // [ 5  8  3 -4]
@2 00FDBF201 // [  1  -7 -10   1]
@3 FD0180000 // [ 0  0  6 -6]
@4 057E3FE09 // [ 9 -1 -8 10]
@5 037BFFDFB // [ -5  -2 -17   6]
@6 FC023F206 // [ 6 -7  8 -8]
@7 027B7F203 // [  3  -7 -19   4]
@8 02FD7FA06 // [  6  -3 -11   5]
@9 FCFE801F4 // [-12   0  -6  -7]
@A 00024040B // [11  2  9  0]
@B 00FF409FC // [-4  4 -3  1]
@C FF7E7E40A // [ 10 -14  -7  -2]
@D FF8180402 // [ 2  2  6 -1]
@E FEFE80C00 // [ 0  6 -6 -3]
@F FE7E80202 // [ 2  1 -6 -4]
@10 01033EFF1 // [-15  -9  12   2]
@11 FEFE801F4 // [-12   0  -6  -3]
@12 02FCC09EE // [-18   4 -13   5]
@13 F902C0810 // [ 16   4  11 -14]
@14 FD8200604 // [ 4  3  8 -5]
@15 FB0080E00 // [  0   7   2 -10]
@16 050200204 // [ 4  1  8 10]
@17 FC7E3EFE6 // [-26  -9  -8  -8]
@18 FE7AC01F3 // [-13   0 -21  -4]
@19 FBFD40001 // [  1   0 -11  -9]
@1A FEFEBF3FC // [-4 -7 -6 -3]
@1B FF83419F6 // [-10  12  13  -1]
@1C 0082C1813 // [19 12 11  1]
@1D 00843E40C // [ 12 -14  16   1]
@1E 0701FF008 // [ 8 -8  7 14]
@1F FF8500C09 // [ 9  6 20 -1]
@20 FE80FFE01 // [ 1 -1  3 -3]
@21 FDFDFE60E // [ 14 -13  -9  -5]
@22 018100201 // [1 1 4 3]
@23 00FC40203 // [  3   1 -15   1]
@24 01877F402 // [ 2 -6 29  3]
@25 0A8081600 // [ 0 11  2 21]
@26 FF04C1A05 // [ 5 13 19 -2]
@27 01FFBF802 // [ 2 -4 -2  3]
@28 F676FEDFD // [ -3 -10 -37 -20]
@29 FDFE801F3 // [-13   0  -6  -5]
@2A F58300A05 // [  5   5  12 -21]
@2B 04038120B // [11  9 14  8]
@2C 050540210 // [16  1 21 10]
@2D 007E821FB // [-5 16 -6  0]
@2E 007F0080B // [11  4 -4  0]
@2F F67CBE001 // [  1 -16 -14 -20]
@30 057E7F5FD // [-3 -6 -7 10]
@31 FB817EE06 // [ 6 -9  5 -9]
@32 FD040260A // [10 19 16 -6]
@33 FE00C0002 // [ 2  0  3 -4]
@34 FC7D80602 // [  2   3 -10  -8]
@35 080481C10 // [16 14 18 16]
@36 F37F00C0D // [ 13   6  -4 -26]
@37 05003DFE3 // [-29 -17   0  10]
@38 0180FF009 // [ 9 -8  3  3]
@39 0903C0013 // [19  0 15 18]
@3A FA034100C // [ 12   8  13 -12]
@3B FB7F005FA // [ -6   2  -4 -10]
@3C 108542006 // [ 6 16 21 33]
@3D F6FF40416 // [ 22   2  -3 -19]
@3E 007C3B5E5 // [-27 -38 -16   0]
@3F 040240DFD // [-3  6  9  8]
@40 000103413 // [19 26  4  0]
@41 F4FE025FB // [ -5  18  -8 -23]
@42 0A7C3E1EA // [-22 -16 -16  20]
@43 150C45E37 // [55 47 49 42]
@44 FAFC42232 // [ 50  17 -15 -11]
@45 01FCFC3D8 // [-40 -31 -13   3]
@46 FC81C0207 // [ 7  1  7 -7]
@47 FB03C1E0F // [ 15  15  15 -10]
@48 F0773DDEF // [-17 -18 -36 -32]
@49 05FBFBBD8 // [-40 -35 -17  11]
@4A 148907E2E // [46 63 36 41]
@4B F97F83025 // [ 37  24  -2 -14]
@4C 007FBF1F3 // [-13  -8  -2   0]
@4D 037F3F1F9 // [-7 -8 -4  6]
@4E F87B813F5 // [-11   9 -18 -16]
@4F F577FCDE3 // [-29 -26 -33 -22]
@50 17023C3DC // [-36 -31   8  46]
@51 178B47A23 // [35 61 45 47]
@52 048084232 // [50 33  2  9]
@53 00FC809F3 // [-13   4 -14   1]
@54 05FFC1004 // [ 4  8 -1 11]
@55 E7F6FE9F6 // [-10 -12 -37 -49]
@56 EF7A7EFE4 // [-28  -9 -23 -34]
@57 16067D1DD // [-35 -24  25  44]
@58 18038502A // [42 40 14 48]
@59 F90044829 // [ 41  36   1 -14]
@5A 018100BF6 // [-10   5   4   3]
@5B 008140007 // [7 0 5 1]
@5C E2F7FD40A // [ 10 -22 -33 -59]
@5D FBF97CDE8 // [-24 -26 -27  -9]
@5E 1C87C29F2 // [-14  20  31  57]
@5F 10084442E // [46 34 33 32]
@60 F1F70061B // [ 27   3 -36 -29]
@61 FD02C0FEB // [-21   7  11  -6]
@62 047E7F80A // [10 -4 -7  8]
@63 EA75BEC02 // [  2 -10 -42 -44]
@64 FCF93C3DA // [-38 -31 -28  -7]
@65 12088360B // [11 27 34 36]
@66 120646A22 // [34 53 25 36]
@67 F0F67C3F9 // [ -7 -31 -39 -31]
@68 097E421E9 // [-23  16  -7  18]
@69 0201FFC04 // [ 4 -2  7  4]
@6A EAFB7DC0F // [ 15 -18 -19 -43]
@6B 007D3EDD9 // [-39 -10 -12   0]
@6C 128842214 // [20 17 33 37]
@6D 008245A2C // [44 45  9  1]
@6E F0F9B9DEB // [-21 -50 -26 -31]
@6F FA80C0DF6 // [-10   6   3 -11]
@70 0878C01FB // [ -5   0 -29  16]
@71 007D3E605 // [  5 -13 -12   0]
@72 06007EBFC // [ -4 -11   1  12]
@73 110545022 // [34 40 21 34]
@74 F7034382E // [ 46  28  13 -18]
@75 F57CBDFE4 // [-28 -17 -14 -22]
@76 FE03003F4 // [-12   1  12  -4]
@77 02FF81401 // [ 1 10 -2  5]
@78 007FC040C // [12  2 -1  0]
@79 0B85C0814 // [20  4 23 23]
@7A 0A0784035 // [53 32 30 20]
@7B F8F7BF612 // [ 18  -5 -34 -15]
@7C FB7F3DBDF // [-33 -19  -4 -10]
@7D FDFFC19FF // [-1 12 -1 -5]
@7E 05007FFEC // [-20  -1   1  10]
@7F FE7D40801 // [  1   4 -11  -4]
@80 0BFD40603 // [  3   3 -11  23]
@81 FC8102C11 // [17 22  4 -7]
@82 ED77BD5EC // [-20 -22 -34 -38]
@83 F8FCBD3EB // [-21 -23 -14 -15]
@84 02FF40413 // [19  2 -3  5]
@85 0481C13F0 // [-16   9   7   9]
@86 FBFD41A04 // [  4  13 -11  -9]
@87 F6FFFF1FE // [ -2  -8  -1 -19]
@88 F0783E7EB // [-21 -13 -32 -32]
@89 F4783D3E9 // [-23 -23 -32 -24]
@8A FF7F019F4 // [-12  12  -4  -2]
@8B 0200BF205 // [ 5 -7  2  4]
@8C 05FF801FD // [-3  0 -2 11]
@8D FB00FF411 // [ 17  -6   3 -10]
@8E F0803E7FF // [ -1 -13   0 -31]
@8F EBF63A5E0 // [-32 -46 -40 -41]
@90 05FC7D7DF // [-33 -21 -15  11]
@91 0603413F0 // [-16   9  13  12]
@92 FFFD8041D // [ 29   2 -10  -1]
@93 0401C0000 // [0 0 7 8]
@94 058180C01 // [ 1  6  6 11]
@95 F5FCBFBF4 // [-12  -3 -14 -21]
@96 F173BC9E2 // [-30 -28 -50 -30]
@97 02FB7D5ED // [-19 -22 -19   5]
@98 007A003F0 // [-16   1 -24   0]
@99 FCFF00C11 // [17  6 -4 -7]
@9A FC81FF7F1 // [-15  -5   7  -7]
@9B 007F003FF // [-1  1 -4  0]
@9C FC844140A // [10 10 17 -7]
@9D F9FD7F9FB // [ -5  -4 -11 -13]
@9E FE793CFED // [-19 -25 -28  -4]
@9F FE01BF9F6 // [-10  -4   6  -4]
@A0 0403BF601 // [ 1 -5 14  8]
@A1 F7813FFF8 // [ -8  -1   4 -17]
@A2 0B8401403 // [ 3 10 16 23]
@A3 000000C11 // [17  6  0  0]
@A4 F87CC1209 // [  9   9 -13 -16]
@A5 FD81BE40A // [ 10 -14   6  -5]
@A6 08008140B // [11 10  2 16]
@A7 FC7EFE3FE // [ -2 -15  -5  -8]
@A8 05FFBF400 // [ 0 -6 -2 11]
@A9 03817F3FE // [-2 -7  5  7]
@AA FC01BFC03 // [ 3 -2  6 -8]
@AB FD79BD200 // [  0 -23 -26  -6]
@AC 03007F9FE // [-2 -4  1  6]
@AD 06FE7F40B // [11 -6 -7 13]
@AE F880BE1F8 // [ -8 -16   2 -15]
@AF 0102C1001 // [ 1  8 11  2]
@B0 077F00DF4 // [-12   6  -4  14]
@B1 058742015 // [21 16 29 11]
@B2 077F42405 // [ 5 18 -3 14]
@B3 0A83BEC0A // [ 10 -10  14  21]
@B4 027D80C04 // [  4   6 -10   4]
@B5 057D41DFF // [ -1  14 -11  10]
@B6 008400007 // [ 7  0 16  1]
@B7 08FE405EE // [-18   2  -7  17]
@B8 FE03009FB // [-5  4 12 -4]
@B9 FC000000E // [14  0  0 -8]
@BA 0281441FD // [-3 32  5  5]
@BB 017F41808 // [ 8 12 -3  2]
@BC 0501011F3 // [-13   8   4  10]
@BD 01FF823FB // [-5 17 -2  3]
@BE 0B007DBF6 // [-10 -19   1  22]
@BF 0002FFBFE // [-2 -3 11  0]
@C0 00007FA00 // [ 0 -3  1  0]
@C1 0801FF807 // [ 7 -4  7 16]
@C2 FCFE41200 // [ 0  9 -7 -7]
@C3 067EFEA00 // [  0 -11  -5  12]
