@0 067BFFA00 // [  0  -3 -17  12]
@1 FA7F01FF1 // [-15  15  -4 -12]
@2 FD803FC07 // [ 7 -2  0 -5]
@3 05FC3E400 // [  0 -14 -16  11]
@4 FBFF7EC05 // [  5 -10  -3  -9]
@5 0181BF5EC // [-20  -6   6   3]
@6 037BFF605 // [  5  -5 -17   6]
@7 F902C0BFE // [ -2   5  11 -14]
@8 FC7EBFC0F // [15 -2 -6 -8]
@9 FEFEFF201 // [ 1 -7 -5 -3]
@A 008381611 // [17 11 14  1]
@B FDFB00BF6 // [-10   5 -20  -5]
@C 070400BFA // [-6  5 16 14]
@D FBFFBF003 // [ 3 -8 -2 -9]
@E 06F8801E6 // [-26   0 -30  13]
@F FD8041205 // [ 5  9  1 -5]
@10 060040002 // [ 2  0  1 12]
@11 FD004160E // [14 11  1 -6]
@12 008001C07 // [ 7 14  0  1]
@13 FEFDC17F5 // [-11  11  -9  -3]
@14 057FBF7FD // [-3 -5 -2 10]
@15 057EC0FF4 // [-12   7  -5  10]
@16 FB8081004 // [ 4  8  2 -9]
@17 060341205 // [ 5  9 13 12]
@18 0905C080A // [10  4 23 18]
@19 02814320F // [15 25  5  5]
@1A FAFE81002 // [  2   8  -6 -11]
@1B 017E03406 // [ 6 26 -8  2]
@1C FBFC00DFA // [ -6   6 -16  -9]
@1D F980C1A00 // [  0  13   3 -13]
@1E FF8502208 // [ 8 17 20 -1]
@1F 0A8301C10 // [16 14 12 21]
@20 FE0501C07 // [ 7 14 20 -4]
@21 FA80FFA04 // [  4  -3   3 -11]
@22 FDFFC05F4 // [-12   2  -1  -5]
@23 047F80400 // [ 0  2 -2  8]
@24 0201015F9 // [-7 10  4  4]
@25 04810100A // [10  8  4  9]
@26 FFFCC0A0F // [ 15   5 -13  -1]
@27 FD80009F9 // [-7  4  0 -5]
@28 F4FDFE206 // [  6 -15  -9 -23]
@29 FF0000407 // [ 7  2  0 -2]
@2A 0200013F8 // [-8  9  0  4]
@2B 0D82407FB // [-5  3  9 27]
@2C 0880811F6 // [-10   8   2  17]
@2D 1186823FB // [-5 17 26 35]
@2E FAFB7EC14 // [ 20 -10 -19 -11]
@2F F4FBFDE09 // [  9 -17 -17 -23]
@30 FB803E5FB // [ -5 -14   0  -9]
@31 FE8300804 // [ 4  4 12 -3]
@32 047C7F402 // [  2  -6 -15   8]
@33 067BBFA0D // [ 13  -3 -18  12]
@34 198D43A1F // [31 29 53 51]
@35 FB78C141D // [ 29  10 -29 -10]
@36 FB79BD9E2 // [-30 -20 -26 -10]
@37 0501C0200 // [ 0  1  7 10]
@38 017DBE800 // [  0 -12 -10   2]
@39 FA7B3FDFB // [ -5  -2 -20 -12]
@3A 0E013F3FD // [-3 -7  4 28]
@3B 170D04828 // [40 36 52 46]
@3C F177BE20C // [ 12 -15 -34 -30]
@3D FBFD7DDD2 // [-46 -18 -11  -9]
@3E F980C0200 // [  0   1   3 -13]
@3F FA7FFFA08 // [  8  -3  -1 -12]
@40 F503C1405 // [  5  10  15 -22]
@41 F90100006 // [  6   0   4 -14]
@42 128341800 // [ 0 12 13 37]
@43 E3F1FD805 // [  5 -20 -57 -57]
@44 F87F3CFEA // [-22 -25  -4 -16]
@45 030002410 // [16 18  0  6]
@46 FC8380010 // [16  0 14 -7]
@47 06803FFED // [-19  -1   0  13]
@48 F97CBF60B // [ 11  -5 -14 -14]
@49 1108403F6 // [-10   1  33  34]
@4A EE737B9FA // [ -6 -36 -51 -36]
@4B 04FDBC9DE // [-34 -28 -10   9]
@4C 03837FA0C // [12 -3 13  7]
@4D F70000600 // [  0   3   0 -18]
@4E FF8000DEC // [-20   6   0  -1]
@4F F0FDBEA0C // [ 12 -11 -10 -31]
@50 0F8ABFFF3 // [-13  -1  42  31]
@51 F6F5FDA03 // [  3 -19 -41 -19]
@52 FA783D5F8 // [ -8 -22 -32 -12]
@53 FB820060A // [10  3  8 -9]
@54 010240411 // [17  2  9  2]
@55 007F7F7F5 // [-11  -5  -3   0]
@56 F6FB7E7EC // [-20 -13 -19 -19]
@57 151404BF4 // [-12  37  80  42]
@58 F4FC3E002 // [  2 -16 -16 -23]
@59 00FBC03FE // [ -2   1 -17   1]
@5A FF81809F1 // [-15   4   6  -1]
@5B 0B803FBF1 // [-15  -3   0  23]
@5C FFF8FD9EA // [-22 -20 -29  -1]
@5D F6F77B7F4 // [-12 -37 -35 -19]
@5E 1F9087A06 // [ 6 61 66 63]
@5F 06810041D // [29  2  4 13]
@60 FEF83EFF7 // [ -9  -9 -32  -3]
@61 017F81602 // [ 2 11 -2  2]
@62 03803FA02 // [ 2 -3  0  7]
@63 F3FC3FBFB // [ -5  -3 -16 -25]
@64 FA7BBCDE8 // [-24 -26 -18 -12]
@65 189348422 // [34 66 77 49]
@66 F87C7FC1B // [ 27  -2 -15 -16]
@67 FA797EDFB // [ -5 -10 -27 -12]
@68 FC80C0DFF // [-1  6  3 -7]
@69 03FCBFDFD // [ -3  -2 -14   7]
@6A F0F8BD606 // [  6 -21 -30 -31]
@6B 08007D5ED // [-19 -22   1  16]
@6C 170FC8221 // [33 65 63 46]
@6D F07C3D412 // [ 18 -22 -16 -32]
@6E F67EFF9E0 // [-32  -4  -5 -20]
@6F 027FC01FB // [-5  0 -1  4]
@70 0383819F1 // [-15  12  14   7]
@71 EEF87FFF9 // [ -7  -1 -31 -35]
@72 038180BDE // [-34   5   6   7]
@73 050C07C2D // [45 62 48 10]
@74 FEFA3D604 // [  4 -21 -24  -3]
@75 007CFF7FF // [ -1  -5 -13   0]
@76 FB8341C08 // [ 8 14 13 -9]
@77 04FF3E202 // [  2 -15  -4   9]
@78 F17CFDA00 // [  0 -19 -13 -30]
@79 0C803E3E3 // [-29 -15   0  25]
@7A FE8445A1F // [31 45 17 -3]
@7B 007EFF5F9 // [-7 -6 -5  0]
@7C 03807C9F2 // [-14 -28   1   7]
@7D 000180404 // [4 2 6 0]
@7E 02FEFEBF0 // [-16 -11  -5   5]
@7F F9057D7F9 // [ -7 -21  21 -14]
@80 118341BFF // [-1 13 13 35]
@81 07854341F // [31 26 21 15]
@82 007FFF609 // [ 9 -5 -1  0]
@83 01860000C // [12  0 24  3]
@84 FF0180410 // [16  2  6 -2]
@85 01007FA0B // [11 -3  1  2]
@86 F87E415FE // [ -2  10  -7 -16]
@87 1407439FA // [-6 28 29 40]
@88 0C8A02A20 // [32 21 40 25]
@89 048201617 // [23 11  8  9]
@8A 0A00C2A0A // [10 21  3 20]
@8B 01FDC17FB // [-5 11 -9  3]
@8C F97E4040A // [ 10   2  -7 -14]
@8D 0783C0601 // [ 1  3 15 15]
@8E 0C0282E0F // [15 23 10 24]
@8F 030A02E09 // [ 9 23 40  6]
@90 05840300F // [15 24 16 11]
@91 02010180A // [10 12  4  4]
@92 0B01BEA11 // [ 17 -11   6  22]
@93 007E01A0A // [10 13 -8  0]
@94 100303409 // [ 9 26 12 32]
@95 FBFF41203 // [ 3  9 -3 -9]
@96 FF0B40406 // [ 6  2 45 -2]
@97 FF02405F4 // [-12   2   9  -2]
@98 020082210 // [16 17  2  4]
@99 FC7E81209 // [ 9  9 -6 -8]
@9A 097E00403 // [ 3  2 -8 18]
@9B 000142204 // [ 4 17  5  0]
@9C 007AFFC03 // [  3  -2 -21   0]
@9D F9FEBD7F7 // [ -9 -21  -6 -13]
@9E 038381402 // [ 2 10 14  7]
@9F 00000260D // [13 19  0  0]
@A0 FD80BF5FD // [-3 -6  2 -5]
@A1 06803E1F3 // [-13 -16   0  13]
@A2 F88080DF9 // [ -7   6   2 -15]
@A3 F8FCFFC01 // [  1  -2 -13 -15]
@A4 F97FFE9FC // [ -4 -12  -1 -14]
@A5 017FC2BFF // [-1 21 -1  2]
@A6 088000DFD // [-3  6  0 17]
@A7 0402C0C04 // [ 4  6 11  8]
@A8 06FD40600 // [  0   3 -11  13]
@A9 0182C0E00 // [ 0  7 11  3]
@AA FE8041C08 // [ 8 14  1 -3]
@AB 07FC01DF8 // [ -8  14 -16  15]
@AC 00010040C // [12  2  4  0]
@AD 0602BEE0C // [12 -9 10 12]
@AE 007FBF3F3 // [-13  -7  -2   0]
@AF 0003C0E16 // [22  7 15  0]
@B0 0101401F0 // [-16   0   5   2]
@B1 03037FC0D // [13 -2 13  6]
@B2 060200C19 // [25  6  8 12]
@B3 0884C01FA // [-6  0 19 17]
@B4 FD824080F // [15  4  9 -5]
@B5 FEFCC0801 // [  1   4 -13  -3]
@B6 027E3F3FF // [-1 -7 -8  4]
@B7 FF01807EE // [-18   3   6  -2]
@B8 FA00BF1FA // [ -6  -8   2 -12]
@B9 FEFA807FC // [ -4   3 -22  -3]
@BA 007C8000F // [ 15   0 -14   0]
@BB FD8001200 // [ 0  9  0 -5]
@BC 007F82003 // [ 3 16 -2  0]
@BD 0A023FA02 // [ 2 -3  8 20]
@BE FAFA80209 // [  9   1 -22 -11]
@BF FE7E00000 // [ 0  0 -8 -4]
@C0 03FEBF40C // [12 -6 -6  7]
@C1 FAFFBF5F4 // [-12  -6  -2 -11]
@C2 07017FC07 // [ 7 -2  5 14]
@C3 FBFF3FFF3 // [-13  -1  -4  -9]
