@0 0682BFFE8 // [-24  -1  10  13]
@1 FB7F415FC // [ -4  10  -3 -10]
@2 FC80FF5F6 // [-10  -6   3  -7]
@3 03807FFF8 // [-8 -1  1  7]
@4 FD01405F6 // [-10   2   5  -6]
@5 FFFD40BF5 // [-11   5 -11  -1]
@6 FD003FDFF // [-1 -2  0 -6]
@7 007E7E200 // [  0 -15  -7   0]
@8 0384007F9 // [-7  3 16  7]
@9 04FEFFDF9 // [-7 -2 -5  9]
@A FD81BFC05 // [ 5 -2  6 -5]
@B 0000017F0 // [-16  11   0   0]
@C 008380604 // [ 4  3 14  1]
@D 097E7EE00 // [ 0 -9 -7 18]
@E FE82401FA // [-6  0  9 -3]
@F 008081602 // [ 2 11  2  1]
@10 FD01BFE07 // [ 7 -1  6 -6]
@11 017BBF1F8 // [ -8  -8 -18   2]
@12 FF7C80BFD // [ -3   5 -14  -2]
@13 01FFBFFFC // [-4 -1 -2  3]
@14 007FC0008 // [ 8  0 -1  0]
@15 007FC0008 // [ 8  0 -1  0]
@16 05800160A // [10 11  0 11]
@17 FD013F5FD // [-3 -6  4 -6]
@18 FEFCFF9FF // [ -1  -4 -13  -3]
@19 03027F3EB // [-21  -7   9   6]
@1A 080000402 // [ 2  2  0 16]
@1B FEFEFFFFD // [-3 -1 -5 -3]
@1C FF0040605 // [ 5  3  1 -2]
@1D FB00FFFF7 // [ -9  -1   3 -10]
@1E FA7F3E9F5 // [-11 -12  -4 -12]
@1F F9FBFD7FD // [ -3 -21 -17 -13]
@20 07FF003EC // [-20   1  -4  15]
@21 FE02C240F // [15 18 11 -4]
@22 007EC200F // [15 16 -5  0]
@23 06FF40E0D // [13  7 -3 13]
@24 FBFF7F7F7 // [-9 -5 -3 -9]
@25 FAFE3E7FD // [ -3 -13  -8 -11]
@26 F47941006 // [  6   8 -27 -24]
@27 03753DFF3 // [-13 -17 -44   6]
@28 02FF023F0 // [-16  17  -4   5]
@29 020041201 // [1 9 1 4]
@2A 0000405F0 // [-16   2   1   0]
@2B FF7FC05F8 // [-8  2 -1 -2]
@2C 0580003F1 // [-15   1   0  11]
@2D F8783F607 // [  7  -5 -32 -16]
@2E F4FBFD7E3 // [-29 -21 -17 -23]
@2F FD7E3DFF2 // [-14 -17  -8  -6]
@30 0280C080C // [12  4  3  5]
@31 FB0001A07 // [  7  13   0 -10]
@32 08FEBF7FC // [-4 -5 -6 17]
@33 FAFD40C1C // [ 28   6 -11 -11]
@34 E7FD3C5E8 // [-24 -30 -12 -49]
@35 EEFA7E9DE // [-34 -12 -23 -35]
@36 037C801FA // [ -6   0 -14   6]
@37 088440611 // [17  3 17 17]
@38 FE80FE809 // [  9 -12   3  -3]
@39 03FEFF004 // [ 4 -8 -5  7]
@3A F97E41A07 // [  7  13  -7 -14]
@3B EC73BE5E6 // [-26 -14 -50 -40]
@3C F77CFB9F1 // [-15 -36 -13 -18]
@3D 0701FF800 // [ 0 -4  7 14]
@3E FB0040604 // [  4   3   1 -10]
@3F 077E005FC // [-4  2 -8 14]
@40 0681419FC // [-4 12  5 13]
@41 05FF8000A // [10  0 -2 11]
@42 F3F87DBF6 // [-10 -19 -31 -25]
@43 FC7B7C1DE // [-34 -32 -19  -8]
@44 FE05BFFF9 // [-7 -1 22 -4]
@45 0004FEC05 // [  5 -10  19   0]
@46 020201C05 // [ 5 14  8  4]
@47 0C05C1804 // [ 4 12 23 24]
@48 09860141B // [27 10 24 19]
@49 F5FD02820 // [ 32  20 -12 -21]
@4A 007CBE3ED // [-19 -15 -14   0]
@4B F9FF7E3FE // [ -2 -15  -3 -13]
@4C 04FDFF602 // [ 2 -5 -9  9]
@4D 01FD813F6 // [-10   9 -10   3]
@4E 138641E10 // [16 15 25 39]
@4F 218AC582D // [45 44 43 67]
@50 0B04C584B // [75 44 19 22]
@51 02FF84223 // [35 33 -2  5]
@52 FC8100609 // [ 9  3  4 -7]
@53 FD81811F5 // [-11   8   6  -5]
@54 FEFDC01FD // [-3  0 -9 -3]
@55 168C455F4 // [-12  42  49  45]
@56 198AC401E // [30 32 43 51]
@57 0F0B85226 // [38 41 46 30]
@58 03824302F // [47 24  9  7]
@59 FF8241A12 // [18 13  9 -1]
@5A F6033FBFB // [ -5  -3  12 -20]
@5B FC7FFF5FD // [-3 -6 -1 -8]
@5C 118B42013 // [19 16 45 35]
@5D 0B81C2A12 // [18 21  7 23]
@5E 100501C18 // [24 14 20 32]
@5F 0B888442B // [43 34 34 23]
@60 0386C2820 // [32 20 27  7]
@61 FF7EC1A12 // [18 13 -5 -2]
@62 FFFF019F4 // [-12  12  -4  -1]
@63 01090340C // [12 26 36  2]
@64 007C40000 // [  0   0 -15   0]
@65 03813F005 // [ 5 -8  4  7]
@66 1404C461F // [31 35 19 40]
@67 00FF42215 // [21 17 -3  1]
@68 00003E001 // [  1 -16   0   0]
@69 05FDC0001 // [ 1  0 -9 11]
@6A 06043FC00 // [ 0 -2 16 12]
@6B 0280813F6 // [-10   9   2   5]
@6C 07FFBE20E // [ 14 -15  -2  15]
@6D 13FF84214 // [20 33 -2 39]
@6E FB8580E18 // [24  7 22 -9]
@6F 08FB7DDFC // [ -4 -18 -19  17]
@70 FE7E3EFF9 // [-7 -9 -8 -4]
@71 01FDBFBF5 // [-11  -3 -10   3]
@72 0381C0C06 // [6 6 7 7]
@73 08020000E // [14  0  8 16]
@74 0A860180F // [15 12 24 21]
@75 F68180421 // [ 33   2   6 -19]
@76 FC7FBE1FC // [ -4 -16  -2  -8]
@77 FA7F7E3FB // [ -5 -15  -3 -12]
@78 00FF3D1E9 // [-23 -24  -4   1]
@79 078641606 // [ 6 11 25 15]
@7A 090343A14 // [20 29 13 18]
@7B 000500C13 // [19  6 20  0]
@7C F87EFEDFB // [ -5 -10  -5 -16]
@7D 01003FFFD // [-3 -1  0  2]
@7E FB7E4400C // [ 12  32  -7 -10]
@7F FCFBBC7F4 // [-12 -29 -18  -7]
@80 0C827FA08 // [ 8 -3  9 25]
@81 0685C101B // [27  8 23 13]
@82 01823FA02 // [ 2 -3  8  3]
@83 F67BFE80A // [ 10 -12 -17 -20]
@84 01FC7E5F0 // [-16 -14 -15   3]
@85 FFFE415EA // [-22  10  -7  -1]
@86 FC7A3CDDE // [-34 -26 -24  -8]
@87 FB81FEBF5 // [-11 -11   7  -9]
@88 FC7A7DBF5 // [-11 -19 -23  -8]
@89 FF02FFE00 // [ 0 -1 11 -2]
@8A F8FDBDFF5 // [-11 -17 -10 -15]
@8B FF7D7D1FB // [ -5 -24 -11  -2]
@8C 01823FDFA // [-6 -2  8  3]
@8D F1FABD7E1 // [-31 -21 -22 -29]
@8E F6777C9E2 // [-30 -28 -35 -20]
@8F FB7DFE3F2 // [-14 -15  -9 -10]
@90 000180402 // [2 2 6 0]
@91 F4FE3E006 // [  6 -16  -8 -23]
@92 0000BEDF8 // [ -8 -10   2   0]
@93 FE7E807F8 // [-8  3 -6 -4]
@94 F378BC802 // [  2 -28 -30 -26]
@95 FAFB7D5E7 // [-25 -22 -19 -11]
@96 FF827E5F1 // [-15 -14   9  -1]
@97 037C00406 // [  6   2 -16   6]
@98 F77B3C7F2 // [-14 -29 -20 -18]
@99 01FC7F5F0 // [-16  -6 -15   3]
@9A 06853EDEA // [-22 -10  20  13]
@9B F1FAFDFFC // [ -4 -17 -21 -29]
@9C F2FC3F1EA // [-22  -8 -16 -27]
@9D 000180802 // [2 4 6 0]
@9E FA7FFF406 // [  6  -6  -1 -12]
@9F F681803F0 // [-16   1   6 -19]
@A0 F9807E5EE // [-18 -14   1 -13]
@A1 00003FE11 // [17 -1  0  0]
@A2 007C3EE04 // [  4  -9 -16   0]
@A3 FBFCBEA00 // [  0 -11 -14  -9]
@A4 04027F9F8 // [-8 -4  9  8]
@A5 007DC0E00 // [ 0  7 -9  0]
@A6 007D7EA01 // [  1 -11 -11   0]
@A7 FBFC403F4 // [-12   1 -15  -9]
@A8 FC7E40A05 // [ 5  5 -7 -8]
@A9 F9817F1F5 // [-11  -8   5 -13]
@AA 028040807 // [7 4 1 5]
@AB F981FD7F2 // [-14 -21   7 -13]
@AC 0203C17FE // [-2 11 15  4]
@AD 07827FC03 // [ 3 -2  9 15]
@AE FB01FEDF5 // [-11 -10   7 -10]
@AF 0300FDFFA // [ -6 -17   3   6]
@B0 06FCC05FE // [ -2   2 -13  13]
@B1 048701605 // [ 5 11 28  9]
@B2 FEFFFF00F // [15 -8 -1 -3]
@B3 FD7C40E07 // [  7   7 -15  -6]
@B4 FF014000A // [10  0  5 -2]
@B5 0002C1DFA // [-6 14 11  0]
@B6 060040E02 // [ 2  7  1 12]
@B7 008000FFD // [-3  7  0  1]
@B8 027EBF001 // [ 1 -8 -6  4]
@B9 FF804240D // [13 18  1 -1]
@BA FD7EFEE02 // [ 2 -9 -5 -6]
@BB FC7EFFDFA // [-6 -2 -5 -8]
@BC 027F40E02 // [ 2  7 -3  4]
@BD FE7F8120A // [10  9 -2 -4]
@BE 00FEC0200 // [ 0  1 -5  1]
@BF 04FFC01FF // [-1  0 -1  9]
@C0 00FF40A08 // [ 8  5 -3  1]
@C1 FC0441BFA // [-6 13 17 -8]
@C2 F980803FF // [ -1   1   2 -13]
@C3 FE0140000 // [ 0  0  5 -4]
