@0 04803F20F // [15 -7  0  9]
@1 0502413FA // [-6  9  9 10]
@2 0100005F7 // [-9  2  0  2]
@3 FF8141A00 // [ 0 13  5 -1]
@4 047C7F200 // [  0  -7 -15   8]
@5 FF013E601 // [  1 -13   4  -2]
@6 FE7DC0FF9 // [-7  7 -9 -4]
@7 000500BF9 // [-7  5 20  0]
@8 FA7E0160A // [ 10  11  -8 -12]
@9 0380001FB // [-5  0  0  7]
@A FFFBC040B // [ 11   2 -17  -1]
@B FF8480A03 // [ 3  5 18 -1]
@C 00017E800 // [  0 -12   5   0]
@D 05003DDFF // [ -1 -18   0  10]
@E FE023EC07 // [  7 -10   8  -4]
@F 058200205 // [ 5  1  8 11]
@10 020101605 // [ 5 11  4  4]
@11 01FFC000B // [11  0 -1  3]
@12 FB833E7F6 // [-10 -13  12  -9]
@13 00FC7E9F4 // [-12 -12 -15   1]
@14 03FD429FF // [ -1  20 -11   7]
@15 0081BFC04 // [ 4 -2  6  1]
@16 FA817FC0C // [ 12  -2   5 -11]
@17 1280411FF // [-1  8  1 37]
@18 FF810260D // [13 19  4 -1]
@19 02FC42211 // [ 17  17 -15   5]
@1A 008440A01 // [ 1  5 17  1]
@1B FF80407FE // [-2  3  1 -1]
@1C FF0080807 // [ 7  4  2 -2]
@1D 058281006 // [ 6  8 10 11]
@1E 088703012 // [18 24 28 17]
@1F 00FF841F9 // [-7 32 -2  1]
@20 017E7FBF9 // [-7 -3 -7  2]
@21 F6FBFEBEC // [-20 -11 -17 -19]
@22 0003C09FB // [-5  4 15  0]
@23 027EBF003 // [ 3 -8 -6  4]
@24 000441600 // [ 0 11 17  0]
@25 030381615 // [21 11 14  6]
@26 078142003 // [ 3 16  5 15]
@27 000082816 // [22 20  2  0]
@28 F1F8FE3FA // [ -6 -15 -29 -29]
@29 027E7E7EA // [-22 -13  -7   4]
@2A 040280412 // [18  2 10  8]
@2B 09FFC1801 // [ 1 12 -1 19]
@2C 00FFC05FC // [-4  2 -1  1]
@2D 0606815FE // [-2 10 26 12]
@2E F9FFC160F // [ 15  11  -1 -13]
@2F F1FF7CDF8 // [ -8 -26  -3 -29]
@30 FD80801EB // [-21   0   2  -5]
@31 0602C040C // [12  2 11 12]
@32 01850220A // [10 17 20  3]
@33 F3FA7DA09 // [  9 -19 -23 -25]
@34 0A85005F3 // [-13   2  20  21]
@35 038402C19 // [25 22 16  7]
@36 EAF9BF7F9 // [ -7  -5 -26 -43]
@37 FD7FBD7C0 // [-64 -21  -2  -6]
@38 017FFF204 // [ 4 -7 -1  2]
@39 038601805 // [ 5 12 24  7]
@3A F3FA3D7F5 // [-11 -21 -24 -25]
@3B 158200BF0 // [-16   5   8  43]
@3C 0081C0E19 // [25  7  7  1]
@3D E8F7BE1F9 // [ -7 -16 -34 -47]
@3E 00FFBBBD0 // [-48 -35  -2   1]
@3F 00007FA07 // [ 7 -3  1  0]
@40 FB7F42208 // [  8  17  -3 -10]
@41 EAF87D3D1 // [-47 -23 -31 -43]
@42 18887F7E5 // [-27  -5  33  49]
@43 0B8584E2D // [45 39 22 23]
@44 EBFA80A12 // [ 18   5 -22 -41]
@45 00823D1D6 // [-42 -24   8   1]
@46 FF7F7FDF1 // [-15  -2  -3  -2]
@47 EFFDC0C01 // [  1   6  -9 -33]
@48 E6EFBA1E3 // [-29 -48 -66 -51]
@49 07003D1C9 // [-55 -24   0  14]
@4A 078544E16 // [22 39 21 15]
@4B FBFD80A1C // [ 28   5 -10  -9]
@4C 007EBE9D9 // [-39 -12  -6   0]
@4D 0001BE9F6 // [-10 -12   6   0]
@4E F279FEA00 // [  0 -11 -25 -28]
@4F F176B91CB // [-53 -56 -38 -30]
@50 F5F97CDD7 // [-41 -26 -27 -21]
@51 0B82C2C10 // [16 22 11 23]
@52 0602C3429 // [41 26 11 12]
@53 027FFE9F4 // [-12 -12  -1   4]
@54 FE82BFFFA // [-6 -1 10 -3]
@55 F07EBEDEE // [-18 -10  -6 -32]
@56 FC79BC9F3 // [-13 -28 -26  -8]
@57 F77A7BFF4 // [-12 -33 -23 -18]
@58 0B8400A06 // [ 6  5 16 23]
@59 0E08C5218 // [24 41 35 28]
@5A FA007F410 // [ 16  -6   1 -12]
@5B 04FF417E3 // [-29  11  -3   9]
@5C 03FDC0607 // [ 7  3 -9  7]
@5D F7FD7DBF8 // [ -8 -19 -11 -17]
@5E F17C7F7F4 // [-12  -5 -15 -30]
@5F 080481E06 // [ 6 15 18 16]
@60 198A02C05 // [ 5 22 40 51]
@61 FB034121D // [ 29   9  13 -10]
@62 FF7E405FA // [-6  2 -7 -2]
@63 0F837F601 // [ 1 -5 13 31]
@64 02FD3FC0D // [ 13  -2 -12   5]
@65 F17D3DDFF // [ -1 -18 -12 -30]
@66 FF7C80BFC // [ -4   5 -14  -2]
@67 0E06C1A12 // [18 13 27 28]
@68 007F00A13 // [19  5 -4  0]
@69 FF03FF604 // [ 4 -5 15 -2]
@6A 138800DFA // [-6  6 32 39]
@6B FF850261B // [27 19 20 -1]
@6C F27BBD606 // [  6 -21 -18 -28]
@6D FCFC013F2 // [-14   9 -16  -7]
@6E 098742200 // [ 0 17 29 19]
@6F 028000DF9 // [-7  6  0  5]
@70 037EC03EA // [-22   1  -5   6]
@71 188B02E0C // [12 23 44 49]
@72 078842E1D // [29 23 33 15]
@73 EF7C7E804 // [  4 -12 -15 -34]
@74 0702009F6 // [-10   4   8  14]
@75 0B0502A10 // [16 21 20 22]
@76 0601427F9 // [-7 19  5 12]
@77 070140201 // [ 1  1  5 14]
@78 1001015F5 // [-11  10   4  32]
@79 0204C421C // [28 33 19  4]
@7A F1F9BDC00 // [  0 -18 -26 -29]
@7B 0C8341FFB // [-5 15 13 25]
@7C 0B8600811 // [17  4 24 23]
@7D FFFF0120C // [12  9 -4 -1]
@7E 06803FE09 // [ 9 -1  0 13]
@7F FE7FC1606 // [ 6 11 -1 -4]
@80 03824100D // [13  8  9  7]
@81 FF7B7DDF3 // [-13 -18 -19  -2]
@82 050783816 // [22 28 30 10]
@83 FF07C3818 // [24 28 31 -2]
@84 FB003F403 // [  3  -6   0 -10]
@85 00FDFF9FA // [-6 -4 -9  1]
@86 007B01C12 // [ 18  14 -20   0]
@87 FF84415F1 // [-15  10  17  -1]
@88 05FCFD206 // [  6 -23 -13  11]
@89 070505C0F // [15 46 20 14]
@8A 020140415 // [21  2  5  4]
@8B 02FDC0A01 // [ 1  5 -9  5]
@8C 098000DFD // [-3  6  0 19]
@8D 0001C2819 // [25 20  7  0]
@8E 030240DEA // [-22   6   9   6]
@8F 03057F7F6 // [-10  -5  21   6]
@90 080C43A18 // [24 29 49 16]
@91 0580FF014 // [20 -8  3 11]
@92 0C82C0608 // [ 8  3 11 25]
@93 0C817F405 // [ 5 -6  5 25]
@94 008380414 // [20  2 14  1]
@95 067D00FF3 // [-13   7 -12  12]
@96 037D40001 // [  1   0 -11   6]
@97 030504413 // [19 34 20  6]
@98 000240814 // [20  4  9  0]
@99 FBFF00A05 // [ 5  5 -4 -9]
@9A 0283401FD // [-3  0 13  5]
@9B 06FF8160E // [14 11 -2 13]
@9C 007E83000 // [ 0 24 -6  0]
@9D 027F3F7F5 // [-11  -5  -4   4]
@9E FF81FDE05 // [  5 -17   7  -1]
@9F 02FF801F7 // [-9  0 -2  5]
@A0 FDFF80805 // [ 5  4 -2 -5]
@A1 0181FE5FE // [ -2 -14   7   3]
@A2 0801041F9 // [-7 32  4 16]
@A3 FEFEC0609 // [ 9  3 -5 -3]
@A4 F77AFE000 // [  0 -16 -21 -18]
@A5 F4017D9EA // [-22 -20   5 -24]
@A6 04007DBFE // [ -2 -19   1   8]
@A7 0283BEDFD // [ -3 -10  14   5]
@A8 FD0000E00 // [ 0  7  0 -6]
@A9 FE827FBFE // [-2 -3  9 -3]
@AA F47F3F1F8 // [ -8  -8  -4 -24]
@AB F47C7D9EE // [-18 -20 -15 -24]
@AC FEFDBEFE8 // [-24  -9 -10  -3]
@AD 04FD0120D // [ 13   9 -12   9]
@AE F47E40A00 // [  0   5  -7 -24]
@AF 07FCBE7FE // [ -2 -13 -14  15]
@B0 017F3F3FB // [-5 -7 -4  2]
@B1 FFFE80404 // [ 4  2 -6 -1]
@B2 F77FFDA00 // [  0 -19  -1 -18]
@B3 FCFABFFF1 // [-15  -1 -22  -7]
@B4 00FF40205 // [ 5  1 -3  1]
@B5 0182BF7F6 // [-10  -5  10   3]
@B6 047EFD208 // [  8 -23  -5   8]
@B7 0280C03FB // [-5  1  3  5]
@B8 FEFD7EA07 // [  7 -11 -11  -3]
@B9 0003001FE // [-2  0 12  0]
@BA FB807FC06 // [ 6 -2  1 -9]
@BB FC82BEDFB // [ -5 -10  10  -7]
@BC 017E40A05 // [ 5  5 -7  2]
@BD FD81FF1F4 // [-12  -8   7  -5]
@BE 04FEBF405 // [ 5 -6 -6  9]
@BF 017C415FB // [ -5  10 -15   2]
@C0 07033E601 // [  1 -13  12  14]
@C1 FB01419FA // [ -6  12   5 -10]
@C2 FE0000FEF // [-17   7   0  -4]
@C3 0580809FE // [-2  4  2 11]
