@0 FC847F3FD // [-3 -7 17 -7]
@1 047FC01FB // [-5  0 -1  8]
@2 0200809F3 // [-13   4   2   4]
@3 0604FF601 // [ 1 -5 19 12]
@4 FB04C0009 // [  9   0  19 -10]
@5 F8FE7FC0B // [ 11  -2  -7 -15]
@6 04043EFFD // [-3 -9 16  8]
@7 FFFE40BFC // [-4  5 -7 -1]
@8 FD807EBFF // [ -1 -11   1  -5]
@9 FB847EE03 // [ 3 -9 17 -9]
@A 060040A0C // [12  5  1 12]
@B 040000DFF // [-1  6  0  8]
@C FF03411F3 // [-13   8  13  -2]
@D 02017E206 // [  6 -15   5   4]
@E 037CC1BF2 // [-14  13 -13   6]
@F FB84C03F7 // [-9  1 19 -9]
@10 037D80405 // [  5   2 -10   6]
@11 067C809FD // [ -3   4 -14  12]
@12 0A00803F3 // [-13   1   2  20]
@13 02027F5FA // [-6 -6  9  4]
@14 FF7E807FE // [-2  3 -6 -2]
@15 048101BF3 // [-13  13   4   9]
@16 0700FEA03 // [  3 -11   3  14]
@17 FF0000802 // [ 2  4  0 -2]
@18 0481BF3F7 // [-9 -7  6  9]
@19 0381BF9FF // [-1 -4  6  7]
@1A 058401A02 // [ 2 13 16 11]
@1B 00803EFEC // [-20  -9   0   1]
@1C 057DC1401 // [ 1 10 -9 10]
@1D F97EBFFFF // [ -1  -1  -6 -14]
@1E F77CC0401 // [  1   2 -13 -18]
@1F 088200BFC // [-4  5  8 17]
@20 0D0681614 // [20 11 26 26]
@21 FE02C1812 // [18 12 11 -4]
@22 FD7FBE405 // [  5 -14  -2  -6]
@23 FC7DFCBF8 // [ -8 -27  -9  -8]
@24 00813D21C // [ 28 -23   4   1]
@25 FA7E81611 // [ 17  11  -6 -12]
@26 0D81401EF // [-17   0   5  27]
@27 0F8582A24 // [36 21 22 31]
@28 08884561C // [28 43 33 17]
@29 FC82C0A15 // [21  5 11 -7]
@2A FCFF80DFC // [-4  6 -2 -7]
@2B 0280FE7FC // [ -4 -13   3   5]
@2C F70080202 // [  2   1   2 -18]
@2D E6737CBE1 // [-31 -27 -51 -52]
@2E FC7B3DBE4 // [-28 -19 -20  -8]
@2F 17090500A // [10 40 36 46]
@30 F600C1017 // [ 23   8   3 -20]
@31 027EBF9F6 // [-10  -4  -6   4]
@32 0481FE808 // [  8 -12   7   9]
@33 EB777EC0F // [ 15 -10 -35 -42]
@34 CFE7779C0 // [-64 -68 -99 -97]
@35 F97577BA8 // [-88 -67 -43 -14]
@36 1809C1DF2 // [-14  14  39  48]
@37 0084C1E20 // [32 15 19  1]
@38 050280809 // [ 9  4 10 10]
@39 0381811FC // [-4  8  6  7]
@3A F0F9C000E // [ 14   0 -25 -31]
@3B CF6A383D5 // [-43 -63 -88 -98]
@3C 017E7EBC1 // [-63 -11  -7   2]
@3D 0E08C220A // [10 17 35 28]
@3E 04824261B // [27 19  9  9]
@3F FEFF3FE15 // [21 -1 -4 -3]
@40 FD82C1601 // [ 1 11 11 -5]
@41 F87DBD805 // [  5 -20 -10 -16]
@42 DFF0BADE9 // [-23 -42 -62 -65]
@43 02833F00B // [11 -8 12  5]
@44 02FF007FB // [-5  3 -4  5]
@45 03023FC0C // [12 -2  8  6]
@46 FC0180A06 // [ 6  5  6 -8]
@47 02FBC01F7 // [ -9   0 -17   5]
@48 0102809F5 // [-11   4  10   2]
@49 F479FC803 // [  3 -28 -25 -24]
@4A F9FC81400 // [  0  10 -14 -13]
@4B F87ABF5F9 // [ -7  -6 -22 -16]
@4C FC7F415FB // [-5 10 -3 -8]
@4D 02003F800 // [ 0 -4  0  4]
@4E F6FAFE5F3 // [-13 -14 -21 -19]
@4F 0207BE7FC // [ -4 -13  30   4]
@50 F4783D411 // [ 17 -22 -32 -24]
@51 F27A3AFFD // [ -3 -41 -24 -28]
@52 00793BBD5 // [-43 -35 -28   0]
@53 028240808 // [8 4 9 5]
@54 F9FF3F5F1 // [-15  -6  -4 -13]
@55 02FD00200 // [  0   1 -12   5]
@56 108200C07 // [ 7  6  8 33]
@57 F977BFE25 // [ 37  -1 -34 -14]
@58 EC763ABF5 // [-11 -43 -40 -40]
@59 F675BC3DA // [-38 -31 -42 -20]
@5A 03FCC3203 // [  3  25 -13   7]
@5B 040000C01 // [1 6 0 8]
@5C FC81BF9EE // [-18  -4   6  -7]
@5D 1D868160C // [12 11 26 59]
@5E FD818302B // [43 24  6 -5]
@5F F77AFB1E9 // [-23 -40 -21 -18]
@60 FE7FFC7E6 // [-26 -29  -1  -4]
@61 FDFF7F608 // [ 8 -5 -3 -5]
@62 FB8100BEC // [-20   5   4  -9]
@63 0D0140BFD // [-3  5  5 26]
@64 0D0701E26 // [38 15 28 26]
@65 080A42E27 // [39 23 41 16]
@66 FCF93F40B // [ 11  -6 -28  -7]
@67 027EFD1EB // [-21 -24  -5   4]
@68 04013FE02 // [ 2 -1  4  8]
@69 060240605 // [ 5  3  9 12]
@6A 0E0602A09 // [ 9 21 24 28]
@6B 097F0141D // [29 10 -4 18]
@6C 0B928541B // [27 42 74 23]
@6D 01FF41A20 // [32 13 -3  3]
@6E FC017DBF2 // [-14 -19   5  -8]
@6F 04003EFF6 // [-10  -9   0   8]
@70 FE01001FB // [-5  0  4 -4]
@71 078441C00 // [ 0 14 17 15]
@72 FC803EE0F // [15 -9  0 -7]
@73 2412C8415 // [21 66 75 72]
@74 FF7FC2A44 // [68 21 -1 -2]
@75 FB7EFF7F8 // [ -8  -5  -5 -10]
@76 057EFF002 // [ 2 -8 -5 10]
@77 FB0180605 // [  5   3   6 -10]
@78 0B04C0C00 // [ 0  6 19 22]
@79 FFF93E207 // [  7 -15 -28  -1]
@7A 1A1447012 // [18 56 81 52]
@7B F802C1E12 // [ 18  15  11 -16]
@7C F6FBC01FA // [ -6   0 -17 -19]
@7D FF7E3FE02 // [ 2 -1 -8 -2]
@7E 007FC1E0D // [13 15 -1  0]
@7F 1005825F2 // [-14  18  22  32]
@80 FFFCBE5FB // [ -5 -14 -14  -1]
@81 0F86C6E1F // [31 55 27 31]
@82 EFFB40012 // [ 18   0 -19 -33]
@83 FF803E1FA // [ -6 -16   0  -1]
@84 05FBC0C12 // [ 18   6 -17  11]
@85 00FF3FFFE // [-2 -1 -4  1]
@86 0903403F3 // [-13   1  13  18]
@87 027E80C0D // [13  6 -6  4]
@88 060642A19 // [25 21 25 12]
@89 FBFF7FFFE // [-2 -1 -3 -9]
@8A 0201FF80D // [13 -4  7  4]
@8B FF7EBF612 // [18 -5 -6 -2]
@8C FE7E80001 // [ 1  0 -6 -4]
@8D 0A803EA04 // [  4 -11   0  21]
@8E 0F83C1E00 // [ 0 15 15 31]
@8F 058001E22 // [34 15  0 11]
@90 0100FF9F6 // [-10  -4   3   2]
@91 01834120F // [15  9 13  3]
@92 FF01C120E // [14  9  7 -2]
@93 F880417F9 // [ -7  11   1 -15]
@94 F7013E3F1 // [-15 -15   4 -18]
@95 03848280D // [13 20 18  7]
@96 0580C080C // [12  4  3 11]
@97 070E4240D // [13 18 57 14]
@98 0187C3A1E // [30 29 31  3]
@99 02003DE00 // [  0 -17   0   4]
@9A FA0100BFA // [ -6   5   4 -12]
@9B FF7DBF403 // [  3  -6 -10  -2]
@9C F87F3F5F1 // [-15  -6  -4 -16]
@9D 080200DFD // [-3  6  8 16]
@9E 1989C4219 // [25 33 39 51]
@9F 090543E22 // [34 31 21 18]
@A0 F901807F1 // [-15   3   6 -14]
@A1 02047EA07 // [  7 -11  17   4]
@A2 F4FBBDBFF // [ -1 -19 -18 -23]
@A3 F8777DDF8 // [ -8 -18 -35 -16]
@A4 0980BF3DE // [-34  -7   2  19]
@A5 0F034461C // [28 35 13 30]
@A6 FD0081217 // [23  9  2 -6]
@A7 040040004 // [4 0 1 8]
@A8 0180BFE01 // [ 1 -1  2  3]
@A9 F8FCBDDFA // [ -6 -18 -14 -15]
@AA F77A3C1E9 // [-23 -32 -24 -18]
@AB 00003E5F1 // [-15 -14   0   0]
@AC FB80BF9FB // [-5 -4  2 -9]
@AD 04807E7FC // [ -4 -13   1   9]
@AE 018400A00 // [ 0  5 16  3]
@AF FEFF82401 // [ 1 18 -2 -3]
@B0 FBFCC0DFC // [ -4   6 -13  -9]
@B1 EAF7BBBE1 // [-31 -35 -34 -43]
@B2 F5793B9D8 // [-40 -36 -28 -22]
@B3 F5F7FB3DD // [-35 -39 -33 -21]
@B4 F7FC7D5F2 // [-14 -22 -15 -17]
@B5 01FFFF1FF // [-1 -8 -1  3]
@B6 01FCBDC00 // [  0 -18 -14   3]
@B7 FCFC3E807 // [  7 -12 -16  -7]
@B8 FAFB7E1F6 // [-10 -16 -19 -11]
@B9 FAF83CDE6 // [-26 -26 -32 -11]
@BA FBFFBE7EC // [-20 -13  -2  -9]
@BB 057F013F1 // [-15   9  -4  10]
@BC 07827F3EA // [-22  -7   9  15]
@BD FB807F7FE // [-2 -5  1 -9]
@BE 0005BF801 // [ 1 -4 22  0]
@BF FCFE42E04 // [ 4 23 -7 -7]
@C0 030340DF1 // [-15   6  13   6]
@C1 007FFFA0A // [10 -3 -1  0]
@C2 06FD801F9 // [ -7   0 -10  13]
@C3 040280400 // [ 0  2 10  8]
