@0 F782BF604 // [  4  -5  10 -17]
@1 00FFFF810 // [16 -4 -1  1]
@2 FA043EFF8 // [ -8  -9  16 -12]
@3 F9FD7F9F5 // [-11  -4 -11 -13]
@4 0000FEDF7 // [ -9 -10   3   0]
@5 00FDBF002 // [  2  -8 -10   1]
@6 F8FDBF1FA // [ -6  -8 -10 -15]
@7 FF7D00E06 // [  6   7 -12  -2]
@8 0383FFFF9 // [-7 -1 15  7]
@9 088201005 // [ 5  8  8 17]
@A FD814040A // [10  2  5 -5]
@B 0501BF400 // [ 0 -6  6 10]
@C FA0041E0E // [ 14  15   1 -12]
@D 06017DFEA // [-22 -17   5  12]
@E 08FEFF200 // [ 0 -7 -5 17]
@F FAFF7DE0D // [ 13 -17  -3 -11]
@10 03FF80803 // [ 3  4 -2  7]
@11 05030020D // [13  1 12 10]
@12 0201801FE // [-2  0  6  4]
@13 FF80BF800 // [ 0 -4  2 -1]
@14 0200FE9FC // [ -4 -12   3   4]
@15 05FEBF3FD // [-3 -7 -6 11]
@16 FB7F3FFF5 // [-11  -1  -4 -10]
@17 057F42E0A // [10 23 -3 10]
@18 F67E801EF // [-17   0  -6 -20]
@19 0A0002E0A // [10 23  0 20]
@1A 07FFC0400 // [ 0  2 -1 15]
@1B FB7DBF5FD // [ -3  -6 -10 -10]
@1C F7017FC0E // [ 14  -2   5 -18]
@1D 03FD80A0B // [ 11   5 -10   7]
@1E ED7C003F8 // [ -8   1 -16 -38]
@1F F5763B1FA // [ -6 -40 -40 -22]
@20 007EFE1F5 // [-11 -16  -5   0]
@21 090401A0E // [14 13 16 18]
@22 017E403FF // [-1  1 -7  2]
@23 FF837F5FE // [-2 -6 13 -1]
@24 FE7C7D7F0 // [-16 -21 -15  -4]
@25 F27D7F7F1 // [-15  -5 -11 -28]
@26 FD7C7D1EB // [-21 -24 -15  -6]
@27 0B8480BF6 // [-10   5  18  23]
@28 0C8281E05 // [ 5 15 10 25]
@29 0001413F1 // [-15   9   5   0]
@2A 0000FEE06 // [ 6 -9  3  0]
@2B FF7FC05EC // [-20   2  -1  -2]
@2C EFFDBEDF8 // [ -8 -10 -10 -33]
@2D FB7B7F200 // [  0  -7 -19 -10]
@2E 0481401E7 // [-25   0   5   9]
@2F 060381601 // [ 1 11 14 12]
@30 FC7C00E04 // [  4   7 -16  -8]
@31 FEFF81809 // [ 9 12 -2 -3]
@32 FA817EDFA // [ -6 -10   5 -11]
@33 F80040806 // [  6   4   1 -16]
@34 F67B3D7F0 // [-16 -21 -20 -20]
@35 00807F9FC // [-4 -4  1  1]
@36 01FD7F3FC // [ -4  -7 -11   3]
@37 FEFE7F9F8 // [-8 -4 -7 -3]
@38 FC8040A04 // [ 4  5  1 -7]
@39 FC7C7E203 // [  3 -15 -15  -8]
@3A 01FD80BFB // [ -5   5 -10   3]
@3B E8FDFCBF6 // [-10 -27  -9 -47]
@3C EE7B3D5E7 // [-25 -22 -20 -36]
@3D F9FCBF3EB // [-21  -7 -14 -13]
@3E F680BEBEF // [-17 -11   2 -19]
@3F 0581003F2 // [-14   1   4  11]
@40 F879BEFE7 // [-25  -9 -26 -16]
@41 F6007D5F9 // [ -7 -22   1 -20]
@42 EAF4FBA04 // [  4 -35 -45 -43]
@43 F6FD3C3F1 // [-15 -31 -12 -19]
@44 FF75BCFF4 // [-12 -25 -42  -2]
@45 00F9BF3E5 // [-27  -7 -26   1]
@46 00017FC0D // [13 -2  5  0]
@47 FAFAFE9FA // [ -6 -12 -21 -11]
@48 05808060A // [10  3  2 11]
@49 EFF47E20C // [ 12 -15 -47 -33]
@4A F9FF7E3F5 // [-11 -15  -3 -13]
@4B F1FE7F5F0 // [-16  -6  -7 -29]
@4C FCFDFD1FE // [ -2 -24  -9  -7]
@4D FE81BEDFD // [ -3 -10   6  -3]
@4E 077E3E9F9 // [ -7 -12  -8  14]
@4F 0C060380B // [11 28 24 24]
@50 EF753D61B // [ 27 -21 -44 -34]
@51 FD7BC0403 // [  3   2 -17  -6]
@52 00843D1F9 // [ -7 -24  16   1]
@53 FF823F3EC // [-20  -7   8  -1]
@54 007D3EFFB // [ -5  -9 -12   0]
@55 1286C0613 // [19  3 27 37]
@56 210B0561F // [31 43 44 66]
@57 F274FCA1A // [ 26 -27 -45 -28]
@58 017E41205 // [ 5  9 -7  2]
@59 0D85C0BFA // [-6  5 23 27]
@5A F97BFFE0C // [ 12  -1 -17 -14]
@5B 05027FC02 // [ 2 -2  9 10]
@5C 1E0B025FE // [-2 18 44 60]
@5D 160844032 // [50 32 33 44]
@5E F5F57C80A // [ 10 -28 -43 -21]
@5F FA82FF9F8 // [ -8  -4  11 -11]
@60 100442E03 // [ 3 23 17 32]
@61 FEFDFFE08 // [ 8 -1 -9 -3]
@62 0303011FA // [-6  8 12  6]
@63 160A43602 // [ 2 27 41 44]
@64 0C03C4025 // [37 32 15 24]
@65 F1F1B8FFD // [ -3 -57 -58 -29]
@66 FE7F3E9F4 // [-12 -12  -4  -4]
@67 0C88C340A // [10 26 35 25]
@68 04FEC0012 // [18  0 -5  9]
@69 02FFBFDF7 // [-9 -2 -2  5]
@6A 148A42DFC // [-4 22 41 41]
@6B 0F03C242A // [42 18 15 30]
@6C F4F1B8DEF // [-17 -58 -58 -23]
@6D 0C04815E5 // [-27  10  18  24]
@6E 0D8905A27 // [39 45 36 27]
@6F FDFC7DBFF // [ -1 -19 -15  -5]
@70 FC0340401 // [ 1  2 13 -8]
@71 0C04C1BF5 // [-11  13  19  24]
@72 050483A1D // [29 29 18 10]
@73 F978F95E7 // [-25 -54 -29 -14]
@74 0D01007D7 // [-41   3   4  26]
@75 070242020 // [32 16  9 14]
@76 0A00FF3FB // [-5 -7  3 20]
@77 FC7F3FA09 // [ 9 -3 -4 -8]
@78 0682BF1E6 // [-26  -8  10  13]
@79 FC000280F // [15 20  0 -8]
@7A EF76F9DD9 // [-39 -50 -37 -34]
@7B 1087023F8 // [-8 17 28 33]
@7C F87E0181B // [ 27  12  -8 -16]
@7D 00FC3D9F0 // [-16 -20 -16   1]
@7E FA02FFA05 // [  5  -3  11 -12]
@7F FF7D3D1F2 // [-14 -24 -12  -2]
@80 FFFC80E06 // [  6   7 -14  -1]
@81 FFF83C9D4 // [-44 -28 -32  -1]
@82 0906C2A0E // [14 21 27 18]
@83 F27F4160E // [ 14  11  -3 -28]
@84 007E3DDE7 // [-25 -18  -8   0]
@85 FF7E813FA // [-6  9 -6 -2]
@86 F4767CBFD // [ -3 -27 -39 -24]
@87 037DFEFE9 // [-23  -9  -9   6]
@88 067CFBBD8 // [-40 -35 -13  12]
@89 08080301A // [26 24 32 16]
@8A F377FF20C // [ 12  -7 -33 -26]
@8B 03FFC11E6 // [-26   8  -1   7]
@8C 09817FC06 // [ 6 -2  5 19]
@8D E6F7FC7FC // [ -4 -29 -33 -51]
@8E FF7D3D1DB // [-37 -24 -12  -2]
@8F 110280603 // [ 3  3 10 34]
@90 FF834182B // [43 12 13 -1]
@91 F07EBDBE7 // [-25 -19  -6 -32]
@92 08FD7E3F7 // [ -9 -15 -11  17]
@93 FD7F7FFFD // [-3 -1 -3 -6]
@94 F379BDDF3 // [-13 -18 -26 -26]
@95 06FB3C1E0 // [-32 -32 -20  13]
@96 0B8801C0D // [13 14 32 23]
@97 F57F01817 // [ 23  12  -4 -22]
@98 FBFBFEDF2 // [-14 -10 -17  -9]
@99 01027EBF6 // [-10 -11   9   2]
@9A 00FD40DFF // [ -1   6 -11   1]
@9B F3FCBE006 // [  6 -16 -14 -25]
@9C 007C7F7E2 // [-30  -5 -15   0]
@9D 1086C4C12 // [18 38 27 33]
@9E FE01FFE0A // [10 -1  7 -4]
@9F FB7BBFDF0 // [-16  -2 -18 -10]
@A0 07033FFEE // [-18  -1  12  14]
@A1 F87E40C04 // [  4   6  -7 -16]
@A2 037DBE9ED // [-19 -12 -10   6]
@A3 FD81C15EC // [-20  10   7  -5]
@A4 0C0002809 // [ 9 20  0 24]
@A5 FDFDC0007 // [ 7  0 -9 -5]
@A6 FF8240BF8 // [-8  5  9 -1]
@A7 0201C0BF9 // [-7  5  7  4]
@A8 0081C05FD // [-3  2  7  1]
@A9 0084FE408 // [  8 -14  19   1]
@AA 017CBF805 // [  5  -4 -14   2]
@AB FBFDBF5FE // [ -2  -6 -10  -9]
@AC FFFEC21FB // [-5 16 -5 -1]
@AD FD813EFFB // [-5 -9  4 -5]
@AE 06847FA05 // [ 5 -3 17 13]
@AF 020100400 // [0 2 4 4]
@B0 FA823E9F0 // [-16 -12   8 -11]
@B1 01FC7E9F6 // [-10 -12 -15   3]
@B2 FEFC3E1F4 // [-12 -16 -16  -3]
@B3 FD7B7EBEB // [-21 -11 -19  -6]
@B4 FD80FFE03 // [ 3 -1  3 -5]
@B5 FE7A801FE // [ -2   0 -22  -4]
@B6 FF83BE400 // [  0 -14  14  -1]
@B7 FF00015FB // [-5 10  0 -2]
@B8 02007E7F2 // [-14 -13   1   4]
@B9 FD80BF1F8 // [-8 -8  2 -5]
@BA F8FFBEDFF // [ -1 -10  -2 -15]
@BB 0081FDBF5 // [-11 -19   7   1]
@BC FF7FBF201 // [ 1 -7 -2 -2]
@BD 01FE80402 // [ 2  2 -6  3]
@BE FD79C01FF // [ -1   0 -25  -6]
@BF 01FF42000 // [ 0 16 -3  3]
@C0 FCFC01DF7 // [ -9  14 -16  -7]
@C1 FC037EBFD // [ -3 -11  13  -8]
@C2 07FC40200 // [  0   1 -15  15]
@C3 0502BFBFD // [-3 -3 10 10]
