@0 02FEC140E // [14 10 -5  5]
@1 FB807DC01 // [  1 -18   1  -9]
@2 00FF81200 // [ 0  9 -2  1]
@3 FD013EBF9 // [ -7 -11   4  -6]
@4 0002FEC0A // [ 10 -10  11   0]
@5 FFFF7F3FF // [-1 -7 -3 -1]
@6 017FC0A04 // [ 4  5 -1  2]
@7 FE04429FF // [-1 20 17 -4]
@8 FD807F602 // [ 2 -5  1 -5]
@9 0781BF809 // [ 9 -4  6 15]
@A FD81FF002 // [ 2 -8  7 -5]
@B FD83C0FFF // [-1  7 15 -5]
@C 048040800 // [0 4 1 9]
@D FA0400BFC // [ -4   5  16 -12]
@E FE02C0E01 // [ 1  7 11 -4]
@F FE7E01806 // [ 6 12 -8 -4]
@10 FB023F809 // [  9  -4   8 -10]
@11 FC8140401 // [ 1  2  5 -7]
@12 03FAFEBFC // [ -4 -11 -21   7]
@13 FD7E8020C // [12  1 -6 -6]
@14 038000FFA // [-6  7  0  7]
@15 017FC13F9 // [-7  9 -1  2]
@16 FD0240003 // [ 3  0  9 -6]
@17 F97ABE9F9 // [ -7 -12 -22 -14]
@18 FFFB7E3E5 // [-27 -15 -19  -1]
@19 047E7E1F1 // [-15 -16  -7   8]
@1A 007C42206 // [  6  17 -15   0]
@1B 030000006 // [6 0 0 6]
@1C 007FC03FF // [-1  1 -1  0]
@1D F8FD42DF8 // [ -8  22 -11 -15]
@1E ECFABE403 // [  3 -14 -22 -39]
@1F F97C7B7E2 // [-30 -37 -15 -14]
@20 00FD7F9FE // [ -2  -4 -11   1]
@21 018201205 // [5 9 8 3]
@22 01FE3E806 // [  6 -12  -8   3]
@23 00804040D // [13  2  1  1]
@24 F2FDC0BFA // [ -6   5  -9 -27]
@25 00763C3F9 // [ -7 -31 -40   0]
@26 FC00407F9 // [-7  3  1 -8]
@27 118180E04 // [ 4  7  6 35]
@28 0A0204612 // [18 35  8 20]
@29 018100607 // [7 3 4 3]
@2A FC8200011 // [17  0  8 -7]
@2B F97C403F6 // [-10   1 -15 -14]
@2C F87DFF3EB // [-21  -7  -9 -16]
@2D 04FABE1F8 // [ -8 -16 -22   9]
@2E 0782415F8 // [-8 10  9 15]
@2F 120442E10 // [16 23 17 36]
@30 0182BF810 // [16 -4 10  3]
@31 F801025FC // [ -4  18   4 -16]
@32 F7FB3E3F1 // [-15 -15 -20 -17]
@33 F8003E9EF // [-17 -12   0 -16]
@34 FBFC3CFE4 // [-28 -25 -16  -9]
@35 0783FF004 // [ 4 -8 15 15]
@36 0A047F810 // [16 -4 17 20]
@37 008181E1D // [29 15  6  1]
@38 F9FD3E1FA // [ -6 -16 -12 -13]
@39 FB7ABE1FB // [ -5 -16 -22 -10]
@3A F3797E3F5 // [-11 -15 -27 -26]
@3B F6F5BD7DD // [-35 -21 -42 -19]
@3C 0183BF006 // [ 6 -8 14  3]
@3D 040581405 // [ 5 10 22  8]
@3E 02814020D // [13  1  5  5]
@3F FEFE40E03 // [ 3  7 -7 -3]
@40 FD7F7DFF4 // [-12 -17  -3  -6]
@41 FB777E9F1 // [-15 -12 -35 -10]
@42 EE743D9EF // [-17 -20 -48 -36]
@43 FF017F1E6 // [-26  -8   5  -2]
@44 0CFD4160A // [ 10  11 -11  25]
@45 010280210 // [16  1 10  2]
@46 FB01FFE07 // [  7  -1   7 -10]
@47 0DFF7E5F4 // [-12 -14  -3  27]
@48 030140C03 // [3 6 5 6]
@49 F4FAFDC18 // [ 24 -18 -21 -23]
@4A 007DFFBFE // [-2 -3 -9  0]
@4B 0082FEDEE // [-18 -10  11   1]
@4C 01803F40C // [12 -6  0  3]
@4D 0000C1610 // [16 11  3  0]
@4E 0903C2200 // [ 0 17 15 18]
@4F 070443C08 // [ 8 30 17 14]
@50 FF827FA25 // [37 -3  9 -1]
@51 FB7D00206 // [  6   1 -12 -10]
@52 0007C01F7 // [-9  0 31  0]
@53 0181C0008 // [8 0 7 3]
@54 FE7C801FD // [ -3   0 -14  -4]
@55 1307C3A06 // [ 6 29 31 38]
@56 168BC262A // [42 19 47 45]
@57 068287230 // [48 57 10 13]
@58 FD81FE80A // [ 10 -12   7  -5]
@59 0181801FC // [-4  0  6  3]
@5A FF7DFFC09 // [ 9 -2 -9 -2]
@5B FF01BFFFA // [-6 -1  6 -2]
@5C 12884440A // [10 34 33 37]
@5D 1A8905824 // [36 44 36 53]
@5E 0681C3C2B // [43 30  7 13]
@5F 0A81BE201 // [  1 -15   6  21]
@60 050300C13 // [19  6 12 10]
@61 058000A0A // [10  5  0 11]
@62 FF7F3F600 // [ 0 -5 -4 -2]
@63 158C40FFC // [-4  7 49 43]
@64 1087C3223 // [35 25 31 33]
@65 037FC2226 // [38 17 -1  6]
@66 FE7C403F5 // [-11   1 -15  -4]
@67 02003E3FA // [ -6 -15   0   4]
@68 04FFC01F4 // [-12   0  -1   9]
@69 FE82FE1EB // [-21 -16  11  -3]
@6A 0F0842208 // [ 8 17 33 30]
@6B 020342A1A // [26 21 13  4]
@6C FF7E7D611 // [ 17 -21  -7  -2]
@6D FC8280012 // [18  0 10 -7]
@6E F97B7CBED // [-19 -27 -19 -14]
@6F FF003F5F1 // [-15  -6   0  -2]
@70 00803CE08 // [  8 -25   0   1]
@71 0E84021F8 // [-8 16 16 29]
@72 0003BF015 // [21 -8 14  0]
@73 0D83C060E // [14  3 15 27]
@74 F9FD01819 // [ 25  12 -12 -13]
@75 F5FA3CBDE // [-34 -27 -24 -21]
@76 057F3E203 // [  3 -15  -4  10]
@77 FAFE01207 // [  7   9  -8 -11]
@78 130200801 // [ 1  4  8 38]
@79 03054121E // [30  9 21  6]
@7A 0D0140C05 // [ 5  6  5 26]
@7B F4FE40001 // [  1   0  -7 -23]
@7C F279FDFF5 // [-11 -17 -25 -28]
@7D FBFDFD9EF // [-17 -20  -9  -9]
@7E FBFF81205 // [ 5  9 -2 -9]
@7F 1203405FE // [-2  2 13 36]
@80 028603A11 // [17 29 24  5]
@81 FBFD7F613 // [ 19  -5 -11  -9]
@82 FDFAFF200 // [  0  -7 -21  -5]
@83 F3F7FCE00 // [  0 -25 -33 -25]
@84 007EBFBE0 // [-32  -3  -6   0]
@85 027F017FB // [-5 11 -4  4]
@86 080100DE6 // [-26   6   4  16]
@87 FDFD3F807 // [  7  -4 -12  -5]
@88 FBFEFE7ED // [-19 -13  -5  -9]
@89 F579BE1FB // [ -5 -16 -26 -22]
@8A F47A3F204 // [  4  -7 -24 -24]
@8B FA01401FE // [ -2   0   5 -12]
@8C FF8140200 // [ 0  1  5 -1]
@8D F87B403F0 // [-16   1 -19 -16]
@8E F600FF9FF // [ -1  -4   3 -20]
@8F 007AFEDF9 // [ -7 -10 -21   0]
@90 007D7F5ED // [-19  -6 -11   0]
@91 06FC00FEE // [-18   7 -16  13]
@92 0481FE000 // [  0 -16   7   9]
@93 FE00FE9FF // [ -1 -12   3  -4]
@94 017DBF5F0 // [-16  -6 -10   2]
@95 000180204 // [4 1 6 0]
@96 F7FF3F600 // [  0  -5  -4 -17]
@97 FF7B4080C // [ 12   4 -19  -2]
@98 FF86017F4 // [-12  11  24  -1]
@99 00FDC15F6 // [-10  10  -9   1]
@9A FD7FBF000 // [ 0 -8 -2 -6]
@9B FDFBBCFF5 // [-11 -25 -18  -5]
@9C 0183C0E00 // [ 0  7 15  3]
@9D FA81825FF // [ -1  18   6 -11]
@9E 04FF80212 // [18  1 -2  9]
@9F FD8203609 // [ 9 27  8 -5]
@A0 007EFF205 // [ 5 -7 -5  0]
@A1 007FC0814 // [20  4 -1  0]
@A2 F8FB3D1F6 // [-10 -24 -20 -15]
@A3 058401600 // [ 0 11 16 11]
@A4 FC86BEE08 // [ 8 -9 26 -7]
@A5 0B810000D // [13  0  4 23]
@A6 0180BF613 // [19 -5  2  3]
@A7 018541010 // [16  8 21  3]
@A8 FCFC80DF2 // [-14   6 -14  -7]
@A9 FF7C811F1 // [-15   8 -14  -2]
@AA F9803FBEE // [-18  -3   0 -13]
@AB FF827D400 // [  0 -22   9  -1]
@AC 040440006 // [ 6  0 17  8]
@AD 007E80207 // [ 7  1 -6  0]
@AE FE7D80407 // [  7   2 -10  -4]
@AF 007CFE00C // [ 12 -16 -13   0]
@B0 FF80001F8 // [-8  0  0 -1]
@B1 F57EBE1FB // [ -5 -16  -6 -22]
@B2 087B3BFEE // [-18 -33 -20  16]
@B3 F4FCFF1EA // [-22  -8 -13 -23]
@B4 08823F00D // [13 -8  8 17]
@B5 0680FE606 // [  6 -13   3  13]
@B6 0680BF9F4 // [-12  -4   2  13]
@B7 FC807FDF3 // [-13  -2   1  -7]
@B8 FC7E409EE // [-18   4  -7  -8]
@B9 F77C8000D // [ 13   0 -14 -18]
@BA F5FEBF7F1 // [-15  -5  -6 -21]
@BB FC03001FC // [-4  0 12 -8]
@BC FE03BF408 // [ 8 -6 14 -4]
@BD 007F3EBF2 // [-14 -11  -4   0]
@BE 040281A03 // [ 3 13 10  8]
@BF 02FE401F3 // [-13   0  -7   5]
@C0 F900BFDFB // [ -5  -2   2 -14]
@C1 FE84BEC00 // [  0 -10  18  -3]
@C2 F47F42A19 // [ 25  21  -3 -24]
@C3 0100C0DFA // [-6  6  3  2]
