@0 0101C0BFD // [-3  5  7  2]
@1 0000BF1FE // [-2 -8  2  0]
@2 0002BFC09 // [ 9 -2 10  0]
@3 058102C00 // [ 0 22  4 11]
@4 0580817F6 // [-10  11   2  11]
@5 00FFC09F7 // [-9  4 -1  1]
@6 FC8040201 // [ 1  1  1 -7]
@7 007F41208 // [ 8  9 -3  0]
@8 0400FEFF8 // [-8 -9  3  8]
@9 0284C0410 // [16  2 19  5]
@A FC7D40E09 // [  9   7 -11  -8]
@B 07017FDF2 // [-14  -2   5  14]
@C F6FFC0201 // [  1   1  -1 -19]
@D 0600C07F9 // [-7  3  3 12]
@E 00827FC04 // [ 4 -2  9  1]
@F FF81C13FF // [-1  9  7 -1]
@10 FBFC405E9 // [-23   2 -15  -9]
@11 007C3EFEF // [-17  -9 -16   0]
@12 FB0000BF2 // [-14   5   0 -10]
@13 03023F1F1 // [-15  -8   8   6]
@14 F881C2406 // [  6  18   7 -15]
@15 0401C0000 // [0 0 7 8]
@16 FD0000C08 // [ 8  6  0 -6]
@17 02FD7FBF5 // [-11  -3 -11   5]
@18 F977FEDF7 // [ -9 -10 -33 -14]
@19 017BFF1F4 // [-12  -8 -17   2]
@1A FE0200001 // [ 1  0  8 -4]
@1B 05FFBEDEF // [-17 -10  -2  11]
@1C FAFFC01FD // [ -3   0  -1 -11]
@1D 00FF40808 // [ 8  4 -3  1]
@1E F6FDFE3F4 // [-12 -15  -9 -19]
@1F FB7DBF5F3 // [-13  -6 -10 -10]
@20 FE7ABF3FD // [ -3  -7 -22  -4]
@21 0082C0FF9 // [-7  7 11  1]
@22 00813DA03 // [  3 -19   4   1]
@23 017DBF1FB // [ -5  -8 -10   2]
@24 FF7B405F7 // [ -9   2 -19  -2]
@25 FD7AFE7ED // [-19 -13 -21  -6]
@26 0800C0616 // [22  3  3 16]
@27 FD00001F9 // [-7  0  0 -6]
@28 FF7E823F5 // [-11  17  -6  -2]
@29 0284013ED // [-19   9  16   5]
@2A FF7D7EA02 // [  2 -11 -11  -2]
@2B F7FD7F9FB // [ -5  -4 -11 -17]
@2C FEFAC01E2 // [-30   0 -21  -3]
@2D 0E037F608 // [ 8 -5 13 28]
@2E FFFDBF601 // [  1  -5 -10  -1]
@2F 01003EDFC // [ -4 -10   0   2]
@30 FF7E3F5F9 // [-7 -6 -8 -2]
@31 00FF41FFD // [-3 15 -3  1]
@32 FC7E7CA00 // [  0 -27  -7  -8]
@33 FB787C3D3 // [-45 -31 -31 -10]
@34 00827F3E8 // [-24  -7   9   1]
@35 00FB40BFE // [ -2   5 -19   1]
@36 F37D3F1EE // [-18  -8 -12 -26]
@37 007F007E8 // [-24   3  -4   0]
@38 03FE3EE06 // [ 6 -9 -8  7]
@39 F2F9C0BFB // [ -5   5 -25 -27]
@3A EC763CBF5 // [-11 -27 -40 -40]
@3B F77C3E7E6 // [-26 -13 -16 -18]
@3C 017DBEBF8 // [ -8 -11 -10   2]
@3D F77FBE5F9 // [ -7 -14  -2 -18]
@3E 03FE7EDDD // [-35 -10  -7   7]
@3F F9FC015FD // [ -3  10 -16 -13]
@40 027D3E5F6 // [-10 -14 -12   4]
@41 FB783CFF6 // [-10 -25 -32 -10]
@42 FEFD7DBE4 // [-28 -19 -11  -3]
@43 007F3F1FD // [-3 -8 -4  0]
@44 0380C0000 // [0 0 3 7]
@45 027FBDDF9 // [ -7 -18  -2   4]
@46 037F00805 // [ 5  4 -4  6]
@47 05FF003F7 // [-9  1 -4 11]
@48 F600005FD // [ -3   2   0 -20]
@49 FCFC3F60C // [ 12  -5 -16  -7]
@4A 0401FE9FA // [ -6 -12   7   8]
@4B F60101208 // [  8   9   4 -20]
@4C 01003D9F1 // [-15 -20   0   2]
@4D FAFC41206 // [  6   9 -15 -11]
@4E 068501DE8 // [-24  14  20  13]
@4F 060202818 // [24 20  8 12]
@50 120381A0E // [14 13 14 36]
@51 060601C1B // [27 14 24 12]
@52 FE89C3C2B // [43 30 39 -3]
@53 FD833E7FE // [ -2 -13  12  -5]
@54 FDFEC0FF9 // [-7  7 -5 -5]
@55 0B0385409 // [ 9 42 14 22]
@56 0607C3A1A // [26 29 31 12]
@57 190F0460B // [11 35 60 50]
@58 1B81C4418 // [24 34  7 55]
@59 078A85439 // [57 42 42 15]
@5A 017DC0C05 // [ 5  6 -9  2]
@5B 070040807 // [ 7  4  1 14]
@5C 0B860280C // [12 20 24 23]
@5D 020502A0F // [15 21 20  4]
@5E 1689C4816 // [22 36 39 45]
@5F 0C82C3623 // [35 27 11 25]
@60 FC8404231 // [49 33 16 -7]
@61 FD7E819FE // [-2 12 -6 -6]
@62 FD81C13FB // [-5  9  7 -5]
@63 0406C1DFE // [-2 14 27  8]
@64 0BFC7FE29 // [ 41  -1 -15  23]
@65 0F0847825 // [37 60 33 30]
@66 060241E18 // [24 15  9 12]
@67 FB0001218 // [ 24   9   0 -10]
@68 057EBE202 // [  2 -15  -6  10]
@69 0281C0605 // [5 3 7 5]
@6A 0F83C39FF // [-1 28 15 31]
@6B 038401618 // [24 11 16  7]
@6C 000782E09 // [ 9 23 30  0]
@6D 018480FFA // [-6  7 18  3]
@6E 037D7E3EA // [-22 -15 -11   6]
@6F FC80007F4 // [-12   3   0  -7]
@70 F6827F400 // [  0  -6   9 -19]
@71 0F0882405 // [ 5 18 34 30]
@72 030342629 // [41 19 13  6]
@73 03874341A // [26 26 29  7]
@74 F979C001D // [ 29   0 -25 -14]
@75 F2FA3E7DC // [-36 -13 -24 -27]
@76 04003F1F0 // [-16  -8   0   8]
@77 FE7DBF000 // [  0  -8 -10  -4]
@78 0E003FDFD // [-3 -2  0 28]
@79 090985E1A // [26 47 38 18]
@7A 0889C3C2C // [44 30 39 17]
@7B F57D7F802 // [  2  -4 -11 -22]
@7C F77ABCFEC // [-20 -25 -22 -18]
@7D FD00FFDEE // [-18  -2   3  -6]
@7E 037F801FC // [-4  0 -2  6]
@7F 077BFD1FA // [ -6 -24 -17  14]
@80 160B4441C // [28 34 45 44]
@81 F882C1824 // [ 36  12  11 -15]
@82 F6FBFD3EA // [-22 -23 -17 -19]
@83 F9F63BDF2 // [-14 -34 -40 -13]
@84 F881403F5 // [-11   1   5 -15]
@85 F8803F5EB // [-21  -6   0 -15]
@86 F97BFE9E8 // [-24 -12 -17 -14]
@87 FA0081002 // [  2   8   2 -12]
@88 FA7D7D5ED // [-19 -22 -11 -12]
@89 0379FC9F1 // [-15 -28 -25   6]
@8A F7F7BD1E9 // [-23 -24 -34 -17]
@8B FB0000BEC // [-20   5   0 -10]
@8C F9FF00C05 // [  5   6  -4 -13]
@8D FCFA3D3F3 // [-13 -23 -24  -7]
@8E E779BD5F4 // [-12 -22 -26 -50]
@8F F4F6F95C7 // [-57 -54 -37 -23]
@90 FC7C7CDFD // [ -3 -26 -15  -8]
@91 F0757B5E8 // [-24 -38 -43 -32]
@92 02FD7FFFC // [ -4  -1 -11   5]
@93 FA83FF80C // [ 12  -4  15 -11]
@94 FA7BFE9E3 // [-29 -12 -17 -12]
@95 F2FD3D3E0 // [-32 -23 -12 -27]
@96 FC7A7CBD7 // [-41 -27 -23  -8]
@97 FCF980DF9 // [ -7   6 -26  -7]
@98 FD7ABF006 // [  6  -8 -22  -6]
@99 FDFDC17F7 // [-9 11 -9 -5]
@9A 028180E02 // [2 7 6 5]
@9B F27F7CFEC // [-20 -25  -3 -28]
@9C 067CFF5FB // [ -5  -6 -13  12]
@9D FE7DC1DEE // [-18  14  -9  -4]
@9E FB81809FD // [-3  4  6 -9]
@9F 037E40000 // [ 0  0 -7  6]
@A0 000200405 // [5 2 8 0]
@A1 FF80C0400 // [ 0  2  3 -1]
@A2 FB7BBE1FA // [ -6 -16 -18 -10]
@A3 FA797CFF9 // [ -7 -25 -27 -12]
@A4 057DC21FE // [-2 16 -9 10]
@A5 018340805 // [ 5  4 13  3]
@A6 070300815 // [21  4 12 14]
@A7 037F81BF3 // [-13  13  -2   6]
@A8 FAFEBFDEB // [-21  -2  -6 -11]
@A9 F600FE603 // [  3 -13   3 -20]
@AA F97B7E3EA // [-22 -15 -19 -14]
@AB FBFAFB1D7 // [-41 -40 -21  -9]
@AC 05843DDEF // [-17 -18  16  11]
@AD FD0180A13 // [19  5  6 -6]
@AE 0202FEE09 // [ 9 -9 11  4]
@AF 03FE009FC // [-4  4 -8  7]
@B0 077C411F7 // [ -9   8 -15  14]
@B1 F4FDBE80F // [ 15 -12 -10 -23]
@B2 F6FEFD7E1 // [-31 -21  -5 -19]
@B3 097EC09F3 // [-13   4  -5  18]
@B4 FA0100C08 // [  8   6   4 -12]
@B5 FE00005FF // [-1  2  0 -4]
@B6 FB02FFA04 // [  4  -3  11 -10]
@B7 03037EBFF // [ -1 -11  13   6]
@B8 0500C19FC // [-4 12  3 10]
@B9 FD82FD805 // [  5 -20  11  -5]
@BA FA02801F0 // [-16   0  10 -12]
@BB FDFE3FFFA // [-6 -1 -8 -5]
@BC 037F011F9 // [-7  8 -4  6]
@BD FD7FFDFFF // [ -1 -17  -1  -6]
@BE FF83C05F3 // [-13   2  15  -1]
@BF FE827F204 // [ 4 -7  9 -3]
@C0 FC8140003 // [ 3  0  5 -7]
@C1 F47F7F40C // [ 12  -6  -3 -24]
@C2 FFFE00200 // [ 0  1 -8 -1]
@C3 08FD7F000 // [  0  -8 -11  17]
