@0 03FF00BFB // [-5  5 -4  7]
@1 0603FF207 // [ 7 -7 15 12]
@2 FEFA7F9FE // [ -2  -4 -23  -3]
@3 FE813F7F2 // [-14  -5   4  -3]
@4 FCFEC0413 // [19  2 -5 -7]
@5 027E801F8 // [-8  0 -6  4]
@6 0304BEA01 // [  1 -11  18   6]
@7 000401600 // [ 0 11 16  0]
@8 0A803EA0D // [ 13 -11   0  21]
@9 F58080DF5 // [-11   6   2 -21]
@A 047F7FBFA // [-6 -3 -3  8]
@B FD004120A // [10  9  1 -6]
@C 01FEFF609 // [ 9 -5 -5  3]
@D 00793F402 // [  2  -6 -28   0]
@E FA7FBFFFD // [ -3  -1  -2 -12]
@F F47EBF805 // [  5  -4  -6 -24]
@10 037F817FD // [-3 11 -2  6]
@11 007DC01FC // [-4  0 -9  0]
@12 FD81C0FF7 // [-9  7  7 -5]
@13 FDFE7FDFA // [-6 -2 -7 -5]
@14 FCFCBFC09 // [  9  -2 -14  -7]
@15 0C06007FC // [-4  3 24 24]
@16 0580C0003 // [ 3  0  3 11]
@17 F4F9C1FE2 // [-30  15 -25 -23]
@18 F7FDFCDE3 // [-29 -26  -9 -17]
@19 FAFBFFFED // [-19  -1 -17 -11]
@1A 007CFFBFE // [ -2  -3 -13   0]
@1B 007DFFFF1 // [-15  -1  -9   0]
@1C FAFE003F9 // [ -7   1  -8 -11]
@1D FFFE405EC // [-20   2  -7  -1]
@1E F7FBBDBF7 // [ -9 -19 -18 -17]
@1F F47BBB5F7 // [ -9 -38 -18 -24]
@20 037EFD1F6 // [-10 -24  -5   6]
@21 FEFD41605 // [  5  11 -11  -3]
@22 047EBFBFB // [-5 -3 -6  8]
@23 FA81C0607 // [  7   3   7 -11]
@24 FDFCBF3FA // [ -6  -7 -14  -5]
@25 FE7C00DF5 // [-11   6 -16  -4]
@26 FE7AFCFEE // [-18 -25 -21  -4]
@27 FF7E801FF // [-1  0 -6 -2]
@28 000581000 // [ 0  8 22  0]
@29 007E00DFA // [-6  6 -8  0]
@2A FEFDBF1F2 // [-14  -8 -10  -3]
@2B F97F80E05 // [  5   7  -2 -14]
@2C F8FBFD3E6 // [-26 -23 -17 -15]
@2D F9FFBCDF2 // [-14 -26  -2 -13]
@2E 0C04C0C0E // [14  6 19 24]
@2F FC7E0100D // [13  8 -8 -8]
@30 01003DFF8 // [ -8 -17   0   2]
@31 05FFFFC10 // [16 -2 -1 11]
@32 FE00BF000 // [ 0 -8  2 -4]
@33 FC7FBEDF2 // [-14 -10  -2  -8]
@34 FD7DBFE05 // [  5  -1 -10  -6]
@35 160502C04 // [ 4 22 20 44]
@36 FD0040013 // [19  0  1 -6]
@37 03FC7FFF6 // [-10  -1 -15   7]
@38 FE83415FF // [-1 10 13 -3]
@39 F38002200 // [  0  17   0 -25]
@3A F87F7DBF2 // [-14 -19  -3 -16]
@3B FA7BBE5F3 // [-13 -14 -18 -12]
@3C 0B8885402 // [ 2 42 34 23]
@3D F47D81211 // [ 17   9 -10 -24]
@3E FC7EFF7E4 // [-28  -5  -5  -8]
@3F 0100C1000 // [0 8 3 2]
@40 FB7DFF605 // [  5  -5  -9 -10]
@41 FA7A3E5FB // [ -5 -14 -24 -12]
@42 FD7B40DF8 // [ -8   6 -19  -6]
@43 0107C4809 // [ 9 36 31  2]
@44 EEFC0220C // [ 12  17 -16 -35]
@45 01027F9E6 // [-26  -4   9   2]
@46 05807FC06 // [ 6 -2  1 11]
@47 F9003E00E // [ 14 -16   0 -14]
@48 FAFFFF3F2 // [-14  -7  -1 -11]
@49 04FBFB3EA // [-22 -39 -17   9]
@4A 0B0804631 // [49 35 32 22]
@4B F27D0000F // [ 15   0 -12 -28]
@4C F7827D5DD // [-35 -22   9 -17]
@4D 03FE3EBFB // [ -5 -11  -8   7]
@4E FC807F800 // [ 0 -4  1 -7]
@4F 0580BF602 // [ 2 -5  2 11]
@50 137ABABE4 // [-28 -43 -22  38]
@51 070686821 // [33 52 26 14]
@52 F3F98041C // [ 28   2 -26 -25]
@53 01FFBEBF1 // [-15 -11  -2   3]
@54 00FEFF60C // [12 -5 -5  1]
@55 FE02BF00D // [13 -8 10 -4]
@56 F67F7FE04 // [  4  -1  -3 -20]
@57 0EFD39FD3 // [-45 -49 -12  29]
@58 07878400E // [14 32 30 15]
@59 FC0180618 // [24  3  6 -8]
@5A FC807EFF9 // [-7 -9  1 -7]
@5B FD7DC15FB // [-5 10 -9 -6]
@5C 03FFFFE0D // [13 -1 -1  7]
@5D F97ABCE03 // [  3 -25 -22 -14]
@5E 0681BABDA // [-38 -43   6  13]
@5F 0A858280F // [15 20 22 21]
@60 EE7D40612 // [ 18   3 -11 -36]
@61 FDFD3F9F1 // [-15  -4 -12  -5]
@62 FDFEC1600 // [ 0 11 -5 -5]
@63 0A82FF602 // [ 2 -5 11 21]
@64 F38081A11 // [ 17  13   2 -25]
@65 01FE3FDEC // [-20  -2  -8   3]
@66 0F09C3010 // [16 24 39 30]
@67 F57ABEE12 // [ 18  -9 -22 -22]
@68 007F3F807 // [ 7 -4 -4  0]
@69 FD7E01200 // [ 0  9 -8 -6]
@6A 0686C3015 // [21 24 27 13]
@6B 0980C281D // [29 20  3 19]
@6C 038300FFE // [-2  7 12  7]
@6D 0B8A06A0F // [15 53 40 23]
@6E F1000060A // [ 10   3   0 -30]
@6F 08003F5EE // [-18  -6   0  16]
@70 07800040B // [11  2  0 15]
@71 1403C2610 // [16 19 15 40]
@72 0182C162E // [46 11 11  3]
@73 09070200C // [12 16 28 18]
@74 088786224 // [36 49 30 17]
@75 FD78FF00A // [ 10  -8 -29  -6]
@76 0000001F9 // [-7  0  0  0]
@77 04803F00C // [12 -8  0  9]
@78 107FC29FD // [-3 20 -1 32]
@79 F6FBC0A07 // [  7   5 -17 -19]
@7A 12084301E // [30 24 33 36]
@7B FFFDC1613 // [19 11 -9 -1]
@7C F9FE3F7E8 // [-24  -5  -8 -13]
@7D FF81417F8 // [-8 11  5 -1]
@7E 01FE423F9 // [-7 17 -7  3]
@7F 05FE817F9 // [-7 11 -6 11]
@80 FFFB7BFFD // [ -3 -33 -19  -1]
@81 008541FF8 // [-8 15 21  1]
@82 F579805FB // [ -5   2 -26 -22]
@83 F47CFBDF0 // [-16 -34 -13 -24]
@84 FF0000E00 // [ 0  7  0 -2]
@85 008140216 // [22  1  5  1]
@86 F3807D7F9 // [ -7 -21   1 -25]
@87 EB74F9FE0 // [-32 -49 -45 -42]
@88 F47C7CFDB // [-37 -25 -15 -24]
@89 F2793C9EF // [-17 -28 -28 -28]
@8A FC793D9FB // [ -5 -20 -28  -8]
@8B FE803DA02 // [  2 -19   0  -3]
@8C 03837FFFE // [-2 -1 13  7]
@8D F682811FF // [ -1   8  10 -19]
@8E E57ABB9F9 // [ -7 -36 -22 -54]
@8F EF793BDDF // [-33 -34 -28 -34]
@90 F3F87C5E3 // [-29 -30 -31 -25]
@91 FE7C7E5ED // [-19 -14 -15  -4]
@92 058200008 // [ 8  0  8 11]
@93 F882BF3F1 // [-15  -7  10 -15]
@94 FE81BFDF4 // [-12  -2   6  -3]
@95 E5FBBC9E5 // [-27 -28 -18 -53]
@96 F9F63A1DB // [-37 -48 -40 -13]
@97 F87C7CE01 // [  1 -25 -15 -16]
@98 F87D3F3F8 // [ -8  -7 -12 -16]
@99 FCFF3EA04 // [  4 -11  -4  -7]
@9A F903409FA // [ -6   4  13 -14]
@9B FFFB41602 // [  2  11 -19  -1]
@9C F9FE7FE02 // [  2  -1  -7 -13]
@9D F2797C5D9 // [-39 -30 -27 -28]
@9E F8813F3F2 // [-14  -7   4 -15]
@9F 0200BF9EE // [-18  -4   2   4]
@A0 FA7F3F60E // [ 14  -5  -4 -12]
@A1 FE80005FB // [-5  2  0 -3]
@A2 FD837FE04 // [ 4 -1 13 -5]
@A3 F57EBE3FB // [ -5 -15  -6 -22]
@A4 F7F87E1EC // [-20 -16 -31 -17]
@A5 0506BEFFA // [-6 -9 26 10]
@A6 0280407FB // [-5  3  1  5]
@A7 030240FED // [-19   7   9   6]
@A8 FF80C0BFC // [-4  5  3 -1]
@A9 0382027FC // [-4 19  8  7]
@AA F4FBBBA0D // [ 13 -35 -18 -23]
@AB FAF7FD3E5 // [-27 -23 -33 -11]
@AC FE817EBED // [-19 -11   5  -3]
@AD 03810040B // [11  2  4  7]
@AE FD80401F6 // [-10   0   1  -5]
@AF 087F7F801 // [ 1 -4 -3 16]
@B0 088480DFB // [-5  6 18 17]
@B1 078101008 // [ 8  8  4 15]
@B2 FEFEC13FC // [-4  9 -5 -3]
@B3 06FF41C09 // [ 9 14 -3 13]
@B4 FF0101410 // [16 10  4 -2]
@B5 FD01C17FD // [-3 11  7 -6]
@B6 FE7EC05FA // [-6  2 -5 -4]
@B7 0481C1805 // [ 5 12  7  9]
@B8 107F8160D // [13 11 -2 32]
@B9 020102DFB // [-5 22  4  4]
@BA FF0200A04 // [ 4  5  8 -2]
@BB 02FCFF80B // [ 11  -4 -13   5]
@BC 010542001 // [ 1 16 21  2]
@BD 017D3D801 // [  1 -20 -12   2]
@BE FD82BE9F1 // [-15 -12  10  -5]
@BF 010480A00 // [ 0  5 18  2]
@C0 FF7D00205 // [  5   1 -12  -2]
@C1 06FFFFC09 // [ 9 -2 -1 13]
@C2 047EBF5FE // [-2 -6 -6  8]
@C3 FF00C1000 // [ 0  8  3 -2]
