@0 FFFF3FBFD // [-3 -3 -4 -1]
@1 018500BF9 // [-7  5 20  3]
@2 F7FABF1FC // [ -4  -8 -22 -17]
@3 FCFF00DFD // [-3  6 -4 -7]
@4 010180007 // [7 0 6 2]
@5 027DC0600 // [ 0  3 -9  4]
@6 01847F5FC // [-4 -6 17  3]
@7 FDFEC11F9 // [-7  8 -5 -5]
@8 FBFCBF3FD // [ -3  -7 -14  -9]
@9 FEFF83003 // [ 3 24 -2 -3]
@A F401BEE00 // [  0  -9   6 -24]
@B 048180004 // [4 0 6 9]
@C FB7C811FE // [ -2   8 -14 -10]
@D 0001805FA // [-6  2  6  0]
@E FD0380DF9 // [-7  6 14 -6]
@F FDFF001F3 // [-13   0  -4  -5]
@10 037DFDA02 // [  2 -19  -9   6]
@11 FEF7BFFED // [-19  -1 -34  -3]
@12 05FB3EBFF // [ -1 -11 -20  11]
@13 00007F1FE // [-2 -8  1  0]
@14 008401E01 // [ 1 15 16  1]
@15 050281409 // [ 9 10 10 10]
@16 FAFF02010 // [ 16  16  -4 -11]
@17 F47D3F800 // [  0  -4 -12 -24]
@18 F2FEBCDDD // [-35 -26  -6 -27]
@19 FD7A3EDDE // [-34 -10 -24  -6]
@1A 00FD801F7 // [ -9   0 -10   1]
@1B 060181200 // [ 0  9  6 12]
@1C FF01009FA // [-6  4  4 -2]
@1D 008241606 // [ 6 11  9  1]
@1E 007ABE202 // [  2 -15 -22   0]
@1F FBFDBE3E2 // [-30 -15 -10  -9]
@20 F87F3F3FD // [ -3  -7  -4 -16]
@21 027EFFE02 // [ 2 -1 -5  4]
@22 007E80812 // [18  4 -6  0]
@23 F980BF3FC // [ -4  -7   2 -13]
@24 0181C1A09 // [ 9 13  7  3]
@25 02FCBE002 // [  2 -16 -14   5]
@26 FA7C7E3FB // [ -5 -15 -15 -12]
@27 F9FDFDFF0 // [-16 -17  -9 -13]
@28 0282BE803 // [  3 -12  10   5]
@29 FC7B03BF6 // [-10  29 -20  -8]
@2A FD7D809FA // [ -6   4 -10  -6]
@2B FF8340A0A // [10  5 13 -1]
@2C 058300009 // [ 9  0 12 11]
@2D 04003FE07 // [ 7 -1  0  8]
@2E 07830080E // [14  4 12 15]
@2F FC7FBF605 // [ 5 -5 -2 -8]
@30 0081001FD // [-3  0  4  1]
@31 FC7D00000 // [  0   0 -12  -8]
@32 0B04809FD // [-3  4 18 22]
@33 030142C01 // [ 1 22  5  6]
@34 01FF8200C // [12 16 -2  3]
@35 140884C08 // [ 8 38 34 40]
@36 078181020 // [32  8  6 15]
@37 FC02BF406 // [ 6 -6 10 -8]
@38 06FDBE605 // [  5 -13 -10  13]
@39 020541403 // [ 3 10 21  4]
@3A 007F43407 // [ 7 26 -3  0]
@3B FE7FC1E07 // [ 7 15 -1 -4]
@3C 1088427FE // [-2 19 33 33]
@3D 048645009 // [ 9 40 25  9]
@3E FFFCFEDFD // [ -3 -10 -13  -1]
@3F 05017F3FE // [-2 -7  5 10]
@40 0B8940807 // [ 7  4 37 23]
@41 FF00C080C // [12  4  3 -2]
@42 FEFE80C00 // [ 0  6 -6 -3]
@43 118B83E07 // [ 7 31 46 35]
@44 038284203 // [ 3 33 10  7]
@45 FE7E80E04 // [ 4  7 -6 -4]
@46 0281C01FD // [-3  0  7  5]
@47 0E8181C04 // [ 4 14  6 29]
@48 FD024220F // [15 17  9 -6]
@49 047D7D800 // [  0 -20 -11   8]
@4A 0883C1E0E // [14 15 15 17]
@4B FD8401C06 // [ 6 14 16 -5]
@4C FC803F7E9 // [-23  -5   0  -7]
@4D 068000001 // [ 1  0  0 13]
@4E 0C824280B // [11 20  9 25]
@4F 07820060F // [15  3  8 15]
@50 0E0200604 // [ 4  3  8 28]
@51 00048221C // [28 17 18  0]
@52 FB7E80813 // [ 19   4  -6 -10]
@53 FB81BE3F7 // [ -9 -15   6  -9]
@54 037F7EE10 // [16 -9 -3  6]
@55 0B8280A16 // [22  5 10 23]
@56 0C00C360A // [10 27  3 24]
@57 0983C03FE // [-2  1 15 19]
@58 000782E14 // [20 23 30  0]
@59 F27EBF006 // [  6  -8  -6 -28]
@5A 0081BDBE8 // [-24 -19   6   1]
@5B 0000C0405 // [5 2 3 0]
@5C 08808081C // [28  4  2 17]
@5D FA7F00E16 // [ 22   7  -4 -12]
@5E 0E85FF3FB // [-5 -7 23 29]
@5F 0901C260D // [13 19  7 18]
@60 F27AFFE15 // [ 21  -1 -21 -28]
@61 04017F7F0 // [-16  -5   5   8]
@62 0000805FC // [-4  2  2  0]
@63 00818000F // [15  0  6  1]
@64 FF013F7F9 // [-7 -5  4 -2]
@65 0A0501205 // [ 5  9 20 20]
@66 04040481F // [31 36 16  8]
@67 F7FC7D3FE // [ -2 -23 -15 -17]
@68 0081BF400 // [ 0 -6  6  1]
@69 0100FEC13 // [ 19 -10   3   2]
@6A 000000C01 // [1 6 0 0]
@6B F6FDC0DF8 // [ -8   6  -9 -19]
@6C 0904429FD // [-3 20 17 18]
@6D 0703C4A21 // [33 37 15 14]
@6E F6FC00800 // [  0   4 -16 -19]
@6F FE827E9F3 // [-13 -12   9  -3]
@70 0680809F2 // [-14   4   2  13]
@71 FD7CBD217 // [ 23 -23 -14  -6]
@72 FEFBFE610 // [ 16 -13 -17  -3]
@73 0B8280DF9 // [-7  6 10 23]
@74 FC0343816 // [22 28 13 -8]
@75 F97FFF9F7 // [ -9  -4  -1 -14]
@76 0502401F4 // [-12   0   9  10]
@77 017F415FE // [-2 10 -3  2]
@78 FA7F7EDFA // [ -6 -10  -3 -12]
@79 FDFB7F210 // [ 16  -7 -19  -5]
@7A 0D86001FC // [-4  0 24 27]
@7B 010002805 // [ 5 20  0  2]
@7C FE7940FFC // [ -4   7 -27  -4]
@7D 017EFFFF4 // [-12  -1  -5   2]
@7E 060280C08 // [ 8  6 10 12]
@7F FA7D40002 // [  2   0 -11 -12]
@80 FBF77D7F2 // [-14 -21 -35  -9]
@81 01007FBF5 // [-11  -3   1   2]
@82 F7FE7FDF1 // [-15  -2  -7 -17]
@83 01FDFEC07 // [  7 -10  -9   3]
@84 05003EBE7 // [-25 -11   0  10]
@85 FF7AFDC02 // [  2 -18 -21  -2]
@86 F1F87DFFE // [ -2 -17 -31 -29]
@87 E8757B9DC // [-36 -36 -43 -48]
@88 F9FF7C3D2 // [-46 -31  -3 -13]
@89 FCFE3E1E0 // [-32 -16  -8  -7]
@8A F97CFD801 // [  1 -20 -13 -14]
@8B 020380407 // [ 7  2 14  4]
@8C 0100405FE // [-2  2  1  2]
@8D F67BFF1FE // [ -2  -8 -17 -20]
@8E DF72B9DD9 // [-39 -50 -54 -66]
@8F EB72FA7BF // [-65 -45 -53 -42]
@90 047BFE9E9 // [-23 -12 -17   8]
@91 FC7C3E5F5 // [-11 -14 -16  -8]
@92 FDFE7F9F8 // [-8 -4 -7 -5]
@93 04FE8000A // [10  0 -6  9]
@94 F47B40402 // [  2   2 -19 -24]
@95 E674BC9F9 // [ -7 -28 -46 -52]
@96 F2763B5CD // [-51 -38 -40 -28]
@97 037EBDBFD // [ -3 -19  -6   6]
@98 FE7DC0006 // [ 6  0 -9 -4]
@99 FF0000401 // [ 1  2  0 -2]
@9A 01FC80803 // [  3   4 -14   3]
@9B 02FDFF3FD // [-3 -7 -9  5]
@9C F679FD5F3 // [-13 -22 -25 -20]
@9D F9FCBEFE6 // [-26  -9 -14 -13]
@9E 0301409E9 // [-23   4   5   6]
@9F 09003FDF8 // [-8 -2  0 18]
@A0 0081819F9 // [-7 12  6  1]
@A1 048000A00 // [0 5 0 9]
@A2 FD00413ED // [-19   9   1  -6]
@A3 0080FEA09 // [  9 -11   3   1]
@A4 0882BEFFE // [-2 -9 10 17]
@A5 05008240A // [10 18  2 10]
@A6 F48081A18 // [ 24  13   2 -23]
@A7 03FD3EE00 // [  0  -9 -12   7]
@A8 FE7F40806 // [ 6  4 -3 -4]
@A9 0585821EB // [-21  16  22  11]
@AA 0884C01FE // [-2  0 19 17]
@AB 020181E1F // [31 15  6  4]
@AC 068182615 // [21 19  6 13]
@AD 007C82017 // [ 23  16 -14   0]
@AE 05FFC0BF2 // [-14   5  -1  11]
@AF FF82013F5 // [-11   9   8  -1]
@B0 048302A06 // [ 6 21 12  9]
@B1 0A8682818 // [24 20 26 21]
@B2 0F05C2A1A // [26 21 23 30]
@B3 050103012 // [18 24  4 10]
@B4 00003FC19 // [25 -2  0  0]
@B5 0303805FD // [-3  2 14  6]
@B6 0100403FA // [-6  1  1  2]
@B7 02FD3D7FD // [ -3 -21 -12   5]
@B8 070400A0B // [11  5 16 14]
@B9 0C0241800 // [ 0 12  9 24]
@BA 048200BFB // [-5  5  8  9]
@BB 008000602 // [2 3 0 1]
@BC 007FC01F5 // [-11   0  -1   0]
@BD 0401BFC04 // [ 4 -2  6  8]
@BE FDFD40611 // [ 17   3 -11  -5]
@BF FB047FBFD // [ -3  -3  17 -10]
@C0 FEFC407F9 // [ -7   3 -15  -3]
@C1 FC7FBFA18 // [24 -3 -2 -8]
@C2 077EFFDFF // [-1 -2 -5 14]
@C3 017F7E00E // [ 14 -16  -3   2]
