@0 FD80C01FF // [-1  0  3 -5]
@1 03FCBFBFF // [ -1  -3 -14   7]
@2 02003EDFC // [ -4 -10   0   4]
@3 01023FE00 // [ 0 -1  8  2]
@4 FBFE01DF8 // [-8 14 -8 -9]
@5 FD7CFD803 // [  3 -20 -13  -6]
@6 01013E60B // [ 11 -13   4   2]
@7 0280005F2 // [-14   2   0   5]
@8 007F7FE00 // [ 0 -1 -3  0]
@9 FD803F3ED // [-19  -7   0  -5]
@A FB823FBFF // [-1 -3  8 -9]
@B F8FF7F9F9 // [ -7  -4  -3 -15]
@C 00020000D // [13  0  8  0]
@D 007F811F9 // [-7  8 -2  0]
@E 0000011FF // [-1  8  0  0]
@F FEFD3E7FF // [ -1 -13 -12  -3]
@10 00033FA0F // [15 -3 12  0]
@11 03804260B // [11 19  1  7]
@12 040001A0A // [10 13  0  8]
@13 FE8000204 // [ 4  1  0 -3]
@14 017F3FE0C // [12 -1 -4  2]
@15 08FDC11F7 // [-9  8 -9 17]
@16 FDFDC1411 // [17 10 -9 -5]
@17 0982C0403 // [ 3  2 11 19]
@18 050383012 // [18 24 14 10]
@19 0C01C2E12 // [18 23  7 24]
@1A 0482C2405 // [ 5 18 11  9]
@1B FB8001201 // [ 1  9  0 -9]
@1C 02840000E // [14  0 16  5]
@1D F87E807F4 // [-12   3  -6 -16]
@1E 020140FE1 // [-31   7   5   4]
@1F 13074260B // [11 19 29 38]
@20 1105C421C // [28 33 23 34]
@21 017F4361A // [26 27 -3  2]
@22 01FD3FBDD // [-35  -3 -12   3]
@23 FF82BFBFB // [-5 -3 10 -1]
@24 0083FF9FF // [-1 -4 15  1]
@25 028201E08 // [ 8 15  8  5]
@26 090680006 // [ 6  0 26 18]
@27 188E87232 // [50 57 58 49]
@28 0284C1414 // [20 10 19  5]
@29 058140DF0 // [-16   6   5  11]
@2A FB7DFF7FD // [ -3  -5  -9 -10]
@2B 0982413F7 // [-9  9  9 19]
@2C EF7E7EC02 // [  2 -10  -7 -34]
@2D E5777C5EC // [-20 -30 -35 -54]
@2E 04817A9D4 // [-44 -44   5   9]
@2F 050341A0D // [13 13 13 10]
@30 00034200E // [14 16 13  0]
@31 FF7FBE402 // [  2 -14  -2  -2]
@32 0902813FB // [-5  9 10 18]
@33 EA79BD5F5 // [-11 -22 -26 -44]
@34 CDF137FBF // [ -65  -65  -60 -101]
@35 F7F9B63B1 // [-79 -79 -26 -17]
@36 0004FFDEE // [-18  -2  19   0]
@37 03817F209 // [ 9 -7  5  7]
@38 FA00C0FF7 // [ -9   7   3 -12]
@39 0180C1200 // [0 9 3 3]
@3A FDFB3CE02 // [  2 -25 -20  -5]
@3B E86EFB1E4 // [-28 -40 -69 -48]
@3C 0781BDFCE // [-50 -17   6  15]
@3D 010401603 // [ 3 11 16  2]
@3E 01007F1FF // [-1 -8  1  2]
@3F 02FEBEC10 // [ 16 -10  -6   5]
@40 04817FFF6 // [-10  -1   5   9]
@41 F08180806 // [  6   4   6 -31]
@42 ED78FDBE9 // [-23 -19 -29 -38]
@43 0182025EB // [-21  18   8   3]
@44 00040220C // [12 17 16  0]
@45 00003FE04 // [ 4 -1  0  0]
@46 FEFFC1A04 // [ 4 13 -1 -3]
@47 FF7EFEDF2 // [-14 -10  -5  -2]
@48 01057FA0F // [15 -3 21  2]
@49 F2FDBFE01 // [  1  -1 -10 -27]
@4A 0B85817FF // [-1 11 22 23]
@4B 07003F1F1 // [-15  -8   0  14]
@4C FF7DBEE0D // [ 13  -9 -10  -2]
@4D 03FF80DF5 // [-11   6  -2   7]
@4E FA7FBD7F3 // [-13 -21  -2 -12]
@4F 0000801E8 // [-24   0   2   0]
@50 F37EC100A // [ 10   8  -5 -26]
@51 00FF811F3 // [-13   8  -2   1]
@52 037E3E1FA // [ -6 -16  -8   6]
@53 007E00209 // [ 9  1 -8  0]
@54 FE7F7E40A // [ 10 -14  -3  -4]
@55 FDF77B3FE // [ -2 -39 -35  -5]
@56 03FE7F1F9 // [-7 -8 -7  7]
@57 F40104A14 // [ 20  37   4 -24]
@58 F77C005E9 // [-23   2 -16 -18]
@59 04FFC03F0 // [-16   1  -1   9]
@5A 02023FE04 // [ 4 -1  8  4]
@5B FD7EBF7F0 // [-16  -5  -6  -6]
@5C F1FABD3EF // [-17 -23 -22 -29]
@5D 097EFEFFA // [-6 -9 -5 18]
@5E FE7EC1C16 // [22 14 -5 -4]
@5F 0780C1DEB // [-21  14   3  15]
@60 0A7FFEDDD // [-35 -10  -1  20]
@61 FC81C020A // [10  1  7 -7]
@62 FE7F017EA // [-22  11  -4  -4]
@63 FEFD7DA00 // [  0 -19 -11  -3]
@64 078340600 // [ 0  3 13 15]
@65 FE7BC1220 // [ 32   9 -17  -4]
@66 FB803F601 // [ 1 -5  0 -9]
@67 10003B9EB // [-21 -36   0  32]
@68 008000A03 // [3 5 0 1]
@69 FA7E7F211 // [ 17  -7  -7 -12]
@6A 00017D7EA // [-22 -21   5   0]
@6B 007EFE600 // [  0 -13  -5   0]
@6C 0A0941616 // [22 11 37 20]
@6D FA7C7EA08 // [  8 -11 -15 -12]
@6E 04003EBF4 // [-12 -11   0   8]
@6F 02820160C // [12 11  8  5]
@70 020000BFC // [-4  5  0  4]
@71 0604C2E07 // [ 7 23 19 12]
@72 04FEBF9F7 // [-9 -4 -6  9]
@73 090783C01 // [ 1 30 30 18]
@74 F7FF3E9E9 // [-23 -12  -4 -17]
@75 03FFBD9EE // [-18 -20  -2   7]
@76 FCFE41206 // [ 6  9 -7 -7]
@77 03FF00FFD // [-3  7 -4  7]
@78 0703C0417 // [23  2 15 14]
@79 0981C2201 // [ 1 17  7 19]
@7A 050882C1A // [26 22 34 10]
@7B FDFB3BC00 // [  0 -34 -20  -5]
@7C 0D7FC13FB // [-5  9 -1 26]
@7D F97F41C0F // [ 15  14  -3 -14]
@7E 078300DFB // [-5  6 12 15]
@7F 0A0501418 // [24 10 20 20]
@80 0F068440F // [15 34 26 30]
@81 07054501E // [30 40 21 14]
@82 FE8300A06 // [ 6  5 12 -3]
@83 0288005FA // [-6  2 32  5]
@84 007CBF210 // [ 16  -7 -14   0]
@85 FF00411FD // [-3  8  1 -2]
@86 19084180B // [11 12 33 50]
@87 1E8C87A24 // [36 61 50 61]
@88 108B06033 // [51 48 44 33]
@89 FF0201010 // [16  8  8 -2]
@8A 0D02C17FF // [-1 11 11 26]
@8B FC01BF414 // [20 -6  6 -8]
@8C 077FC1406 // [ 6 10 -1 14]
@8D 148B02BF7 // [-9 21 44 41]
@8E 1E0D87830 // [48 60 54 60]
@8F 198885442 // [66 42 34 51]
@90 0202C3621 // [33 27 11  4]
@91 028480A00 // [ 0  5 18  5]
@92 FF7E02607 // [ 7 19 -8 -2]
@93 030080403 // [3 2 2 6]
@94 0C00C01FD // [-3  0  3 24]
@95 1B0A0261F // [31 19 40 54]
@96 0E8907439 // [57 58 36 29]
@97 09870040F // [15  2 28 19]
@98 028081A01 // [ 1 13  2  5]
@99 F9000000D // [ 13   0   0 -14]
@9A F8FEC240B // [ 11  18  -5 -15]
@9B 0280FF20A // [10 -7  3  5]
@9C 098580A0B // [11  5 22 19]
@9D 0A8504C1F // [31 38 20 21]
@9E 028104024 // [36 32  4  5]
@9F 090382002 // [ 2 16 14 18]
@A0 05FA80001 // [  1   0 -22  11]
@A1 0000C13F7 // [-9  9  3  0]
@A2 FA7AC01F6 // [-10   0 -21 -12]
@A3 007C7FA02 // [  2  -3 -15   0]
@A4 098341A00 // [ 0 13 13 19]
@A5 050382223 // [35 17 14 10]
@A6 FCFF7E813 // [ 19 -12  -3  -7]
@A7 0A7C40406 // [  6   2 -15  20]
@A8 05FD01DF5 // [-11  14 -12  11]
@A9 EFF9FD804 // [  4 -20 -25 -33]
@AA FA757DDE4 // [-28 -18 -43 -12]
@AB 0A843F5F8 // [-8 -6 16 21]
@AC 057DC15F8 // [-8 10 -9 10]
@AD 007F3F9EB // [-21  -4  -4   0]
@AE 0602415F4 // [-12  10   9  12]
@AF F8823D805 // [  5 -20   8 -15]
@B0 FDFC7D400 // [  0 -22 -15  -5]
@B1 EBF83ADDD // [-35 -42 -32 -41]
@B2 F1FABD1D4 // [-44 -24 -22 -29]
@B3 F976BC1EF // [-17 -32 -38 -14]
@B4 027E7FBE6 // [-26  -3  -7   4]
@B5 FBFFC17F8 // [-8 11 -1 -9]
@B6 0601801F4 // [-12   0   6  12]
@B7 FE7F00A08 // [ 8  5 -4 -4]
@B8 F6803E608 // [  8 -13   0 -19]
@B9 F5773E1DE // [-34 -16 -36 -22]
@BA FF7D7D7EF // [-17 -21 -11  -2]
@BB 010140C0B // [11  6  5  2]
@BC FA7CC3C00 // [  0  30 -13 -12]
@BD FF7FC05F5 // [-11   2  -1  -2]
@BE 00FFC1DFD // [-3 14 -1  1]
@BF 0101401FF // [-1  0  5  2]
@C0 F9803FBF6 // [-10  -3   0 -13]
@C1 007BFE205 // [  5 -15 -17   0]
@C2 07FF009FF // [-1  4 -4 15]
@C3 05017FFFC // [-4 -1  5 10]
