@0 068080607 // [ 7  3  2 13]
@1 04803FBF6 // [-10  -3   0   9]
@2 FDFC001F6 // [-10   0 -16  -5]
@3 088200C03 // [ 3  6  8 17]
@4 FF01819FF // [-1 12  6 -2]
@5 FFFF7E9F7 // [ -9 -12  -3  -1]
@6 02007EA09 // [  9 -11   1   4]
@7 06FD40E0A // [ 10   7 -11  13]
@8 02023DA09 // [  9 -19   8   4]
@9 FB7EFE800 // [  0 -12  -5 -10]
@A FAFE801F2 // [-14   0  -6 -11]
@B FE01C1FFA // [-6 15  7 -4]
@C 00FFBF1F6 // [-10  -8  -2   1]
@D FC0300006 // [ 6  0 12 -8]
@E FC7FC01F0 // [-16   0  -1  -8]
@F 058101809 // [ 9 12  4 11]
@10 00807F5FC // [-4 -6  1  1]
@11 FFFE7EC0E // [ 14 -10  -7  -1]
@12 FAFD3F803 // [  3  -4 -12 -11]
@13 0280FF1FE // [-2 -8  3  5]
@14 0402011F6 // [-10   8   8   8]
@15 0401FEC0D // [ 13 -10   7   8]
@16 04FB3F400 // [  0  -6 -20   9]
@17 057B809F3 // [-13   4 -18  10]
@18 F8FDC0001 // [  1   0  -9 -15]
@19 FAFE7E009 // [  9 -16  -7 -11]
@1A 01FF7EBF5 // [-11 -11  -3   3]
@1B 007F40A07 // [ 7  5 -3  0]
@1C 040000601 // [1 3 0 8]
@1D FEFFBEFFB // [-5 -9 -2 -3]
@1E FF8000A0F // [15  5  0 -1]
@1F 1288413F6 // [-10   9  33  37]
@20 FFFD00214 // [ 20   1 -12  -1]
@21 FCFBC0001 // [  1   0 -17  -7]
@22 FF7F809F8 // [-8  4 -2 -2]
@23 0600FF402 // [ 2 -6  3 12]
@24 01FF415F8 // [-8 10 -3  3]
@25 FB7DBF205 // [  5  -7 -10 -10]
@26 020204203 // [ 3 33  8  4]
@27 00028180E // [14 12 10  0]
@28 F4FD40A08 // [  8   5 -11 -23]
@29 0300003F0 // [-16   1   0   6]
@2A FA81421F4 // [-12  16   5 -11]
@2B F9003F9E8 // [-24  -4   0 -14]
@2C F67FBE9F3 // [-13 -12  -2 -20]
@2D 077C401F8 // [ -8   0 -15  14]
@2E 000642209 // [ 9 17 25  0]
@2F F57C8040D // [ 13   2 -14 -22]
@30 01814000E // [14  0  5  3]
@31 01FEC1406 // [ 6 10 -5  3]
@32 FD000220B // [11 17  0 -6]
@33 FA7A80DF5 // [-11   6 -22 -12]
@34 FE817FE09 // [ 9 -1  5 -3]
@35 0C0842BFE // [-2 21 33 24]
@36 010142E13 // [19 23  5  2]
@37 06803FE09 // [ 9 -1  0 13]
@38 02823F1FF // [-1 -8  8  5]
@39 0102C0E00 // [ 0  7 11  2]
@3A 0101C140D // [13 10  7  2]
@3B 0880C3002 // [ 2 24  3 17]
@3C 0A8803A0C // [12 29 32 21]
@3D 048240208 // [8 1 9 9]
@3E 008280005 // [ 5  0 10  1]
@3F FF8101A0F // [15 13  4 -1]
@40 02020160E // [14 11  8  4]
@41 FF8600BFC // [-4  5 24 -1]
@42 0F0503C1C // [28 30 20 30]
@43 0A8642222 // [34 17 25 21]
@44 1200C2A18 // [24 21  3 36]
@45 048280611 // [17  3 10  9]
@46 FD81BFDFB // [-5 -2  6 -5]
@47 FE80011F8 // [-8  8  0 -3]
@48 0084823FE // [-2 17 18  1]
@49 158BC3216 // [22 25 47 43]
@4A 0B024322F // [47 25  9 22]
@4B 148602C0B // [11 22 24 41]
@4C 000000213 // [19  1  0  0]
@4D 0800411FD // [-3  8  1 16]
@4E 03FE40DF3 // [-13   6  -7   7]
@4F FBFCC0002 // [  2   0 -13  -9]
@50 0D09825F8 // [-8 18 38 26]
@51 037E7FFFC // [-4 -1 -7  6]
@52 FD0481815 // [21 12 18 -6]
@53 0102C0808 // [ 8  4 11  2]
@54 007E80004 // [ 4  0 -6  0]
@55 FF81FF3F5 // [-11  -7   7  -1]
@56 F97F3EC0B // [ 11 -10  -4 -14]
@57 FD84825F9 // [-7 18 18 -5]
@58 FD7F3D7E0 // [-32 -21  -4  -6]
@59 06017E203 // [  3 -15   5  12]
@5A 037D01212 // [ 18   9 -12   6]
@5B 0384FFDFA // [-6 -2 19  7]
@5C F9003FDF0 // [-16  -2   0 -14]
@5D F078FE3F5 // [-11 -15 -29 -32]
@5E FA807E5E7 // [-25 -14   1 -11]
@5F F979FBBD1 // [-47 -35 -25 -14]
@60 FF7FC09F8 // [-8  4 -1 -2]
@61 FB813FE00 // [ 0 -1  4 -9]
@62 027E7F9F3 // [-13  -4  -7   4]
@63 FC7DBC7F9 // [ -7 -29 -10  -8]
@64 ECFA3EDE1 // [-31 -10 -24 -39]
@65 FA84BEBF9 // [ -7 -11  18 -11]
@66 FD803C9E6 // [-26 -28   0  -5]
@67 F7FD00DF2 // [-14   6 -12 -17]
@68 FEFD3EFF4 // [-12  -9 -12  -3]
@69 067FFF603 // [ 3 -5 -1 12]
@6A F3FCBF20A // [ 10  -7 -14 -25]
@6B FAFD41000 // [  0   8 -11 -11]
@6C FE013F1F3 // [-13  -8   4  -4]
@6D F77C3C9D2 // [-46 -28 -16 -18]
@6E 000100BF9 // [-7  5  4  0]
@6F 008042207 // [ 7 17  1  1]
@70 FD80039FD // [-3 28  0 -5]
@71 F6820040B // [ 11   2   8 -19]
@72 FCFEFF80A // [10 -4 -5 -7]
@73 F8FCFF805 // [  5  -4 -13 -15]
@74 007ABC5EB // [-21 -30 -22   0]
@75 057DFF9F9 // [-7 -4 -9 10]
@76 FD7F81E12 // [18 15 -2 -6]
@77 FB8381DFF // [-1 14 14 -9]
@78 FD00C0009 // [ 9  0  3 -6]
@79 FCFEFE9F3 // [-13 -12  -5  -7]
@7A FBFD7F5FE // [ -2  -6 -11  -9]
@7B F77A7E3EF // [-17 -15 -23 -18]
@7C 0380BF7FA // [-6 -5  2  7]
@7D FA81C23EF // [-17  17   7 -11]
@7E 0301FF401 // [ 1 -6  7  6]
@7F 00FF40E09 // [ 9  7 -3  1]
@80 03023F403 // [ 3 -6  8  6]
@81 FC81809FF // [-1  4  6 -7]
@82 F1FDBDFFC // [ -4 -17 -10 -29]
@83 01017E3F3 // [-13 -15   5   2]
@84 FF7AFFC10 // [ 16  -2 -21  -2]
@85 017D407FB // [ -5   3 -11   2]
@86 0D0281E0A // [10 15 10 26]
@87 010002C12 // [18 22  0  2]
@88 F67F015F7 // [ -9  10  -4 -20]
@89 F97EFE9F9 // [ -7 -12  -5 -14]
@8A 09FF407F3 // [-13   3  -3  19]
@8B 09FFFFC0C // [12 -2 -1 19]
@8C FC804200B // [11 16  1 -7]
@8D 0984029FD // [-3 20 16 19]
@8E FF80C1A0F // [15 13  3 -1]
@8F F90000DF7 // [ -9   6   0 -14]
@90 0000409E4 // [-28   4   1   0]
@91 0603013F8 // [-8  9 12 12]
@92 FD7F40404 // [ 4  2 -3 -6]
@93 F9FDBF601 // [  1  -5 -10 -13]
@94 0E8802A0C // [12 21 32 29]
@95 FE023FE0E // [14 -1  8 -4]
@96 F7FDFEFF0 // [-16  -9  -9 -17]
@97 F9FDFEBEB // [-21 -11  -9 -13]
@98 FA803E3F6 // [-10 -15   0 -11]
@99 05FB3FFFA // [ -6  -1 -20  11]
@9A FAFE03400 // [  0  26  -8 -11]
@9B 0A82C15F5 // [-11  10  11  21]
@9C FC7F81420 // [32 10 -2 -8]
@9D 020100406 // [6 2 4 4]
@9E 000180A06 // [6 5 6 0]
@9F FA013FDF9 // [ -7  -2   4 -12]
@A0 0701FFC05 // [ 5 -2  7 14]
@A1 F9FF00603 // [  3   3  -4 -13]
@A2 0183BE7FB // [ -5 -13  14   3]
@A3 078680E04 // [ 4  7 26 15]
@A4 0A8A0161E // [30 11 40 21]
@A5 048082A0A // [10 21  2  9]
@A6 01FE405EF // [-17   2  -7   3]
@A7 01FF82A0B // [11 21 -2  3]
@A8 FF803FDEE // [-18  -2   0  -1]
@A9 FC8040A07 // [ 7  5  1 -7]
@AA 02800060B // [11  3  0  5]
@AB 06848161B // [27 11 18 13]
@AC F7FF81A10 // [ 16  13  -2 -17]
@AD FB0000800 // [  0   4   0 -10]
@AE 04037F5FA // [-6 -6 13  8]
@AF 047FC0DF4 // [-12   6  -1   8]
@B0 F87EBF1F5 // [-11  -8  -6 -16]
@B1 03FF41201 // [ 1  9 -3  7]
@B2 05FF40C03 // [ 3  6 -3 11]
@B3 00FBFFC16 // [ 22  -2 -17   1]
@B4 FC0300A12 // [18  5 12 -8]
@B5 03027CC00 // [  0 -26   9   6]
@B6 FEFFFF205 // [ 5 -7 -1 -3]
@B7 01FFC1E01 // [ 1 15 -1  3]
@B8 0480C0404 // [4 2 3 9]
@B9 FC81FEA0F // [ 15 -11   7  -7]
@BA FA01C0608 // [  8   3   7 -12]
@BB FA7E7E800 // [  0 -12  -7 -12]
@BC 07FAC0C00 // [  0   6 -21  15]
@BD FB83BE9FA // [ -6 -12  14  -9]
@BE 01033F9FA // [-6 -4 12  2]
@BF F88280601 // [  1   3  10 -15]
@C0 FEFF3FA05 // [ 5 -3 -4 -3]
@C1 FFFFBCA07 // [  7 -27  -2  -1]
@C2 0080BFC01 // [ 1 -2  2  1]
@C3 03FFBF60B // [11 -5 -2  7]
