@0 05003DDFB // [ -5 -18   0  10]
@1 FB81C0FFF // [-1  7  7 -9]
@2 FFFFFF9FB // [-5 -4 -1 -1]
@3 FF7EC1DFC // [-4 14 -5 -2]
@4 010081C0B // [11 14  2  2]
@5 037A80BFE // [ -2   5 -22   6]
@6 027BC0BF9 // [ -7   5 -17   4]
@7 00FF40600 // [ 0  3 -3  1]
@8 FF7FC03FF // [-1  1 -1 -2]
@9 FD00FEFF7 // [-9 -9  3 -6]
@A 057C40205 // [  5   1 -15  10]
@B 007E00BFF // [-1  5 -8  0]
@C FB7E3EE02 // [  2  -9  -8 -10]
@D FE043FFFE // [-2 -1 16 -4]
@E 00FF7E1FE // [ -2 -16  -3   1]
@F 0300BEC0B // [ 11 -10   2   6]
@10 04007E1FE // [ -2 -16   1   8]
@11 01FE3E9F9 // [ -7 -12  -8   3]
@12 FD7DFEBF2 // [-14 -11  -9  -6]
@13 010140E03 // [3 7 5 2]
@14 FD82FF7FB // [-5 -5 11 -5]
@15 04FE7F3EF // [-17  -7  -7   9]
@16 0280033F5 // [-11  25   0   5]
@17 0C82BFDFB // [-5 -2 10 25]
@18 0882FFA09 // [ 9 -3 11 17]
@19 040400E0F // [15  7 16  8]
@1A 007B01FFB // [ -5  15 -20   0]
@1B 0701BF7FB // [-5 -5  6 14]
@1C 02FF8160C // [12 11 -2  5]
@1D FDFE81FF5 // [-11  15  -6  -5]
@1E 0DFF80E10 // [16  7 -2 27]
@1F FF05C2216 // [22 17 23 -2]
@20 03048100E // [14  8 18  6]
@21 FB7FBFFF9 // [ -7  -1  -2 -10]
@22 0700FFE08 // [ 8 -1  3 14]
@23 F8833FFFE // [ -2  -1  12 -15]
@24 058100E0C // [12  7  4 11]
@25 120A43E06 // [ 6 31 41 36]
@26 070782E1A // [26 23 30 14]
@27 068105019 // [25 40  4 13]
@28 FF00BF9FD // [-3 -4  2 -2]
@29 F90002410 // [ 16  18   0 -14]
@2A 05803EC03 // [  3 -10   0  11]
@2B 0300BF7FA // [-6 -5  2  6]
@2C 060781C0E // [14 14 30 12]
@2D 0A85C161E // [30 11 23 21]
@2E 03838100E // [14  8 14  7]
@2F 0406FF802 // [ 2 -4 27  8]
@30 000080C11 // [17  6  2  0]
@31 077E001FE // [-2  0 -8 14]
@32 047FC01FD // [-3  0 -1  8]
@33 0A0181611 // [17 11  6 20]
@34 07FE7FC15 // [21 -2 -7 15]
@35 FB7D7E5F4 // [-12 -14 -11 -10]
@36 09817EE17 // [23 -9  5 19]
@37 038141415 // [21 10  5  7]
@38 FEFE815F0 // [-16  10  -6  -3]
@39 FC02805FC // [-4  2 10 -8]
@3A FC0240BFC // [-4  5  9 -8]
@3B F67D3EFF4 // [-12  -9 -12 -20]
@3C FCFFFD3F1 // [-15 -23  -1  -7]
@3D 097F80A08 // [ 8  5 -2 18]
@3E FA0002A0B // [ 11  21   0 -12]
@3F FE0280803 // [ 3  4 10 -4]
@40 F47DBF9F1 // [-15  -4 -10 -24]
@41 038241A15 // [21 13  9  7]
@42 F2F93F20B // [ 11  -7 -28 -27]
@43 007E7C1E1 // [-31 -32  -7   0]
@44 1000C1012 // [18  8  3 32]
@45 000240A12 // [18  5  9  0]
@46 F88001000 // [  0   8   0 -15]
@47 FBFE3F1E9 // [-23  -8  -8  -9]
@48 FB8002002 // [ 2 16  0 -9]
@49 E4F77D5F0 // [-16 -22 -35 -55]
@4A FBFCBE7D9 // [-39 -13 -14  -9]
@4B 0085BE7F7 // [ -9 -13  22   1]
@4C FDFF4180C // [12 12 -3 -5]
@4D 007EBFDF8 // [-8 -2 -6  0]
@4E FF7FBE1EE // [-18 -16  -2  -2]
@4F FBFFFFDFA // [-6 -2 -1 -9]
@50 E9F5BFC01 // [  1  -2 -42 -45]
@51 FBFFFCBE5 // [-27 -27  -1  -9]
@52 00FDFF3F0 // [-16  -7  -9   1]
@53 FE7D7F612 // [ 18  -5 -11  -4]
@54 FE7C7E9F5 // [-11 -12 -15  -4]
@55 FE82FE7F2 // [-14 -13  11  -3]
@56 0D0740800 // [ 0  4 29 26]
@57 F07681A11 // [ 17  13 -38 -32]
@58 FA823EBEF // [-17 -11   8 -11]
@59 FE7E7F3F9 // [-7 -7 -7 -4]
@5A 050381407 // [ 7 10 14 10]
@5B 007E01BF3 // [-13  13  -8   0]
@5C FE80FC3F1 // [-15 -31   3  -3]
@5D 190D83DFC // [-4 30 54 50]
@5E F60003639 // [ 57  27   0 -20]
@5F 027EFE9FD // [ -3 -12  -5   4]
@60 0580403F2 // [-14   1   1  11]
@61 077E4040B // [11  2 -7 14]
@62 0801BF5F4 // [-12  -6   6  16]
@63 05807E1F9 // [ -7 -16   1  11]
@64 1C8940023 // [35  0 37 57]
@65 F8FD03848 // [ 72  28 -12 -15]
@66 F97D41DF8 // [ -8  14 -11 -14]
@67 FBFBBDDEC // [-20 -18 -18  -9]
@68 FB80BF604 // [ 4 -5  2 -9]
@69 027EFF1F8 // [-8 -8 -5  4]
@6A 080040DFA // [-6  6  1 16]
@6B 160B05615 // [21 43 44 44]
@6C 007BC2829 // [ 41  20 -17   0]
@6D 01814100D // [13  8  5  3]
@6E F97E7EFFA // [ -6  -9  -7 -14]
@6F F9027F40E // [ 14  -6   9 -14]
@70 057F40007 // [ 7  0 -3 10]
@71 000402A09 // [ 9 21 16  0]
@72 0405C2C21 // [33 22 23  8]
@73 03FDC0626 // [38  3 -9  7]
@74 01FF81E12 // [18 15 -2  3]
@75 057FBF200 // [ 0 -7 -2 10]
@76 04FE00605 // [ 5  3 -8  9]
@77 04037FE02 // [ 2 -1 13  8]
@78 0C870280B // [11 20 28 25]
@79 0C003F81D // [29 -4  0 24]
@7A 0000FDFFC // [ -4 -17   3   0]
@7B 0A870400C // [12 32 28 21]
@7C 0C0683E04 // [ 4 31 26 24]
@7D 010140007 // [7 0 5 2]
@7E 078080E0C // [12  7  2 15]
@7F 190843A10 // [16 29 33 50]
@80 FA8600C15 // [ 21   6  24 -11]
@81 06FD7BA06 // [  6 -35 -11  13]
@82 0501C282B // [43 20  7 10]
@83 058543811 // [17 28 21 11]
@84 F97FC180D // [ 13  12  -1 -14]
@85 FFFFC0A00 // [ 0  5 -1 -1]
@86 0F8A0280B // [11 20 40 31]
@87 FB81C141E // [30 10  7 -9]
@88 07FABEDF7 // [ -9 -10 -22  15]
@89 0C07C0C0F // [15  6 31 24]
@8A 0E8542A1D // [29 21 21 29]
@8B 047D011F7 // [ -9   8 -12   8]
@8C 0C02BE400 // [  0 -14  10  24]
@8D 0E0B43010 // [16 24 45 28]
@8E FCFF81614 // [20 11 -2 -7]
@8F 067D3CDF4 // [-12 -26 -12  12]
@90 13094200F // [15 16 37 38]
@91 0C0904429 // [41 34 36 24]
@92 FE7C3F20E // [ 14  -7 -16  -4]
@93 027F7FC0D // [13 -2 -3  4]
@94 0B834260E // [14 19 13 23]
@95 047FC0014 // [20  0 -1  8]
@96 007FFEA07 // [  7 -11  -1   0]
@97 170901603 // [ 3 11 36 46]
@98 0989C2039 // [57 16 39 19]
@99 0401401FF // [-1  0  5  8]
@9A 02FF00804 // [ 4  4 -4  5]
@9B 06F9C35FD // [ -3  26 -25  13]
@9C 09FDC0600 // [ 0  3 -9 19]
@9D FF81C280E // [14 20  7 -1]
@9E 0D0381201 // [ 1  9 14 26]
@9F 04860281B // [27 20 24  9]
@A0 01053FDFB // [-5 -2 20  2]
@A1 017F801FE // [-2  0 -2  2]
@A2 F8FB7F9F6 // [-10  -4 -19 -15]
@A3 067E01208 // [ 8  9 -8 12]
@A4 FEFEC000E // [14  0 -5 -3]
@A5 048700205 // [ 5  1 28  9]
@A6 028181A0E // [14 13  6  5]
@A7 FFFD7EA07 // [  7 -11 -11  -1]
@A8 F60180209 // [  9   1   6 -20]
@A9 EC80BE00D // [ 13 -16   2 -39]
@AA 0A83803EF // [-17   1  14  21]
@AB FE8200BF7 // [-9  5  8 -3]
@AC 038181607 // [ 7 11  6  7]
@AD 000140207 // [7 1 5 0]
@AE 068300802 // [ 2  4 12 13]
@AF 01FEFE3FE // [ -2 -15  -5   3]
@B0 FCFFBE7FD // [ -3 -13  -2  -7]
@B1 F4FBFD9FD // [ -3 -20 -17 -23]
@B2 FB803EBF0 // [-16 -11   0  -9]
@B3 F7FF3F9EB // [-21  -4  -4 -17]
@B4 0300C0804 // [4 4 3 6]
@B5 0282C000A // [10  0 11  5]
@B6 02813FDFD // [-3 -2  4  5]
@B7 077F40405 // [ 5  2 -3 14]
@B8 FDFEBCBF1 // [-15 -27  -6  -5]
@B9 F3FB7F1FF // [ -1  -8 -19 -25]
@BA FE7DFF5E1 // [-31  -6  -9  -4]
@BB 047C7E1F9 // [ -7 -16 -15   8]
@BC FD017EDF1 // [-15 -10   5  -6]
@BD 09FE80FF9 // [-7  7 -6 19]
@BE 058080DF4 // [-12   6   2  11]
@BF 03FDFEE01 // [ 1 -9 -9  7]
@C0 007CC11F0 // [-16   8 -13   0]
@C1 FC7E7F3F3 // [-13  -7  -7  -8]
@C2 FB7FC1BF4 // [-12  13  -1 -10]
@C3 08017E600 // [  0 -13   5  16]
