@0 FE03C0003 // [ 3  0 15 -4]
@1 FA003F600 // [  0  -5   0 -12]
@2 08FDFE9F5 // [-11 -12  -9  17]
@3 F902C1000 // [  0   8  11 -14]
@4 03FFBD9F7 // [ -9 -20  -2   7]
@5 0102001F7 // [-9  0  8  2]
@6 027EBF808 // [ 8 -4 -6  4]
@7 0282FEFF5 // [-11  -9  11   5]
@8 037C40BFA // [ -6   5 -15   6]
@9 FC023E80A // [ 10 -12   8  -8]
@A F8837F5F3 // [-13  -6  13 -15]
@B 017F00E08 // [ 8  7 -4  2]
@C 048141FFE // [-2 15  5  9]
@D 02FF001FB // [-5  0 -4  5]
@E F702003F2 // [-14   1   8 -18]
@F 087EBF1FD // [-3 -8 -6 16]
@10 FDFDC0003 // [ 3  0 -9 -5]
@11 0580017FF // [-1 11  0 11]
@12 037D01BFA // [ -6  13 -12   6]
@13 FC023F201 // [ 1 -7  8 -8]
@14 FB80005F5 // [-11   2   0  -9]
@15 FC7E00FF1 // [-15   7  -8  -8]
@16 F8843FE00 // [  0  -1  16 -15]
@17 F97CFE200 // [  0 -15 -13 -14]
@18 0481C0600 // [0 3 7 9]
@19 0304C4204 // [ 4 33 19  6]
@1A FF007F205 // [ 5 -7  1 -2]
@1B FF827FBF9 // [-7 -3  9 -1]
@1C FC0300202 // [ 2  1 12 -8]
@1D FA7F815FC // [ -4  10  -2 -12]
@1E F87EBF80B // [ 11  -4  -6 -16]
@1F 0B00409E6 // [-26   4   1  22]
@20 0001C1C0B // [11 14  7  0]
@21 FF01C17FB // [-5 11  7 -2]
@22 FEFD80E0D // [ 13   7 -10  -3]
@23 FB018000A // [ 10   0   6 -10]
@24 F77E817FD // [ -3  11  -6 -18]
@25 FF7FBE3EC // [-20 -15  -2  -2]
@26 FD81FEBEC // [-20 -11   7  -5]
@27 028200C03 // [3 6 8 5]
@28 0081C01FE // [-2  0  7  1]
@29 01FD4020C // [ 12   1 -11   3]
@2A 00000120A // [10  9  0  0]
@2B F37D401FB // [ -5   0 -11 -26]
@2C F87A3F7F6 // [-10  -5 -24 -16]
@2D 0C01407F4 // [-12   3   5  24]
@2E 00000321F // [31 25  0  0]
@2F 0781BF60B // [11 -5  6 15]
@30 FD7F4060D // [13  3 -3 -6]
@31 00F9419F9 // [ -7  12 -27   1]
@32 F8FBC01FC // [ -4   0 -17 -15]
@33 F8FCFD9F0 // [-16 -20 -13 -15]
@34 1188003F2 // [-14   1  32  35]
@35 FA8002E1A // [ 26  23   0 -11]
@36 03FE3DBED // [-19 -19  -8   7]
@37 FC8282E13 // [19 23 10 -7]
@38 FC80805FA // [-6  2  2 -7]
@39 FE00007F3 // [-13   3   0  -4]
@3A FA767F7EA // [-22  -5 -39 -12]
@3B 0C057EBED // [-19 -11  21  24]
@3C FD0241C18 // [24 14  9 -6]
@3D 0A82C0000 // [ 0  0 11 21]
@3E 010381822 // [34 12 14  2]
@3F FF7C007F8 // [ -8   3 -16  -2]
@40 FBFDC09F4 // [-12   4  -9  -9]
@41 F2FA3D5F5 // [-11 -22 -24 -27]
@42 0C8500FEA // [-22   7  20  25]
@43 FF023D9FE // [ -2 -20   8  -2]
@44 0983C11FA // [-6  8 15 19]
@45 FE8203211 // [17 25  8 -3]
@46 057EC0609 // [ 9  3 -5 10]
@47 03FC7EA0A // [ 10 -11 -15   7]
@48 FDFCFE1FC // [ -4 -16 -13  -5]
@49 0F0A06001 // [ 1 48 40 30]
@4A 097EBF5FD // [-3 -6 -6 18]
@4B 128340C05 // [ 5  6 13 37]
@4C FEFCC2E1E // [ 30  23 -13  -3]
@4D 0600401F7 // [-9  0  1 12]
@4E 05017FC05 // [ 5 -2  5 10]
@4F 0C8380E12 // [18  7 14 25]
@50 14130822A // [42 65 76 40]
@51 038300BFE // [-2  5 12  7]
@52 0D04C2E08 // [ 8 23 19 26]
@53 097D815FE // [ -2  10 -10  18]
@54 0182C1002 // [ 2  8 11  3]
@55 1B8A02C11 // [17 22 40 55]
@56 168C03425 // [37 26 48 45]
@57 120E85431 // [49 42 58 36]
@58 0086C0E0C // [12  7 27  1]
@59 0B82C2A08 // [ 8 21 11 23]
@5A FFFD80002 // [  2   0 -10  -1]
@5B 0580BEE01 // [ 1 -9  2 11]
@5C 150DC27FD // [-3 19 55 42]
@5D 09088663C // [60 51 34 18]
@5E 080844227 // [39 33 33 16]
@5F FF83C0A07 // [ 7  5 15 -1]
@60 018100402 // [2 2 4 3]
@61 F7843E603 // [  3 -13  16 -17]
@62 F97E3F7FF // [ -1  -5  -8 -14]
@63 130A02A0D // [13 21 40 38]
@64 FF850522F // [47 41 20 -1]
@65 05FEFF002 // [ 2 -8 -5 11]
@66 057EFD804 // [  4 -20  -5  10]
@67 FD01C2608 // [ 8 19  7 -6]
@68 FFFF7EC00 // [  0 -10  -3  -1]
@69 F57EC07FD // [ -3   3  -5 -22]
@6A 0A0101400 // [ 0 10  4 20]
@6B 0A05C4213 // [19 33 23 20]
@6C F5797D5F8 // [ -8 -22 -27 -22]
@6D 0002BDDED // [-19 -18  10   0]
@6E 04FFC0807 // [ 7  4 -1  9]
@6F 05FD7DFFD // [ -3 -17 -11  11]
@70 FE7F81801 // [ 1 12 -2 -4]
@71 0703C09F0 // [-16   4  15  14]
@72 000201E04 // [ 4 15  8  0]
@73 EB75FB5DD // [-35 -38 -41 -42]
@74 077B3C7E7 // [-25 -29 -20  14]
@75 0003C1809 // [ 9 12 15  0]
@76 0101FD600 // [  0 -21   7   2]
@77 0182FF604 // [ 4 -5 11  3]
@78 04803F5EF // [-17  -6   0   9]
@79 EDFF001FE // [ -2   0  -4 -37]
@7A ECF5B85CE // [-50 -62 -42 -39]
@7B 0DFEFFDF4 // [-12  -2  -5  27]
@7C F9FFC0A12 // [ 18   5  -1 -13]
@7D 00FFBF3DC // [-36  -7  -2   1]
@7E 0000815E8 // [-24  10   2   0]
@7F 087D7FFEF // [-17  -1 -11  16]
@80 F17B81201 // [  1   9 -18 -30]
@81 F876B7FCE // [-50 -65 -38 -16]
@82 0C87425FF // [-1 18 29 25]
@83 F2FF7FC0E // [ 14  -2  -3 -27]
@84 01007E9E0 // [-32 -12   1   2]
@85 060400E13 // [19  7 16 12]
@86 050480007 // [ 7  0 18 10]
@87 F97FC1E00 // [  0  15  -1 -14]
@88 F7FEBB3E0 // [-32 -39  -6 -17]
@89 0984C2E04 // [ 4 23 19 19]
@8A EDFE41A0B // [ 11  13  -7 -37]
@8B 057E7D7E2 // [-30 -21  -7  10]
@8C 007E80DF5 // [-11   6  -6   0]
@8D FF833F003 // [ 3 -8 12 -1]
@8E 0183C11FF // [-1  8 15  3]
@8F 0B7DFFDFE // [-2 -2 -9 22]
@90 0A0602617 // [23 19 24 20]
@91 F7FBBD001 // [  1 -24 -18 -17]
@92 057FFE7F4 // [-12 -13  -1  10]
@93 04FFFFE09 // [ 9 -1 -1  9]
@94 FD00003EB // [-21   1   0  -6]
@95 08003F1F6 // [-10  -8   0  16]
@96 0703C0BF8 // [-8  5 15 14]
@97 F8FB4161C // [ 28  11 -19 -15]
@98 F67CBDDF4 // [-12 -18 -14 -20]
@99 F7FF001F4 // [-12   0  -4 -17]
@9A 007DC0C04 // [ 4  6 -9  0]
@9B FC7DFFC07 // [ 7 -2 -9 -8]
@9C FBFC3D3F8 // [ -8 -23 -16  -9]
@9D 030281201 // [ 1  9 10  6]
@9E F70041612 // [ 18  11   1 -18]
@9F FCF9BE3F3 // [-13 -15 -26  -7]
@A0 FDFF80DE2 // [-30   6  -2  -5]
@A1 0A7E405FB // [-5  2 -7 20]
@A2 0001C1604 // [ 4 11  7  0]
@A3 FE0040200 // [ 0  1  1 -4]
@A4 00FEFEBF6 // [-10 -11  -5   1]
@A5 F80280200 // [  0   1  10 -16]
@A6 FF7DBD9F4 // [-12 -20 -10  -2]
@A7 0602001FE // [-2  0  8 12]
@A8 040202408 // [ 8 18  8  8]
@A9 070081800 // [ 0 12  2 14]
@AA 038181007 // [7 8 6 7]
@AB FC7F3F3F9 // [-7 -7 -4 -8]
@AC 068641E0B // [11 15 25 13]
@AD 04FFC0604 // [ 4  3 -1  9]
@AE FEFF417FE // [-2 11 -3 -3]
@AF 098381009 // [ 9  8 14 19]
@B0 FF8280804 // [ 4  4 10 -1]
@B1 080300405 // [ 5  2 12 16]
@B2 048541609 // [ 9 11 21  9]
@B3 05FCC3A13 // [ 19  29 -13  11]
@B4 027EC2614 // [20 19 -5  4]
@B5 06803FA05 // [ 5 -3  0 13]
@B6 FC7F00C03 // [ 3  6 -4 -8]
@B7 FE00BFFF8 // [-8 -1  2 -4]
@B8 020100E06 // [6 7 4 4]
@B9 04FEBFA03 // [ 3 -3 -6  9]
@BA 0101FF007 // [ 7 -8  7  2]
@BB FF020020C // [12  1  8 -2]
@BC 067E403FF // [-1  1 -7 12]
@BD 00807F802 // [ 2 -4  1  1]
@BE FD7E01DFA // [-6 14 -8 -6]
@BF 0280BFFF9 // [-7 -1  2  5]
@C0 007F4100D // [13  8 -3  0]
@C1 037F8060B // [11  3 -2  6]
@C2 067F7F7FC // [-4 -5 -3 12]
@C3 FF007FBFD // [-3 -3  1 -2]
