@0 04FEBF804 // [ 4 -4 -6  9]
@1 0180C09FB // [-5  4  3  3]
@2 FD817F203 // [ 3 -7  5 -5]
@3 04FFC0A0B // [11  5 -1  9]
@4 01FF3FDF9 // [-7 -2 -4  3]
@5 FC800200A // [10 16  0 -7]
@6 060140005 // [ 5  0  5 12]
@7 007FBFDEE // [-18  -2  -2   0]
@8 067E42FFF // [-1 23 -7 12]
@9 FC05BFFFF // [-1 -1 22 -8]
@A 01FFBEC03 // [  3 -10  -2   3]
@B FB80817F4 // [-12  11   2  -9]
@C 01018120F // [15  9  6  2]
@D FDFF81A0A // [10 13 -2 -5]
@E 007C421FF // [ -1  16 -15   0]
@F 0B7F3F00A // [10 -8 -4 22]
@10 F882FEE0A // [ 10  -9  11 -15]
@11 037F017F0 // [-16  11  -4   6]
@12 FE7E80BF3 // [-13   5  -6  -4]
@13 FD0180200 // [ 0  1  6 -6]
@14 FE80415FA // [-6 10  1 -3]
@15 047E7FA04 // [ 4 -3 -7  8]
@16 FF7EC01FE // [-2  0 -5 -2]
@17 FC7E813F7 // [-9  9 -6 -8]
@18 FBFDBFFFF // [ -1  -1 -10  -9]
@19 03823EDF3 // [-13 -10   8   7]
@1A 05FF811FD // [-3  8 -2 11]
@1B 007EFF604 // [ 4 -5 -5  0]
@1C 03FF813F0 // [-16   9  -2   7]
@1D FEFE8120E // [14  9 -6 -3]
@1E 017F3E7FA // [ -6 -13  -4   2]
@1F F07B7EBFD // [ -3 -11 -19 -32]
@20 FE78C0000 // [  0   0 -29  -4]
@21 057E415F3 // [-13  10  -7  10]
@22 FFFE01C0D // [13 14 -8 -1]
@23 02FF005F2 // [-14   2  -4   5]
@24 FD81BEE05 // [ 5 -9  6 -5]
@25 FB01411F7 // [ -9   8   5 -10]
@26 F0FD7D5FD // [ -3 -22 -11 -31]
@27 FB7CBE5F4 // [-12 -14 -14 -10]
@28 FDFEC01F7 // [-9  0 -5 -5]
@29 FD7A3DC09 // [  9 -18 -24  -6]
@2A 007EC0C05 // [ 5  6 -5  0]
@2B 0081005F4 // [-12   2   4   1]
@2C FDFE81E10 // [16 15 -6 -5]
@2D F77FBF206 // [  6  -7  -2 -18]
@2E EFF6FC9F3 // [-13 -28 -37 -33]
@2F FDFAFE3E5 // [-27 -15 -21  -5]
@30 0601803E3 // [-29   1   6  12]
@31 008200FF8 // [-8  7  8  1]
@32 05847F3F5 // [-11  -7  17  11]
@33 00044080B // [11  4 17  0]
@34 FEFEC07FE // [-2  3 -5 -3]
@35 F4FEBFBF6 // [-10  -3  -6 -23]
@36 F97D405E8 // [-24   2 -11 -14]
@37 097EFE3F1 // [-15 -15  -5  18]
@38 FCFF7E607 // [  7 -13  -3  -7]
@39 FEFD81BF5 // [-11  13 -10  -3]
@3A 0700BE1FB // [ -5 -16   2  14]
@3B FB007EFFF // [ -1  -9   1 -10]
@3C F2FCFE402 // [  2 -14 -13 -27]
@3D F5F9BE3EC // [-20 -15 -26 -21]
@3E FD7E3FDE9 // [-23  -2  -8  -6]
@3F FA80401F8 // [ -8   0   1 -11]
@40 FC7D7F005 // [  5  -8 -11  -8]
@41 068001BFB // [-5 13  0 13]
@42 FC7DFEFFD // [-3 -9 -9 -8]
@43 FD80BFC03 // [ 3 -2  2 -5]
@44 F379FCA05 // [  5 -27 -25 -26]
@45 09F93D5D6 // [-42 -22 -28  19]
@46 FD823FFFE // [-2 -1  8 -5]
@47 FBFA4120F // [ 15   9 -23  -9]
@48 01827FDF3 // [-13  -2   9   3]
@49 FD77FD207 // [  7 -23 -33  -6]
@4A 028202C08 // [ 8 22  8  5]
@4B EF7AFC3FF // [ -1 -31 -21 -34]
@4C 0300FE5DA // [-38 -14   3   6]
@4D FDFDFFDF0 // [-16  -2  -9  -5]
@4E F3800000C // [ 12   0   0 -25]
@4F 06013FC01 // [ 1 -2  4 12]
@50 F5F4BABEA // [-22 -43 -46 -21]
@51 0B0741A0E // [14 13 29 22]
@52 F77D80E01 // [  1   7 -10 -18]
@53 017FBDDE4 // [-28 -18  -2   2]
@54 027F7FA00 // [ 0 -3 -3  4]
@55 FCFD7F800 // [  0  -4 -11  -7]
@56 0A03C0BF8 // [-8  5 15 20]
@57 FA6F3A7E7 // [-25 -45 -68 -12]
@58 0A070481C // [28 36 28 20]
@59 02FE8160C // [12 11 -6  5]
@5A FA003D9FA // [ -6 -20   0 -12]
@5B 0182C11FB // [-5  8 11  3]
@5C FC00803F7 // [-9  1  2 -8]
@5D 0B8601000 // [ 0  8 24 23]
@5E 0375793E5 // [-27 -55 -43   6]
@5F 0B8601C29 // [41 14 24 23]
@60 FF0502A10 // [16 21 20 -2]
@61 0901BEBFE // [ -2 -11   6  18]
@62 04FF419F7 // [-9 12 -3  9]
@63 098402600 // [ 0 19 16 19]
@64 0A878120C // [12  9 30 21]
@65 FFF5BB5E8 // [-24 -38 -42  -1]
@66 100D8541F // [31 42 54 32]
@67 0A040141A // [26 10 16 20]
@68 FAFF4100A // [ 10   8  -3 -11]
@69 000140000 // [0 0 5 0]
@6A 0D04C0BF1 // [-15   5  19  26]
@6B 0181C101C // [28  8  7  3]
@6C 09743A5E1 // [-31 -46 -48  18]
@6D 148BC8653 // [83 67 47 41]
@6E 087DC2A02 // [ 2 21 -9 16]
@6F 030140600 // [0 3 5 6]
@70 087DBFC02 // [  2  -2 -10  16]
@71 1184FE9EA // [-22 -12  19  35]
@72 F904C221F // [ 31  17  19 -14]
@73 1EFDBA9E7 // [-25 -44 -10  61]
@74 0E0B87049 // [73 56 46 28]
@75 020501C01 // [ 1 14 20  4]
@76 0882BFC16 // [22 -2 10 17]
@77 FC8281603 // [ 3 11 10 -7]
@78 0B05C09F7 // [-9  4 23 22]
@79 FA8301012 // [ 18   8  12 -11]
@7A 2B89803FA // [-6  1 38 87]
@7B 020385E2F // [47 47 14  4]
@7C FA8140008 // [  8   0   5 -11]
@7D FC0240C11 // [17  6  9 -8]
@7E FF00009FC // [-4  4  0 -2]
@7F 0781BFDFE // [-2 -2  6 15]
@80 FE7BFCFE1 // [-31 -25 -17  -4]
@81 0E0B43E0A // [10 31 45 28]
@82 F980C2015 // [ 21  16   3 -13]
@83 04FB3CE07 // [  7 -25 -20   9]
@84 FAFF40401 // [  1   2  -3 -11]
@85 008100800 // [0 4 4 1]
@86 FA7FBE1F9 // [ -7 -16  -2 -12]
@87 FC7ABA7E5 // [-27 -45 -22  -8]
@88 088301410 // [16 10 12 17]
@89 F87C7DFFC // [ -4 -17 -15 -16]
@8A 017F3FBEE // [-18  -3  -4   2]
@8B F87DC0608 // [  8   3  -9 -16]
@8C F6FE80605 // [  5   3  -6 -19]
@8D EE79005F8 // [ -8   2 -28 -36]
@8E FB7EBE9FA // [ -6 -12  -6 -10]
@8F F60140807 // [  7   4   5 -20]
@90 F47BFCBDE // [-34 -27 -17 -24]
@91 FD7DBF804 // [  4  -4 -10  -6]
@92 017E81402 // [ 2 10 -6  2]
@93 FE83C15FD // [-3 10 15 -3]
@94 EFFA7F803 // [  3  -4 -23 -33]
@95 FDFF7DFF2 // [-14 -17  -3  -5]
@96 F878FD5EC // [-20 -22 -29 -16]
@97 E7F7BD3D9 // [-39 -23 -34 -49]
@98 0581C15F6 // [-10  10   7  11]
@99 F7FBBE60B // [ 11 -13 -18 -17]
@9A 030500A0C // [12  5 20  6]
@9B F87ABE7F9 // [ -7 -13 -22 -16]
@9C F87CFCDF7 // [ -9 -26 -13 -16]
@9D F2F4BB1EE // [-18 -40 -46 -27]
@9E F87A389DF // [-33 -60 -24 -16]
@9F 048440BEA // [-22   5  17   9]
@A0 FD83007F8 // [-8  3 12 -5]
@A1 FA01BFDF2 // [-14  -2   6 -12]
@A2 F37F3F9F2 // [-14  -4  -4 -26]
@A3 F67FFF9F4 // [-12  -4  -1 -20]
@A4 F47539DE0 // [-32 -50 -44 -24]
@A5 FC78FDBE2 // [-30 -19 -29  -8]
@A6 098181204 // [ 4  9  6 19]
@A7 FF7FFDFFE // [ -2 -17  -1  -2]
@A8 FCFEC0C03 // [ 3  6 -5 -7]
@A9 FE7D80001 // [  1   0 -10  -4]
@AA F4FBBE202 // [  2 -15 -18 -23]
@AB F1777DDDA // [-38 -18 -35 -30]
@AC F8FC3E3F1 // [-15 -15 -16 -15]
@AD 007F40E0B // [11  7 -3  0]
@AE 017E00605 // [ 5  3 -8  2]
@AF FA7B80A04 // [  4   5 -18 -12]
@B0 0180C31FE // [-2 24  3  3]
@B1 FFFE80806 // [ 6  4 -6 -1]
@B2 028000FEB // [-21   7   0   5]
@B3 01FD80E02 // [  2   7 -10   3]
@B4 FEFE7F601 // [ 1 -5 -7 -3]
@B5 FD7F3BC10 // [ 16 -34  -4  -6]
@B6 0381401FE // [-2  0  5  7]
@B7 01813F405 // [ 5 -6  4  3]
@B8 FF04C1209 // [ 9  9 19 -2]
@B9 FDFFFF204 // [ 4 -7 -1 -5]
@BA 007F41006 // [ 6  8 -3  0]
@BB 00817FFFB // [-5 -1  5  1]
@BC FC81001FF // [-1  0  4 -7]
@BD FCFFFE1F6 // [-10 -16  -1  -7]
@BE 01007F9F8 // [-8 -4  1  2]
@BF 0678FF1FF // [ -1  -8 -29  12]
@C0 FD7DBE7FC // [ -4 -13 -10  -6]
@C1 FCFFC05FC // [-4  2 -1 -7]
@C2 02FCC01F4 // [-12   0 -13   5]
@C3 F87F7E7FB // [ -5 -13  -3 -16]
