@0 FDFD42808 // [  8  20 -11  -5]
@1 0000BE603 // [  3 -13   2   0]
@2 FAFC3D805 // [  5 -20 -16 -11]
@3 FA7E7E401 // [  1 -14  -7 -12]
@4 02013F209 // [ 9 -7  4  4]
@5 FAFF00BFA // [ -6   5  -4 -11]
@6 FE0100800 // [ 0  4  4 -4]
@7 01FEC1600 // [ 0 11 -5  3]
@8 FE82BFA01 // [ 1 -3 10 -3]
@9 FB00001FC // [ -4   0   0 -10]
@A FE007DC02 // [  2 -18   1  -4]
@B 0280FFE00 // [ 0 -1  3  5]
@C F603FF5FA // [ -6  -6  15 -20]
@D FDFE809FE // [-2  4 -6 -5]
@E 060180005 // [ 5  0  6 12]
@F 067BC0801 // [  1   4 -17  12]
@10 F87D81A0A // [ 10  13 -10 -16]
@11 F77F3DBFB // [ -5 -19  -4 -18]
@12 FCFDBEBF7 // [ -9 -11 -10  -7]
@13 F4FDBEBF6 // [-10 -11 -10 -23]
@14 FF00C0DF5 // [-11   6   3  -2]
@15 F97D011FF // [ -1   8 -12 -14]
@16 FD8140C00 // [ 0  6  5 -5]
@17 FF7DFE1F4 // [-12 -16  -9  -2]
@18 FA7B797E9 // [-23 -53 -19 -12]
@19 007B3F5FC // [ -4  -6 -20   0]
@1A FC8400002 // [ 2  0 16 -7]
@1B FF82C1200 // [ 0  9 11 -1]
@1C 07803E1FA // [ -6 -16   0  15]
@1D 0000FE1F4 // [-12 -16   3   0]
@1E FA77FDBFA // [ -6 -19 -33 -12]
@1F FFFC3DDE3 // [-29 -18 -16  -1]
@20 007C001F2 // [-14   0 -16   0]
@21 040300206 // [ 6  1 12  8]
@22 FC7E4060A // [10  3 -7 -8]
@23 FDFC7EC01 // [  1 -10 -15  -5]
@24 017F3F1FD // [-3 -8 -4  2]
@25 007B3D9E9 // [-23 -20 -20   0]
@26 FA7CFF7FC // [ -4  -5 -13 -12]
@27 FB00C1DF6 // [-10  14   3 -10]
@28 0281807F8 // [-8  3  6  5]
@29 0700C13FE // [-2  9  3 14]
@2A 0C8000FFD // [-3  7  0 25]
@2B F97E3EDF5 // [-11 -10  -8 -14]
@2C 0BFFFEA04 // [  4 -11  -1  23]
@2D F9010140D // [ 13  10   4 -14]
@2E 03084280B // [11 20 33  6]
@2F 0E8381820 // [32 12 14 29]
@30 FD7DFF820 // [32 -4 -9 -6]
@31 FC827FFF7 // [-9 -1  9 -7]
@32 F97CFF3F8 // [ -8  -7 -13 -14]
@33 03854180B // [11 12 21  7]
@34 0582FFC14 // [20 -2 11 11]
@35 110983205 // [ 5 25 38 34]
@36 15080281B // [27 20 32 42]
@37 040182821 // [33 20  6  8]
@38 060301E03 // [ 3 15 12 12]
@39 FE003F9FC // [-4 -4  0 -4]
@3A FF81C001C // [28  0  7 -1]
@3B F7FCBE400 // [  0 -14 -14 -17]
@3C 100CC3000 // [ 0 24 51 32]
@3D 1A8942A32 // [50 21 37 53]
@3E 060180623 // [35  3  6 12]
@3F FE81809FD // [-3  4  6 -3]
@40 FE02BFA00 // [ 0 -3 10 -4]
@41 007F41C00 // [ 0 14 -3  0]
@42 F7FE7DC0F // [ 15 -18  -7 -17]
@43 180C84403 // [ 3 34 50 48]
@44 188784C23 // [35 38 30 49]
@45 F67E02826 // [ 38  20  -8 -20]
@46 FF0380A05 // [ 5  5 14 -2]
@47 0201FF007 // [ 7 -8  7  4]
@48 078383A08 // [ 8 29 14 15]
@49 047CC3808 // [  8  28 -13   8]
@4A 0F898442B // [43 34 38 31]
@4B 0B0504E23 // [35 39 20 22]
@4C FD814340F // [15 26  5 -5]
@4D FE7F00807 // [ 7  4 -4 -4]
@4E 0B87805FD // [-3  2 30 23]
@4F 160BC2C18 // [24 22 47 44]
@50 0A06C6C3B // [59 54 27 20]
@51 000343E11 // [17 31 13  0]
@52 00834080D // [13  4 13  1]
@53 010000E0B // [11  7  0  2]
@54 0580C2001 // [ 1 16  3 11]
@55 1A8544A08 // [ 8 37 21 53]
@56 140E8441D // [29 34 58 40]
@57 02848502A // [42 40 18  5]
@58 0E04C2E03 // [ 3 23 19 28]
@59 FDFCC020B // [ 11   1 -13  -5]
@5A 0001C01F3 // [-13   0   7   0]
@5B 05FEFEE0D // [13 -9 -5 11]
@5C 188D85617 // [23 43 54 49]
@5D 0F8783A28 // [40 29 30 31]
@5E FD003F019 // [25 -8  0 -6]
@5F FF89027F3 // [-13  19  36  -1]
@60 F579BEFFD // [ -3  -9 -26 -22]
@61 FA81003DC // [-36   1   4 -11]
@62 007FFF000 // [ 0 -8 -1  0]
@63 110743E0E // [14 31 29 34]
@64 040884626 // [38 35 34  8]
@65 FC767DE00 // [  0 -17 -39  -8]
@66 0707C25FE // [-2 18 31 14]
@67 F67EFFFF0 // [-16  -1  -5 -20]
@68 05FC7EBF4 // [-12 -11 -15  11]
@69 00FE80804 // [ 4  4 -6  1]
@6A 050182E15 // [21 23  6 10]
@6B FAFDFEFFC // [ -4  -9  -9 -11]
@6C FAF4BBDF4 // [-12 -34 -46 -11]
@6D F80341409 // [  9  10  13 -16]
@6E 00FA7E1FE // [ -2 -16 -23   1]
@6F 017DFEBE8 // [-24 -11  -9   2]
@70 0600815F3 // [-13  10   2  12]
@71 FD7F41606 // [ 6 11 -3 -6]
@72 EFFA3BDFB // [ -5 -34 -24 -33]
@73 F4F37B5E5 // [-27 -38 -51 -23]
@74 F6834260A // [ 10  19  13 -19]
@75 F77CBCFFB // [ -5 -25 -14 -18]
@76 FD023DDE7 // [-25 -18   8  -6]
@77 FE81C1008 // [ 8  8  7 -3]
@78 0700003F3 // [-13   1   0  14]
@79 F2F73FBF2 // [-14  -3 -36 -27]
@7A F8797F7E3 // [-29  -5 -27 -16]
@7B 047DC1A07 // [ 7 13 -9  8]
@7C F7FC7DFFD // [ -3 -17 -15 -17]
@7D 04847E5F1 // [-15 -14  17   9]
@7E FE0641404 // [ 4 10 25 -4]
@7F 0700C0403 // [ 3  2  3 14]
@80 F7F8BFE0A // [ 10  -1 -30 -17]
@81 007F3F3D8 // [-40  -7  -4   0]
@82 FB7AFDFF4 // [-12 -17 -21 -10]
@83 F1FDBF5FE // [ -2  -6 -10 -29]
@84 01FE7DDFA // [ -6 -18  -7   3]
@85 FC803FC03 // [ 3 -2  0 -7]
@86 F900017EE // [-18  11   0 -14]
@87 F9793DFF5 // [-11 -17 -28 -14]
@88 F7FC7E1E7 // [-25 -16 -15 -17]
@89 FDFDBEDD8 // [-40 -10 -10  -5]
@8A F0FBBEC08 // [  8 -10 -18 -31]
@8B 00047E1FB // [ -5 -16  17   0]
@8C 05003F5EE // [-18  -6   0  10]
@8D F97EBF9E8 // [-24  -4  -6 -14]
@8E F3777F3EB // [-21  -7 -35 -26]
@8F F4FAFDDE3 // [-29 -18 -21 -23]
@90 F8773EBDB // [-37 -11 -36 -16]
@91 E97D3FDF8 // [ -8  -2 -12 -46]
@92 0001BE3FD // [ -3 -15   6   0]
@93 F77CC13FA // [ -6   9 -13 -18]
@94 0480FF7EA // [-22  -5   3   9]
@95 F47C7F5E3 // [-29  -6 -15 -24]
@96 F6F83CFF6 // [-10 -25 -32 -19]
@97 F87B3D9EA // [-22 -20 -20 -16]
@98 F901BF5F5 // [-11  -6   6 -14]
@99 06827EDFC // [ -4 -10   9  13]
@9A FB0000E00 // [  0   7   0 -10]
@9B F9FD7B3F3 // [-13 -39 -11 -13]
@9C 017EBDFFC // [ -4 -17  -6   2]
@9D 0705C3814 // [20 28 23 14]
@9E FA7C80600 // [  0   3 -14 -12]
@9F FDFF7E800 // [  0 -12  -3  -5]
@A0 FDFDC01FE // [-2  0 -9 -5]
@A1 037D807F0 // [-16   3 -10   6]
@A2 037BC0804 // [  4   4 -17   6]
@A3 128101418 // [24 10  4 37]
@A4 0706C4C23 // [35 38 27 14]
@A5 03FE0160F // [15 11 -8  7]
@A6 0280C0A02 // [2 5 3 5]
@A7 FD7E409FB // [-5  4 -7 -6]
@A8 07837F9F8 // [-8 -4 13 15]
@A9 06847FDFC // [-4 -2 17 13]
@AA 048404611 // [17 35 16  9]
@AB 0A0284E0F // [15 39 10 20]
@AC 0A844221B // [27 17 17 21]
@AD 0604C160A // [10 11 19 12]
@AE FD7FBF405 // [ 5 -6 -2 -6]
@AF 06FF009FC // [-4  4 -4 13]
@B0 0902417F4 // [-12  11   9  18]
@B1 030600C02 // [ 2  6 24  6]
@B2 1305C3A19 // [25 29 23 38]
@B3 0C0283A04 // [ 4 29 10 24]
@B4 FB03C0400 // [  0   2  15 -10]
@B5 0181BF7FE // [-2 -5  6  3]
@B6 03003EFFD // [-3 -9  0  6]
@B7 FF00803FB // [-5  1  2 -2]
@B8 0080C0C03 // [3 6 3 1]
@B9 000302C04 // [ 4 22 12  0]
@BA 018140C12 // [18  6  5  3]
@BB 0800C15E9 // [-23  10   3  16]
@BC FA0000411 // [ 17   2   0 -12]
@BD 027DBF806 // [  6  -4 -10   4]
@BE 067FBF808 // [ 8 -4 -2 12]
@BF F9FFFF1F5 // [-11  -8  -1 -13]
@C0 01FE80003 // [ 3  0 -6  3]
@C1 F87FFE400 // [  0 -14  -1 -16]
@C2 FD023D3FE // [ -2 -23   8  -6]
@C3 FFFE40FFC // [-4  7 -7 -1]
