@0 020041210 // [16  9  1  4]
@1 FE023FFFB // [-5 -1  8 -4]
@2 047F80FF2 // [-14   7  -2   8]
@3 FF0100C00 // [ 0  6  4 -2]
@4 FD7B00602 // [  2   3 -20  -6]
@5 FDFDC0FFB // [-5  7 -9 -5]
@6 037A40801 // [  1   4 -23   6]
@7 03FFBFFFB // [-5 -1 -2  7]
@8 077F00C01 // [ 1  6 -4 14]
@9 01FFC2000 // [ 0 16 -1  3]
@A FFFE7F3FF // [-1 -7 -7 -1]
@B FB80C03FE // [-2  1  3 -9]
@C FEFCFF9F7 // [ -9  -4 -13  -3]
@D FEFF00207 // [ 7  1 -4 -3]
@E 038101DEC // [-20  14   4   7]
@F 000300003 // [ 3  0 12  0]
@10 007B00002 // [  2   0 -20   0]
@11 0504C0E0E // [14  7 19 10]
@12 FC8380DFD // [-3  6 14 -7]
@13 0001C1016 // [22  8  7  0]
@14 017F7D612 // [ 18 -21  -3   2]
@15 027AFE40B // [ 11 -14 -21   4]
@16 01FA00402 // [  2   2 -24   3]
@17 0802C0E00 // [ 0  7 11 16]
@18 030241602 // [ 2 11  9  6]
@19 068001405 // [ 5 10  0 13]
@1A FD7CBF5F6 // [-10  -6 -14  -6]
@1B F4FEFFC0E // [ 14  -2  -5 -23]
@1C 02857E1F8 // [ -8 -16  21   5]
@1D 0502801F2 // [-14   0  10  10]
@1E 0C050300B // [11 24 20 24]
@1F F881C041C // [ 28   2   7 -15]
@20 F6FDC01F7 // [ -9   0  -9 -19]
@21 FF7DBDBF8 // [ -8 -19 -10  -2]
@22 FBFDFE000 // [  0 -16  -9  -9]
@23 FB0000BEE // [-18   5   0 -10]
@24 FE0140BFD // [-3  5  5 -4]
@25 080AC2412 // [18 18 43 16]
@26 0202C320A // [10 25 11  4]
@27 0482FF3FC // [-4 -7 11  9]
@28 FFFCFEA02 // [  2 -11 -13  -1]
@29 FCFE40DF4 // [-12   6  -7  -7]
@2A FFFD7F3EE // [-18  -7 -11  -1]
@2B 0883C0211 // [17  1 15 17]
@2C 078502806 // [ 6 20 20 15]
@2D 00003E010 // [ 16 -16   0   0]
@2E FCFCBF611 // [ 17  -5 -14  -7]
@2F F0FE005E7 // [-25   2  -8 -31]
@30 03FBFE3E6 // [-26 -15 -17   7]
@31 007EC1208 // [ 8  9 -5  0]
@32 0D83C15F8 // [-8 10 15 27]
@33 020744806 // [ 6 36 29  4]
@34 FEFE3E407 // [  7 -14  -8  -3]
@35 FBFCBDBEA // [-22 -19 -14  -9]
@36 EBFDFEBF1 // [-15 -11  -9 -41]
@37 047FFE9E6 // [-26 -12  -1   8]
@38 03003FFF0 // [-16  -1   0   6]
@39 0A03C120B // [11  9 15 20]
@3A 08024201F // [31 16  9 16]
@3B 0682C1809 // [ 9 12 11 13]
@3C 01807EC03 // [  3 -10   1   3]
@3D ED7B3D5F9 // [ -7 -22 -20 -38]
@3E 0B033D3E3 // [-29 -23  12  22]
@3F 03FDFFC0A // [10 -2 -9  7]
@40 0B854240C // [12 18 21 23]
@41 0A0181E1E // [30 15  6 20]
@42 0D8282007 // [ 7 16 10 27]
@43 0500C000B // [11  0  3 10]
@44 E47D7F9F5 // [-11  -4 -11 -56]
@45 0100BCBD1 // [-47 -27   2   2]
@46 00047FC01 // [ 1 -2 17  0]
@47 0D8603615 // [21 27 24 27]
@48 FD7E41E16 // [22 15 -7 -6]
@49 F67C005FC // [ -4   2 -16 -20]
@4A 0A04BFE07 // [ 7 -1 18 20]
@4B F17E42600 // [  0  19  -7 -30]
@4C 00033DFE5 // [-27 -17  12   0]
@4D 087E80A0D // [13  5 -6 16]
@4E 070741C15 // [21 14 29 14]
@4F FF8342222 // [34 17 13 -1]
@50 F5F3F9DF7 // [ -9 -50 -49 -21]
@51 087E3EBEA // [-22 -11  -8  16]
@52 0E0645826 // [38 44 25 28]
@53 0200BDA00 // [  0 -19   2   4]
@54 0B01C1406 // [ 6 10  7 22]
@55 0F0102A00 // [ 0 21  4 30]
@56 F101C2601 // [  1  19   7 -30]
@57 ED73B91DC // [-36 -56 -50 -38]
@58 15023F1F7 // [-9 -8  8 42]
@59 010946632 // [50 51 37  2]
@5A FB8141DF4 // [-12  14   5  -9]
@5B 02007F9FA // [-6 -4  1  4]
@5C 1608C05FE // [-2  2 35 44]
@5D FC0001A03 // [ 3 13  0 -8]
@5E F5F87BBDD // [-35 -35 -31 -21]
@5F 0901FCDEC // [-20 -26   7  18]
@60 0F0C43431 // [49 26 49 30]
@61 FD0340E07 // [ 7  7 13 -6]
@62 FF8300C02 // [ 2  6 12 -1]
@63 130402E0A // [10 23 16 38]
@64 FE7B40E26 // [ 38   7 -19  -4]
@65 FA803C3E9 // [-23 -31   0 -11]
@66 1283C2C04 // [ 4 22 15 37]
@67 068844021 // [33 32 33 13]
@68 FCFD0121A // [ 26   9 -12  -7]
@69 04FFFFBFA // [-6 -3 -1  9]
@6A 1209C2200 // [ 0 17 39 36]
@6B FC8082C37 // [55 22  2 -7]
@6C 0003BF9EC // [-20  -4  14   0]
@6D 0CFFC1615 // [21 11 -1 25]
@6E 04858240B // [11 18 22  9]
@6F 02FD0081E // [ 30   4 -12   5]
@70 FF803FC08 // [ 8 -2  0 -1]
@71 1507C3802 // [ 2 28 31 42]
@72 100E86024 // [36 48 58 32]
@73 0C848281C // [28 20 18 25]
@74 050300012 // [18  0 12 10]
@75 0C84FE80B // [ 11 -12  19  25]
@76 0401C3806 // [ 6 28  7  8]
@77 FD0000601 // [ 1  3  0 -6]
@78 0301C0A01 // [1 5 7 6]
@79 1A9186E2A // [42 55 70 53]
@7A 04868463A // [58 35 26  9]
@7B FF83BFFF8 // [-8 -1 14 -1]
@7C 0A048220D // [13 17 18 20]
@7D FC0002E15 // [21 23  0 -8]
@7E FC017F803 // [ 3 -4  5 -8]
@7F F3F4FEDFB // [ -5 -10 -45 -25]
@80 168E05000 // [ 0 40 56 45]
@81 FC7F0302F // [47 24 -4 -8]
@82 05FDBF3F4 // [-12  -7 -10  11]
@83 0C8BC1DFD // [-3 14 47 25]
@84 FF0381E14 // [20 15 14 -2]
@85 FF7E7FDFE // [-2 -2 -7 -2]
@86 F0767D60A // [ 10 -21 -39 -32]
@87 02003F9E7 // [-25  -4   0   4]
@88 F7FFC0413 // [ 19   2  -1 -17]
@89 0182413FD // [-3  9  9  3]
@8A 028A41E16 // [22 15 41  5]
@8B 010001416 // [22 10  0  2]
@8C FCFF3F3FD // [-3 -7 -4 -7]
@8D EB79FD9F7 // [ -9 -20 -25 -42]
@8E FB7E3DBE0 // [-32 -19  -8 -10]
@8F 018140206 // [6 1 5 3]
@90 0D02C1A03 // [ 3 13 11 26]
@91 097E84404 // [ 4 34 -6 18]
@92 00830061D // [29  3 12  1]
@93 FE0240008 // [ 8  0  9 -4]
@94 F5FB3DFFB // [ -5 -17 -20 -21]
@95 087BFFDFA // [ -6  -2 -17  16]
@96 FD8540006 // [ 6  0 21 -5]
@97 1388C2E16 // [22 23 35 39]
@98 0A850260E // [14 19 20 21]
@99 08FF3FC05 // [ 5 -2 -4 17]
@9A FF01831F9 // [-7 24  6 -2]
@9B FDFDC0C03 // [ 3  6 -9 -5]
@9C FBFEBE401 // [  1 -14  -6  -9]
@9D 120202201 // [ 1 17  8 36]
@9E 0E084281C // [28 20 33 28]
@9F 0480C3404 // [ 4 26  3  9]
@A0 FF82C2204 // [ 4 17 11 -1]
@A1 F77D41014 // [ 20   8 -11 -18]
@A2 0000BF3FE // [-2 -7  2  0]
@A3 F87AFEDEE // [-18 -10 -21 -16]
@A4 078500607 // [ 7  3 20 15]
@A5 0485405FF // [-1  2 21  9]
@A6 000300008 // [ 8  0 12  0]
@A7 007F7FC0E // [14 -2 -3  0]
@A8 FF7D7FBF0 // [-16  -3 -11  -2]
@A9 FE7E411F3 // [-13   8  -7  -4]
@AA F17B7DDF4 // [-12 -18 -19 -30]
@AB 0481BF9F2 // [-14  -4   6   9]
@AC 007E81FF8 // [-8 15 -6  0]
@AD 0904FE9EC // [-20 -12  19  18]
@AE FC0300404 // [ 4  2 12 -8]
@AF 047D7FFFD // [ -3  -1 -11   8]
@B0 FB00805FC // [ -4   2   2 -10]
@B1 F4FCC07FE // [ -2   3 -13 -23]
@B2 0A803E60C // [ 12 -13   0  21]
@B3 000000809 // [9 4 0 0]
@B4 047E7F606 // [ 6 -5 -7  8]
@B5 0100407FE // [-2  3  1  2]
@B6 FB817E9F9 // [ -7 -12   5  -9]
@B7 04FF40E06 // [ 6  7 -3  9]
@B8 040400FF5 // [-11   7  16   8]
@B9 0902FFBFE // [-2 -3 11 18]
@BA FD80FF20A // [10 -7  3 -5]
@BB 00FABF600 // [  0  -5 -22   1]
@BC FB00BDE01 // [  1 -17   2 -10]
@BD 007F7DE05 // [  5 -17  -3   0]
@BE 04FF7EC05 // [  5 -10  -3   9]
@BF 000142010 // [16 16  5  0]
@C0 09800000C // [12  0  0 19]
@C1 018081402 // [ 2 10  2  3]
@C2 FF8300602 // [ 2  3 12 -1]
@C3 FB843EE03 // [ 3 -9 16 -9]
