@0 FD7FFDDFE // [ -2 -18  -1  -6]
@1 01013F401 // [ 1 -6  4  2]
@2 048280000 // [ 0  0 10  9]
@3 FEFFBF204 // [ 4 -7 -2 -3]
@4 00813F5FF // [-1 -6  4  1]
@5 0101C09FE // [-2  4  7  2]
@6 FFFFBF20C // [12 -7 -2 -1]
@7 057F3F5FF // [-1 -6 -4 10]
@8 02FFC2A02 // [ 2 21 -1  5]
@9 06FC3FE0A // [ 10  -1 -16  13]
@A FCFEC0214 // [20  1 -5 -7]
@B 03023D60D // [ 13 -21   8   6]
@C FEFF00004 // [ 4  0 -4 -3]
@D FE8081008 // [ 8  8  2 -3]
@E FBFEC07FE // [-2  3 -5 -9]
@F 0102BEDFD // [ -3 -10  10   2]
@10 FEFDBFA05 // [  5  -3 -10  -3]
@11 020000A00 // [0 5 0 4]
@12 F7FDBF401 // [  1  -6 -10 -17]
@13 027FFEA0B // [ 11 -11  -1   4]
@14 047E3F9F8 // [-8 -4 -8  8]
@15 08817EC00 // [  0 -10   5  17]
@16 027FBFDEE // [-18  -2  -2   4]
@17 0A82C0008 // [ 8  0 11 21]
@18 FB80C2604 // [ 4 19  3 -9]
@19 F7FCC01FB // [ -5   0 -13 -17]
@1A 007C405E4 // [-28   2 -15   0]
@1B 040002409 // [ 9 18  0  8]
@1C 02020080A // [10  4  8  4]
@1D FE83BE604 // [  4 -13  14  -3]
@1E 0D88C220B // [11 17 35 27]
@1F 098604421 // [33 34 24 19]
@20 F77D80E13 // [ 19   7 -10 -18]
@21 F7FDBCBE1 // [-31 -27 -10 -17]
@22 037E7FE03 // [ 3 -1 -7  6]
@23 FD83815F5 // [-11  10  14  -5]
@24 00033FDEB // [-21  -2  12   0]
@25 168641412 // [18 10 25 45]
@26 1404C3412 // [18 26 19 40]
@27 068144A2A // [42 37  5 13]
@28 F77CFDDFF // [ -1 -18 -13 -18]
@29 00FC00DF2 // [-14   6 -16   1]
@2A 03FF021FA // [-6 16 -4  7]
@2B 088202001 // [ 1 16  8 17]
@2C 160C83A1E // [30 29 50 44]
@2D 0A8741C1A // [26 14 29 21]
@2E 037F83E19 // [25 31 -2  6]
@2F F97D00FF6 // [-10   7 -12 -14]
@30 FA80C13FE // [ -2   9   3 -11]
@31 0201805E9 // [-23   2   6   4]
@32 140741603 // [ 3 11 29 40]
@33 140D86044 // [68 48 54 40]
@34 FFFA3E60A // [ 10 -13 -24  -1]
@35 0C7E801FA // [-6  0 -6 24]
@36 008300FFB // [-5  7 12  1]
@37 00FE3FC14 // [20 -2 -8  1]
@38 FF7D80C04 // [  4   6 -10  -2]
@39 1989C3E0E // [14 31 39 51]
@3A 0A1007034 // [52 56 64 20]
@3B FCFF3F016 // [22 -8 -4 -7]
@3C 0C0642009 // [ 9 16 25 24]
@3D 0C8845420 // [32 42 33 25]
@3E FD8281222 // [34  9 10 -5]
@3F 090600809 // [ 9  4 24 18]
@40 158641C1A // [26 14 25 43]
@41 0A8404E19 // [25 39 16 21]
@42 F87F41009 // [  9   8  -3 -16]
@43 100505017 // [23 40 20 32]
@44 170E85E29 // [41 47 58 46]
@45 FA8143E20 // [ 32  31   5 -11]
@46 0401C2608 // [ 8 19  7  8]
@47 0D04C4809 // [ 9 36 19 26]
@48 FF800100C // [12  8  0 -1]
@49 0501029F8 // [-8 20  4 10]
@4A 0E074581D // [29 44 29 28]
@4B 111004A33 // [51 37 64 34]
@4C FD84C2837 // [55 20 19 -5]
@4D 0804001F2 // [-14   0  16  16]
@4E FB0280C0F // [ 15   6  10 -10]
@4F FA7CBD40F // [ 15 -22 -14 -12]
@50 F6F981005 // [  5   8 -26 -19]
@51 0700007F4 // [-12   3   0  14]
@52 0E04C3018 // [24 24 19 28]
@53 F97E81804 // [  4  12  -6 -14]
@54 018081207 // [7 9 2 3]
@55 FB7D00C00 // [  0   6 -12 -10]
@56 FE7CFCFE2 // [-30 -25 -13  -4]
@57 EBF27DA13 // [ 19 -19 -55 -41]
@58 F77CBEFE4 // [-28  -9 -14 -18]
@59 0403BEA07 // [  7 -11  14   8]
@5A 03028100A // [10  8 10  6]
@5B FE01FDBF4 // [-12 -19   7  -4]
@5C EEF3BE5FE // [ -2 -14 -50 -35]
@5D FAF8FD1D9 // [-39 -24 -29 -11]
@5E E3733D1EB // [-21 -24 -52 -58]
@5F EAFC7E1E9 // [-23 -16 -15 -43]
@60 FF7F3EC00 // [  0 -10  -4  -2]
@61 030300E06 // [ 6  7 12  6]
@62 FE0001200 // [ 0  9  0 -4]
@63 EE75FCFF0 // [-16 -25 -41 -36]
@64 F8FBFC3D6 // [-42 -31 -17 -15]
@65 E77AFCFE5 // [-27 -25 -21 -50]
@66 F3F93E7D8 // [-40 -13 -28 -25]
@67 007A3C9F9 // [ -7 -28 -24   0]
@68 FE80BEC04 // [  4 -10   2  -3]
@69 FC03809F7 // [-9  4 14 -8]
@6A DF7E4000E // [ 14   0  -7 -66]
@6B F2FAF97CA // [-54 -53 -21 -27]
@6C EBFB3CDF4 // [-12 -26 -20 -41]
@6D 007FFFFE7 // [-25  -1  -1   0]
@6E 04FC81801 // [  1  12 -14   9]
@6F 00FD01600 // [  0  11 -12   1]
@70 09FEBF603 // [ 3 -5 -6 19]
@71 EEFE84407 // [  7  34  -6 -35]
@72 FA79FB5C2 // [-62 -38 -25 -12]
@73 F471FB3F6 // [-10 -39 -57 -24]
@74 048641BFD // [-3 13 25  9]
@75 048301804 // [ 4 12 12  9]
@76 01814160F // [15 11  5  3]
@77 05FBC01FD // [ -3   0 -17  11]
@78 F30503E08 // [  8  31  20 -26]
@79 E1727B3DC // [-36 -39 -55 -62]
@7A F274BC7E0 // [-32 -29 -46 -28]
@7B 088341E02 // [ 2 15 13 17]
@7C 0F8701606 // [ 6 11 28 31]
@7D FF0041E0C // [12 15  1 -2]
@7E 03013FC01 // [ 1 -2  4  6]
@7F 020B03C1B // [27 30 44  4]
@80 F4FE3EA03 // [  3 -11  -8 -23]
@81 FFF87C3F2 // [-14 -31 -31  -1]
@82 FB870281E // [30 20 28 -9]
@83 0D06C121F // [31  9 27 26]
@84 FF0581417 // [23 10 22 -2]
@85 038081604 // [ 4 11  2  7]
@86 1A8A85E14 // [20 47 42 53]
@87 060103423 // [35 26  4 12]
@88 070180A03 // [ 3  5  6 14]
@89 018440E19 // [25  7 17  3]
@8A 158782C08 // [ 8 22 30 43]
@8B 007C03E0B // [ 11  31 -16   0]
@8C 0800BFE0D // [13 -1  2 16]
@8D 198DC4016 // [22 32 55 51]
@8E 078A84431 // [49 34 42 15]
@8F FF81C1206 // [ 6  9  7 -1]
@90 047FBE3F1 // [-15 -15  -2   8]
@91 0788C4008 // [ 8 32 35 15]
@92 FEFF8160A // [10 11 -2 -3]
@93 097FFF401 // [ 1 -6 -1 18]
@94 128B0381B // [27 28 44 37]
@95 00834242A // [42 18 13  1]
@96 068341A16 // [22 13 13 13]
@97 048002012 // [18 16  0  9]
@98 040141C12 // [18 14  5  8]
@99 FD7C7F202 // [  2  -7 -15  -6]
@9A 03FDFF205 // [ 5 -7 -9  7]
@9B 118200E01 // [ 1  7  8 35]
@9C 1185C381B // [27 28 23 35]
@9D 098605C2F // [47 46 24 19]
@9E 050280A16 // [22  5 10 10]
@9F 0980C0DFD // [-3  6  3 19]
@A0 FB81801F4 // [-12   0   6  -9]
@A1 000040616 // [22  3  1  0]
@A2 09FE7EBFB // [ -5 -11  -7  19]
@A3 208642404 // [ 4 18 25 65]
@A4 100CC8E21 // [33 71 51 32]
@A5 FC0042017 // [23 16  1 -8]
@A6 FD807FE07 // [ 7 -1  1 -5]
@A7 09017E208 // [  8 -15   5  18]
@A8 0280BF5FB // [-5 -6  2  5]
@A9 04003F3FD // [-3 -7  0  8]
@AA 150581600 // [ 0 11 22 42]
@AB 168C45628 // [40 43 49 45]
@AC FDFDC3613 // [19 27 -9 -5]
@AD 007EBE3EC // [-20 -15  -6   0]
@AE FB7D00C07 // [  7   6 -12 -10]
@AF 01037E9FB // [ -5 -12  13   2]
@B0 FDFF00DFD // [-3  6 -4 -5]
@B1 060002204 // [ 4 17  0 12]
@B2 0DFFC2A13 // [19 21 -1 27]
@B3 F9FC82208 // [  8  17 -14 -13]
@B4 0BFD7DFFD // [ -3 -17 -11  23]
@B5 02038020D // [13  1 14  4]
@B6 04037F5F7 // [-9 -6 13  8]
@B7 007F7E5F9 // [ -7 -14  -3   0]
@B8 FBFF02603 // [ 3 19 -4 -9]
@B9 0000405FD // [-3  2  1  0]
@BA 05FF83600 // [ 0 27 -2 11]
@BB FE00801F7 // [-9  0  2 -4]
@BC FE82FE9F1 // [-15 -12  11  -3]
@BD FF817EBFD // [ -3 -11   5  -1]
@BE 02033F401 // [ 1 -6 12  4]
@BF F3043EC05 // [  5 -10  16 -26]
@C0 0DFCC080E // [ 14   4 -13  27]
@C1 02FFBF20E // [14 -7 -2  5]
@C2 F700821FD // [ -3  16   2 -18]
@C3 047DFFFF8 // [-8 -1 -9  8]
