@0 097FC17FB // [-5 11 -1 18]
@1 03053FC02 // [ 2 -2 20  6]
@2 FD027EC01 // [  1 -10   9  -6]
@3 FA8240600 // [  0   3   9 -11]
@4 FEFFFF3F3 // [-13  -7  -1  -3]
@5 FFFD7EDFD // [ -3 -10 -11  -1]
@6 F7003F20A // [ 10  -7   0 -18]
@7 057F7F5FF // [-1 -6 -3 10]
@8 00010200F // [15 16  4  0]
@9 FE007F1FD // [-3 -8  1 -4]
@A 00813F3FE // [-2 -7  4  1]
@B 008300BFB // [-5  5 12  1]
@C 0080BFDF9 // [-7 -2  2  1]
@D FF7FC0805 // [ 5  4 -1 -2]
@E 03043F602 // [ 2 -5 16  6]
@F 06023FE08 // [ 8 -1  8 12]
@10 FC7DBF201 // [  1  -7 -10  -8]
@11 FB803F00D // [13 -8  0 -9]
@12 048382606 // [ 6 19 14  9]
@13 0A0000609 // [ 9  3  0 20]
@14 017EBEC13 // [ 19 -10  -6   2]
@15 03003FBF4 // [-12  -3   0   6]
@16 FFFF81005 // [ 5  8 -2 -1]
@17 FD013FE0C // [12 -1  4 -6]
@18 04000000C // [12  0  0  8]
@19 060640C02 // [ 2  6 25 12]
@1A 028082007 // [ 7 16  2  5]
@1B 007E409F6 // [-10   4  -7   0]
@1C 047AFE9F5 // [-11 -12 -21   8]
@1D FC787F9FB // [ -5  -4 -31  -8]
@1E F784401F7 // [ -9   0  17 -17]
@1F 0800FF3FB // [-5 -7  3 16]
@20 0003C280F // [15 20 15  0]
@21 038681611 // [17 11 26  7]
@22 02FABE60A // [ 10 -13 -22   5]
@23 FDFEFFBF2 // [-14  -3  -5  -5]
@24 FDFEBF9F2 // [-14  -4  -6  -5]
@25 008000C12 // [18  6  0  1]
@26 05FEFD9EC // [-20 -20  -5  11]
@27 0F8541A0C // [12 13 21 31]
@28 0A8640E01 // [ 1  7 25 21]
@29 030200A0F // [15  5  8  6]
@2A FB7FFF604 // [  4  -5  -1 -10]
@2B FDFF813FF // [-1  9 -2 -5]
@2C F87B7F1FF // [ -1  -8 -19 -16]
@2D F0F8FB5F0 // [-16 -38 -29 -31]
@2E 027DC13F3 // [-13   9  -9   4]
@2F 0C88C3211 // [17 25 35 25]
@30 FF827F9FF // [-1 -4  9 -1]
@31 007F001FF // [-1  0 -4  0]
@32 02FF801FF // [-1  0 -2  5]
@33 F77A7DBFF // [ -1 -19 -23 -18]
@34 E375BB7E4 // [-28 -37 -42 -58]
@35 04FFFE5E7 // [-25 -14  -1   9]
@36 1382417FD // [-3 11  9 39]
@37 02FE41428 // [40 10 -7  5]
@38 FCFEC0E01 // [ 1  7 -5 -7]
@39 FF7CBF3EE // [-18  -7 -14  -2]
@3A F8F9FF3E7 // [-25  -7 -25 -15]
@3B E674BABDE // [-34 -43 -46 -52]
@3C 037CFEDE5 // [-27 -10 -13   6]
@3D 0781FF810 // [16 -4  7 15]
@3E FD0100811 // [17  4  4 -6]
@3F 0282807F0 // [-16   3  10   5]
@40 02FDFF5F5 // [-11  -6  -9   5]
@41 F6F77F9F0 // [-16  -4 -35 -19]
@42 E3F77DBF5 // [-11 -19 -35 -57]
@43 06FFFF5F9 // [-7 -6 -1 13]
@44 0F8502FFA // [-6 23 20 31]
@45 FB7DC0A29 // [ 41   5  -9 -10]
@46 F97EC060C // [ 12   3  -5 -14]
@47 FAFC3DDF9 // [ -7 -18 -16 -11]
@48 F87CC01FA // [ -6   0 -13 -16]
@49 FB7E02A00 // [  0  21  -8 -10]
@4A F77FFFBFC // [ -4  -3  -1 -18]
@4B 007BFC9EA // [-22 -28 -17   0]
@4C 07FEC1A0C // [12 13 -5 15]
@4D FB0300601 // [  1   3  12 -10]
@4E FA01FD601 // [  1 -21   7 -12]
@4F 0E027F60A // [10 -5  9 28]
@50 00FF03C21 // [33 30 -4  1]
@51 F57EFF400 // [  0  -6  -5 -22]
@52 05FFBE1E5 // [-27 -16  -2  11]
@53 038140C03 // [3 6 5 7]
@54 018300800 // [ 0  4 12  3]
@55 0A853E1F0 // [-16 -16  20  21]
@56 1C054440F // [15 34 21 56]
@57 F97F45C37 // [ 55  46  -3 -14]
@58 F17C3DC06 // [  6 -18 -16 -30]
@59 057FBD5DD // [-35 -22  -2  10]
@5A FAFFC040E // [ 14   2  -1 -11]
@5B FBFF819F8 // [-8 12 -2 -9]
@5C 0F09C0FF1 // [-15   7  39  30]
@5D 1C0DC5C25 // [37 46 55 56]
@5E FAF7C1435 // [ 53  10 -33 -11]
@5F F9FFFF3F8 // [ -8  -7  -1 -13]
@60 0F057C9F1 // [-15 -28  21  30]
@61 00FF01208 // [ 8  9 -4  1]
@62 FDFF7DE08 // [  8 -17  -3  -5]
@63 0F8541DFC // [-4 14 21 31]
@64 1E1005230 // [48 41 64 60]
@65 F67700219 // [ 25   1 -36 -20]
@66 FC013F9EC // [-20  -4   4  -8]
@67 0B8681A12 // [18 13 26 23]
@68 03FF7FE09 // [ 9 -1 -3  7]
@69 01FE00603 // [ 3  3 -8  3]
@6A 0C85023F5 // [-11  17  20  25]
@6B 0A0A85E2A // [42 47 42 20]
@6C FBFF3E7FF // [ -1 -13  -4  -9]
@6D 0680BE3F5 // [-11 -15   2  13]
@6E 0F08C2616 // [22 19 35 30]
@6F FF81BEE01 // [ 1 -9  6 -1]
@70 01FD413F7 // [ -9   9 -11   3]
@71 1006407F6 // [-10   3  25  32]
@72 FF02C2210 // [16 17 11 -2]
@73 007BFDBEC // [-20 -19 -17   0]
@74 0901FD9E5 // [-27 -20   7  18]
@75 0805C4815 // [21 36 23 16]
@76 01FE3EDF1 // [-15 -10  -8   3]
@77 04FF409FF // [-1  4 -3  9]
@78 0606C39F8 // [-8 28 27 12]
@79 F70080406 // [  6   2   2 -18]
@7A F77DBBBF4 // [-12 -35 -10 -18]
@7B 0C0200BEF // [-17   5   8  24]
@7C 0489C061B // [27  3 39  9]
@7D 057D02202 // [  2  17 -12  10]
@7E 017FC1804 // [ 4 12 -1  2]
@7F 0604017FC // [-4 11 16 12]
@80 FEFFBFE0C // [12 -1 -2 -3]
@81 FFFAFE1F4 // [-12 -16 -21  -1]
@82 07800060C // [12  3  0 15]
@83 FB8481616 // [22 11 18 -9]
@84 FAFC7EA00 // [  0 -11 -15 -11]
@85 00FE80000 // [ 0  0 -6  1]
@86 038280BF3 // [-13   5  10   7]
@87 0C8681411 // [17 10 26 25]
@88 0081BFA15 // [21 -3  6  1]
@89 070101E0E // [14 15  4 14]
@8A FF81C000C // [12  0  7 -1]
@8B 01FC801F0 // [-16   0 -14   3]
@8C 047F80A08 // [ 8  5 -2  8]
@8D 087F01600 // [ 0 11 -4 16]
@8E 12074240D // [13 18 29 36]
@8F 0D8101818 // [24 12  4 27]
@90 010241C0E // [14 14  9  2]
@91 028140C03 // [3 6 5 5]
@92 04827E7E5 // [-27 -13   9   9]
@93 FF0040608 // [ 8  3  1 -2]
@94 06FB7F604 // [  4  -5 -19  13]
@95 0F0502BFD // [-3 21 20 30]
@96 0D05C1A16 // [22 13 23 26]
@97 FA0500218 // [ 24   1  20 -12]
@98 FA807E205 // [  5 -15   1 -11]
@99 FDFFBFBF7 // [-9 -3 -2 -5]
@9A FB7FFD601 // [  1 -21  -1 -10]
@9B F5FE7EBF8 // [ -8 -11  -7 -21]
@9C 05FF805F8 // [-8  2 -2 11]
@9D 0480C360B // [11 27  3  9]
@9E FE0241A13 // [19 13  9 -4]
@9F 00FD009FB // [ -5   4 -12   1]
@A0 0303BFDFC // [-4 -2 14  6]
@A1 0382BFBF0 // [-16  -3  10   7]
@A2 FA7BFE7FD // [ -3 -13 -17 -12]
@A3 090240000 // [ 0  0  9 18]
@A4 F8FDFEE03 // [  3  -9  -9 -15]
@A5 038080208 // [8 1 2 7]
@A6 01007F60A // [10 -5  1  2]
@A7 047EBFA02 // [ 2 -3 -6  8]
@A8 FC003F7FA // [-6 -5  0 -8]
@A9 007900E13 // [ 19   7 -28   0]
@AA 06FA807F8 // [ -8   3 -22  13]
@AB 0003C13FB // [-5  9 15  0]
@AC 037E7FBF1 // [-15  -3  -7   6]
@AD F900001FB // [ -5   0   0 -14]
@AE 007E7FE08 // [ 8 -1 -7  0]
@AF 06FFBEBFE // [ -2 -11  -2  13]
@B0 FA7E7F7FF // [ -1  -5  -7 -12]
@B1 F4FFC15FF // [ -1  10  -1 -23]
@B2 FD7B805F2 // [-14   2 -18  -6]
@B3 F5FBBE1F9 // [ -7 -16 -18 -21]
@B4 007C403FE // [ -2   1 -15   0]
@B5 FE7EBF5FC // [-4 -6 -6 -4]
@B6 FC82FF3FF // [-1 -7 11 -7]
@B7 0180417F6 // [-10  11   1   3]
@B8 00023E3F1 // [-15 -15   8   0]
@B9 F7FD403FB // [ -5   1 -11 -17]
@BA FFFBBE200 // [  0 -15 -18  -1]
@BB F5FF3F001 // [  1  -8  -4 -21]
@BC F7007F1EB // [-21  -8   1 -18]
@BD 0B8200601 // [ 1  3  8 23]
@BE 09FF415FE // [-2 10 -3 19]
@BF FD7BBEBFD // [ -3 -11 -18  -6]
@C0 FC7D01BF3 // [-13  13 -12  -8]
@C1 FD00023ED // [-19  17   0  -6]
@C2 F78041402 // [  2  10   1 -17]
@C3 038180201 // [1 1 6 7]
