@0 0C04099E5 // [-27  76  16  24]
@1 D5707500C // [ 12 -88 -63 -86]
@2 F471055F5 // [-11  42 -60 -24]
@3 1186095D9 // [-39  74  24  35]
@4 F31C76BDE // [-34 -75 113 -26]
@5 00FFC87EC // [-20  67  -1   1]
@6 FE957B1DC // [-36 -40  85  -3]
@7 F412BD628 // [ 40 -21  74 -24]
@8 1DEB007A9 // [-87   3 -84  59]
@9 22EFFB804 // [  4 -36 -65  69]
@A E477C97D2 // [-46  75 -33 -56]
@B E88BB984E // [ 78 -52  46 -47]
@C 00003F619 // [25 -5]
