@0 C8F505426 // [  38   42  -44 -111]
@1 107A07039 // [ 57  56 -24  32]
@2 F50A3F9AB // [-85  -4  40 -22]
@3 36FE82DFA // [ -6  22  -6 109]
@4 D7033E449 // [ 73 -14  12 -82]
@5 017C3A77F // [-129  -45  -16    2]
@6 1B73CA467 // [103  82 -49  54]
@7 0B5A3B24F // [  79  -39 -152   22]
@8 EA0047A35 // [ 53  61   1 -44]
@9 2C007BC3B // [ 59 -34   1  88]
@A E27E85A25 // [ 37  45  -6 -60]
@B 22887C016 // [ 22 -32  33  69]
@C 000039DF8 // [ -8 -50]
