@0 DD76B7A0F // [ 15 -67 -38 -70]
@1 DFF385E23 // [ 35  47 -50 -65]
@2 EAE846546 // [-186   50  -95  -43]
@3 1E744D5D2 // [-46 106 -47  60]
@4 EB9004618 // [ 24  35  64 -41]
@5 FA6F75FE9 // [-23 -81 -67 -12]
@6 CB8680E48 // [  72    7   26 -105]
@7 1C7B7D2AD // [173 -23 -19  56]
@8 FE7D007F2 // [-14   3 -12  -4]
@9 2101C2C38 // [56 22  7 66]
@A ED8C87A5D // [ 93  61  50 -37]
@B 057EB7633 // [ 51 -69  -6  10]
@C 0000365E1 // [-31 -78]
