@0 F7938304D // [ 77  24  78 -17]
@1 F4898C647 // [ 71  99  38 -23]
@2 EE743EB65 // [-155  -11  -48  -36]
@3 11723B81F // [ 31 -36 -56  34]
@4 057B08C51 // [ 81  70 -20  10]
@5 0EFAF31E7 // [ -25 -104  -21   29]
@6 E0712E608 // [   8 -141  -60  -64]
@7 057E7CA03 // [  3 -27  -7  10]
@8 D102BBC51 // [ 81 -34  10 -94]
@9 F3A23ADEE // [-18 -42 136 -25]
@A 3B6F3763E // [ 62 -69 -68 118]
@B 0511FD9F7 // [ -9 -20  71  10]
@C 00003F7D6 // [-42  -5]
