@0 14287F004 // [  4  -8 161  40]
@1 C600FEBC3 // [ -61  -11    3 -116]
@2 2FEA3E7BF // [-65 -13 -88  95]
@3 F678B822E // [ 46 -63 -30 -20]
@4 25ED0A5F2 // [-14  82 -76  75]
@5 10FB3CA30 // [ 48 -27 -20  33]
@6 DC87B5A0E // [ 14 -83  30 -71]
@7 0213C044A // [74  2 79  4]
@8 F9FDFB7E5 // [-27 -37  -9 -13]
@9 A419C4202 // [   2   33  103 -184]
@A 238C809F7 // [-9  4 50 71]
@B F295469CE // [-50  52  85 -27]
@C 00003E617 // [ 23 -13]
