@0 D08DB91F7 // [ -9 -56  54 -95]
@1 01ECBCBFD // [ -3 -27 -78   3]
@2 2385C7418 // [24 58 23 71]
@3 25FB0AF95 // [-107   87  -20   75]
@4 0969459DE // [-34  44 -91  18]
@5 147BC4FC4 // [-60  39 -17  40]
@6 F394C05E2 // [-30   2  83 -25]
@7 DF74099BF // [-65  76 -48 -66]
@8 11FF02622 // [34 19 -4 35]
@9 038844054 // [84 32 33  7]
@A E80033202 // [   2 -103    0  -48]
@B C1F43EBAF // [ -81  -11  -48 -125]
@C 00003B236 // [ 54 -39]
