@0 D00642A30 // [ 48  21  25 -96]
@1 ED7A48443 // [ 67  66 -23 -38]
@2 0A8F79804 // [  4 -52  61  21]
@3 0EF5801FF // [ -1   0 -42  29]
@4 DB94051EE // [-18  40  80 -73]
@5 F2F4B4003 // [  3 -96 -46 -27]
@6 EC063B008 // [  8 -40  24 -40]
@7 12FFC0645 // [69  3 -1 37]
@8 090CFCDB0 // [-80 -26  51  18]
@9 EDF300000 // [  0   0 -52 -37]
@A FE8941E30 // [48 15 37 -3]
@B 11847C7FC // [ -4 -29  17  35]
@C 00003A200 // [  0 -47]
