@0 E2F88800A // [ 10  64 -30 -59]
@1 1BFA88604 // [  4  67 -22  55]
@2 F38036E5E // [ 94 -73   0 -25]
@3 C8F8F61DF // [ -33  -80  -29 -111]
@4 FFE742C5E // [ 94  22 -99  -1]
@5 220404407 // [ 7 34 16 68]
@6 F7FE30E02 // [   2 -121   -8  -17]
@7 107B383CE // [-50 -63 -20  32]
@8 E206C3E07 // [  7  31  27 -60]
@9 15F9BEF95 // [-107   -9  -26   43]
@A 246902E00 // [  0  23 -92  72]
@B 0E093C997 // [-105  -28   36   28]
@C 0000097BA // [-70  75]
