@0 E26C40C3D // [ 61   6 -79 -60]
@1 1B12D140F // [ 15 138  75  54]
@2 F60A7D80C // [ 12 -20  41 -20]
@3 DB6D80212 // [ 18   1 -74 -74]
@4 2B7437070 // [112 -72 -48  86]
@5 F27DFB7AA // [-86 -37  -9 -28]
@6 E4E64A01C // [  28   80 -103  -55]
@7 0380F99B8 // [-72 -52   3   7]
@8 D88182A8F // [143  21   6 -79]
@9 09FA0C21D // [ 29  97 -24  19]
@A DDF9377F5 // [-11 -69 -28 -69]
@B 19F544BCB // [-53  37 -43  51]
@C 00003340E // [  14 -102]
