@0 2117331FC // [  -4 -104   92   66]
@1 C589FC99F // [ -97  -28   39 -117]
@2 076B8F3B6 // [-74 121 -82  14]
@3 22FEFA9D0 // [-48 -44  -5  69]
@4 3E060CA00 // [  0 101  24 124]
@5 EA9700A60 // [ 96   5  92 -43]
@6 090D3E3BD // [-67 -15  52  18]
@7 D18384A00 // [  0  37  14 -93]
@8 0F743CC22 // [ 34 -26 -48  30]
@9 EA1B7A622 // [ 34 -45 109 -44]
@A EC9043FDE // [-34  31  65 -39]
@B C9FD7F9F6 // [ -10   -4  -11 -109]
@C 00003DDFB // [ -5 -18]
