@0 D0FBFB609 // [  9 -37 -17 -95]
@1 FA88C53C8 // [-56  41  35 -11]
@2 D8083781E // [ 30 -68  32 -80]
@3 DB6E84058 // [ 88  32 -70 -74]
@4 E0A2361BC // [-68 -80 136 -63]
@5 C5FBF6E44 // [  68  -73  -17 -117]
@6 EB7C0ADF0 // [-16  86 -16 -42]
@7 0B00CAC96 // [150  86   3  22]
@8 356AC17A0 // [-96  11 -85 106]
@9 197901A44 // [ 68  13 -28  50]
@A F688FEE26 // [ 38  -9  35 -19]
@B 22FAC4C90 // [144  38 -21  69]
@C 00003EFBD // [-67  -9]
