@0 E088AEA2B // [  43 -139   34  -63]
@1 F1F47F9C3 // [-61  -4 -47 -29]
@2 047ACA5E4 // [-28  82 -21   8]
@3 137901DEC // [-20  14 -28  38]
@4 0D0F88A07 // [ 7 69 62 26]
@5 DCFEFB609 // [  9 -37  -5 -71]
@6 DD0C471A7 // [-89  56  49 -70]
@7 057C4A5DE // [-34  82 -15  10]
@8 258F7A630 // [ 48 -45  61  75]
@9 F8A342C3E // [ 62  22 141 -15]
@A CF89B95F8 // [ -8 -54  38 -97]
@B EBFD87FC0 // [-64  63 -10 -41]
@C 000033208 // [   8 -103]
