@0 24784A5DB // [-37  82 -31  72]
@1 EE18C5E4C // [ 76  47  99 -36]
@2 D3897FD9E // [-98  -2  37 -89]
@3 F88A85236 // [ 54  41  42 -15]
@4 F0F639E5B // [ 91 -49 -40 -31]
@5 07603C231 // [  49  -31 -128   14]
@6 186E46C04 // [  4  54 -71  48]
@7 27F400078 // [120   0 -48  79]
@8 0DE4CE5E0 // [ -32  114 -109   27]
@9 F7FEF0BAE // [ -82 -123   -5  -17]
@A FA7A8B9CA // [-54  92 -22 -12]
@B 3023B666A // [106 -77 142  96]
@C 00000BF79 // [-135   95]
