@0 357582784 // [-124   19  -42  106]
@1 F011BDDE4 // [-28 -18  70 -32]
@2 1A11B727B // [123 -71  70  52]
@3 D6A3B9C4E // [ 78 -50 142 -83]
@4 F782761AA // [-86 -80   9 -17]
@5 CCFD127E9 // [ -23  147  -12 -103]
@6 5B8AF8FAA // [-86 -57  43 183]
@7 1F7A081F9 // [ -7  64 -24  62]
@8 2403455EF // [-17  42  13  72]
@9 0C64C85D4 // [ -44   66 -109   24]
@A 2684C2405 // [ 5 18 19 77]
@B 0406087DD // [-35  67  24   8]
@C 000007407 // [ 7 58]
