@0 EF06F580A // [ 10 -84  27 -34]
@1 E87486024 // [ 36  48 -46 -48]
@2 246CC93C1 // [-63  73 -77  72]
@3 0D78C5BBE // [-66  45 -29  26]
@4 F17050E64 // [100 135 -63 -30]
@5 DF038182D // [ 45  12  14 -66]
@6 D47DBD5BC // [-68 -22 -10 -88]
@7 08FDC33D3 // [-45  25  -9  17]
@8 0F12763FB // [ -5 -79  73  30]
@9 E904FBC27 // [ 39 -34  19 -46]
@A 0A157A00F // [ 15 -48  85  20]
@B BBFD0B3BE // [ -66   89  -12 -137]
@C 00003AE00 // [  0 -41]
