@0 0AFD479F0 // [-16  60 -11  21]
@1 E50977C3F // [ 63 -66  37 -54]
@2 E28106621 // [ 33  51   4 -59]
@3 FF9D7B400 // [  0 -38 117  -1]
@4 FD6DFB01A // [ 26 -40 -73  -6]
@5 1F06BD5FD // [ -3 -22  26  62]
@6 1F07BC1D1 // [-47 -32  30  62]
@7 0A86FD1A9 // [-87 -24  27  21]
@8 E5F5FAC02 // [  2 -42 -41 -53]
@9 15EB813BF // [-65   9 -82  43]
@A 00700000C // [ 12   0 -64   0]
@B 15A2AE827 // [  39 -140  138   43]
@C 000002631 // [49 19]
