@0 D48486E63 // [ 99  55  18 -87]
@1 E08248E27 // [ 39  71   9 -63]
@2 F0FE0338A // [-118   25   -8  -31]
@3 1976C79B5 // [-75  60 -37  50]
@4 1D7F0C85D // [ 93 100  -4  58]
@5 EFF57BFDF // [-33 -33 -43 -33]
@6 DD7FFD9F3 // [-13 -20  -1 -70]
@7 0DF4375FB // [ -5 -70 -48  27]
@8 E0FA80BFD // [ -3   5 -22 -63]
@9 018580C16 // [22  6 22  3]
@A E3797F819 // [ 25  -4 -27 -58]
@B 0680B560E // [ 14 -85   2  13]
@C 000033001 // [   1 -104]
