@0 CA6E40465 // [ 101    2  -71 -108]
@1 15F54A259 // [ 89  81 -43  43]
@2 1AFEBB20D // [ 13 -39  -6  53]
@3 0285493BB // [-69  73  21   5]
@4 D8F7F922A // [ 42 -55 -33 -79]
@5 F5F3C0197 // [-105    0  -49  -21]
@6 F1FC4126C // [108   9 -15 -29]
@7 0C6E427D5 // [-43  19 -71  24]
@8 01FD0B464 // [100  90 -12   3]
@9 33F686231 // [ 49  49 -38 103]
@A C87B2F623 // [  35 -133  -20 -112]
@B FBF7FF60E // [ 14  -5 -33  -9]
@C 000036820 // [ 32 -76]
