@0 3B7E01DC6 // [-58  14  -8 118]
@1 1E8FF1BCF // [ -49 -115   63   61]
@2 1917FB280 // [128 -39  95  50]
@3 118CFB622 // [ 34 -37  51  35]
@4 05003ABD6 // [-42 -43   0  10]
@5 E97FFFA26 // [ 38  -3  -1 -46]
@6 3CFCC7FAB // [-85  63 -13 121]
@7 F176C2FCD // [-51  23 -37 -30]
@8 E3053D3F9 // [ -7 -23  20 -58]
@9 F26BBF609 // [  9  -5 -82 -28]
@A F004469CC // [-52  52  17 -32]
@B F57C47FFF // [ -1  63 -15 -22]
@C 0000083EC // [-20  65]
