@0 177471BED // [ -19 -115  -47   46]
@1 1CEEBA44C // [ 76 -46 -70  57]
@2 FD7D78ECD // [205 -57 -11  -6]
@3 1107475EA // [-22  58  29  34]
@4 EE8A399F1 // [-15 -52  40 -35]
@5 EC18087EF // [-17  67  96 -40]
@6 071C8A1D1 // [-47  80 114  14]
@7 0B00C059B // [-101    2    3   22]
@8 FB74BD617 // [ 23 -21 -46 -10]
@9 0CE9C4FD7 // [-41  39 -89  25]
@A DA93B222F // [  47 -111   78  -75]
@B EC754500F // [ 15  40 -43 -40]
@C 000039842 // [ 66 -52]
