@0 DE043BA45 // [ 69 -35  16 -68]
@1 0EF0C739C // [-100   57  -61   29]
@2 ED05B3BB1 // [-79 -99  22 -38]
@3 07FEC941B // [27 74 -5 15]
@4 F38C38DFB // [ -5 -58  48 -25]
@5 ED84F47E9 // [-23 -93  19 -37]
@6 D40283E34 // [ 52  31  10 -88]
@7 2D0688082 // [130  64  26  90]
@8 23E94180C // [ 12  12 -91  71]
@9 0C84485F7 // [-9 66 17 25]
@A DD898001B // [ 27   0  38 -69]
@B 296F84C02 // [  2  38 -66  82]
@C 0000337E7 // [ -25 -101]
