@0 21114ADB8 // [-72  86  69  66]
@1 E014BF5AF // [-81  -6  82 -64]
@2 1D7E829FA // [-6 20 -6 58]
@3 E685FB613 // [ 19 -37  23 -51]
@4 1382439FE // [-2 28  9 39]
@5 EBFB40C20 // [ 32   6 -19 -41]
@6 F78F3E7D3 // [-45 -13  60 -17]
@7 FD90C51E9 // [-23  40  67  -5]
@8 E200391E1 // [-31 -56   0 -60]
@9 EAFFFA9EC // [-20 -44  -1 -43]
@A 05834481C // [28 36 13 11]
@B 0485411EC // [-20   8  21   9]
@C 0000041E6 // [-26  32]
