@0 E191F606C // [108 -80  71 -61]
@1 FAE645BEF // [ -17   45 -103  -11]
@2 1E87BE033 // [ 51 -16  30  61]
@3 12EACD1C9 // [-55 104 -85  37]
@4 DF007F5C9 // [-55  -6   1 -66]
@5 DFFBB15B9 // [ -71 -118  -18  -65]
@6 C9837DC48 // [  72  -18   13 -109]
@7 FBF8CD7E2 // [-30 107 -29  -9]
@8 1D0BBB202 // [  2 -39  46  58]
@9 0BF448BF7 // [ -9  69 -47  23]
@A EF75BCBF0 // [-16 -27 -42 -34]
@B D3F384BA3 // [-93  37 -50 -89]
@C 000034A43 // [ 67 -91]
