@0 DBF175621 // [ 33 -85 -59 -73]
@1 26F5C5983 // [-125   44  -41   77]
@2 F6887E214 // [ 20 -15  33 -19]
@3 F40AC3219 // [ 25  25  43 -24]
@4 167CB7E70 // [112 -65 -14  44]
@5 E604041F1 // [-15  32  16 -52]
@6 18EF03E2C // [ 44  31 -68  49]
@7 F7E83D82F // [ 47 -20 -96 -17]
@8 2CF9D1830 // [ 48 140 -25  89]
@9 E991C704D // [ 77  56  71 -45]
@A D56136989 // [-119  -76 -124  -86]
@B 2C57BEFDA // [ -38   -9 -162   88]
@C 000032DB3 // [ -77 -106]
