@0 0C8B7BA32 // [ 50 -35  45  25]
@1 DE877FC1F // [ 31  -2  29 -67]
@2 04EE8B1B7 // [-73  88 -70   9]
@3 FFFCBC9F5 // [-11 -28 -14  -1]
@4 03FF421D4 // [-44  16  -3   7]
@5 1688C282A // [42 20 35 45]
@6 168A3C3CF // [-49 -31  40  45]
@7 F108405B6 // [-74   2  33 -30]
@8 07FD411E9 // [-23   8 -11  15]
@9 DE197DBB4 // [-76 -19 101 -68]
@A 1F7B797EE // [-18 -53 -19  62]
@B F87BC41E8 // [-24  32 -17 -16]
@C 000004642 // [66 35]
