@0 188635D8F // [-113  -82   24   49]
@1 FE0BC0176 // [-138    0   47   -4]
@2 2D0083802 // [ 2 28  2 90]
@3 0D9A31818 // [  24 -116  104   27]
@4 0F787B1D3 // [-45 -40 -31  30]
@5 0D0500BFF // [-1  5 20 26]
@6 2877C8FD2 // [-46  71 -33  80]
@7 FB7BC0016 // [ 22   0 -17 -10]
@8 02FD47FDB // [-37  63 -11   5]
@9 0A0DF95FC // [ -4 -54  55  20]
@A 106D42BD4 // [-44  21 -75  32]
@B FAF27EBD5 // [-43 -11 -55 -11]
@C 000011DEC // [-20 142]
