@0 171140224 // [36  1 69 46]
@1 E0FC7E1D4 // [-44 -16 -15 -63]
@2 407BC1DCE // [-50  14 -17 128]
@3 E07F7D81A // [ 26 -20  -3 -64]
@4 000AC4DF2 // [-14  38  43   0]
@5 E87D3FC15 // [ 21  -2 -12 -48]
@6 FDFF73DA0 // [-96 -98  -3  -5]
@7 FB9843BFD // [-3 29 97 -9]
@8 E0183ABDA // [-38 -43  96 -64]
@9 E90FBB59A // [-102  -38   62  -46]
@A 128BC01EA // [-22   0  47  37]
@B D88CC69BD // [-67  52  51 -79]
@C 0000095B7 // [-73  74]
