@0 C17EFEE16 // [  22   -9   -5 -126]
@1 118038A03 // [  3 -59   0  35]
@2 051BB5A6A // [106 -83 110  10]
@3 F78BC383A // [ 58  28  47 -17]
@4 F10EB41CC // [-52 -96  58 -30]
@5 13800CE1B // [ 27 103   0  39]
@6 2D7938DFB // [ -5 -58 -28  90]
@7 E581005A9 // [-87   2   4 -53]
@8 357C3E60C // [ 12 -13 -16 106]
@9 FC714F3CA // [-54 121 -59  -8]
@A 1082C0215 // [21  1 11 33]
@B 016844C6B // [107  38 -95   2]
@C 000002004 // [ 4 16]
