@0 037D45DF7 // [ -9  46 -11   6]
@1 2A05427B7 // [-73  19  21  84]
@2 DD84B4E46 // [ 70 -89  18 -69]
@3 D7FB31C62 // [  98 -114  -20  -81]
@4 0DF078055 // [ 85 -64 -63  27]
@5 1A0500842 // [66  4 20 52]
@6 3EF73E009 // [  9 -16 -36 125]
@7 03003A3F2 // [-14 -47   0   6]
@8 DE8B7E9C6 // [-58 -12  45 -67]
@9 E87A07FD5 // [-43  63 -24 -48]
@A 0F763E9C1 // [-63 -12 -40  30]
@B 37FFBEBC5 // [-59 -11  -2 111]
@C 000000991 // [-111    4]
