@0 E4FD79BFF // [ -1 -51 -11 -55]
@1 24EAF79C0 // [-64 -68 -85  73]
@2 0B874305B // [91 24 29 23]
@3 EA8E0A7DE // [-34  83  56 -43]
@4 FC7FBABCB // [-53 -43  -2  -8]
@5 F5F93E39C // [-100  -15  -28  -21]
@6 12FE083EF // [-17  65  -8  37]
@7 FD05C3611 // [17 27 23 -6]
@8 1FFE8BDF2 // [-14  94  -6  63]
@9 F0828D656 // [ 86 107  10 -31]
@A EBFB3CBEB // [-21 -27 -20 -41]
@B EB753B007 // [  7 -40 -44 -42]
@C 00003E221 // [ 33 -15]
