@0 0D86C3419 // [25 26 27 27]
@1 0288C65DF // [-33  50  35   5]
@2 FAF73EC17 // [ 23 -10 -36 -11]
@3 0383B864C // [ 76 -61  14   7]
@4 31E6FCA2C // [  44  -27 -101   99]
@5 DEF938A36 // [ 54 -59 -28 -67]
@6 DB8840C07 // [  7   6  33 -73]
@7 290AFC629 // [ 41 -29  43  82]
@8 0196F702F // [ 47 -72  91   3]
@9 B41941838 // [  56   12  101 -152]
@A 128C7CFF9 // [ -7 -25  49  37]
@B 23714D5AC // [-84 106 -59  70]
@C 00003FA0E // [14 -3]
