@0 0C07BBFCE // [-50 -33  30  24]
@1 328879D94 // [-108  -50   33  101]
@2 40163BC27 // [ 39 -34  88 128]
@3 E417FAC5A // [ 90 -42  95 -56]
@4 20F373FED // [-19 -97 -51  65]
@5 C9920522E // [  46   41   72 -109]
@6 1B09C2C0F // [15 22 39 54]
@7 EFFEC67FD // [ -3  51  -5 -33]
@8 1107B51E8 // [-24 -88  30  34]
@9 C20945E10 // [  16   47   37 -124]
@A 0C083BDD7 // [-41 -34  32  24]
@B DE72043F7 // [ -9  33 -56 -68]
@C 000006008 // [ 8 48]
