@0 F905F29FB // [  -5 -108   23  -14]
@1 0ED9761F0 // [ -16  -80 -155   29]
@2 3087BB850 // [ 80 -36  30  97]
@3 26FF3FFDE // [-34  -1  -4  77]
@4 EF93FDFB2 // [-78 -17  79 -33]
@5 001240C33 // [51  6 73  0]
@6 F318899AB // [-85  76  98 -26]
@7 0CFFC9D70 // [-144   78   -1   25]
@8 2F7EBB80F // [ 15 -36  -6  94]
@9 05EFBBA47 // [ 71 -35 -66  11]
@A FE85B8243 // [ 67 -63  22  -3]
@B AC85025ED // [ -19   18   20 -167]
@C 00003165F // [  95 -117]
