@0 DC7B05254 // [ 84  41 -20 -72]
@1 E3F90A632 // [ 50  83 -28 -57]
@2 007B7C039 // [ 57 -32 -19   0]
@3 F66637806 // [   6  -68 -104  -20]
@4 DFED44817 // [ 23  36 -75 -65]
@5 FE8DF95B8 // [-72 -54  55  -3]
@6 E27DF800A // [ 10 -64  -9 -60]
@7 1EFE053E8 // [-24  41  -8  61]
@8 FF9A6D5EC // [ -20 -150  105   -1]
@9 E684815D0 // [-48  10  18 -51]
@A 3108B6A40 // [ 64 -75  34  98]
@B 2A7A0ADA8 // [-88  86 -24  84]
@C 00003FC14 // [20 -2]
