@0 06ED0D21A // [ 26 105 -76  13]
@1 E20B0866E // [110  67  44 -60]
@2 EF01C0D99 // [-103    6    7  -34]
@3 026EFBA0D // [ 13 -35 -69   4]
@4 D87B41A41 // [ 65  13 -19 -80]
@5 0667C2482 // [130  18 -97  12]
@6 FCEFFE405 // [  5 -14 -65  -7]
@7 12037E5DC // [-36 -14  13  36]
@8 CFFA801C5 // [-59   0 -22 -97]
@9 1672371C7 // [-57 -72 -56  44]
@A 3178C1BDA // [-38  13 -29  98]
@B 18A8BCA03 // [  3 -27 162  49]
@C 000003BE2 // [-30  29]
