@0 C67F0022B // [  43    1   -4 -116]
@1 1BF0BFA08 // [  8  -3 -62  55]
@2 E89102421 // [ 33  18  68 -47]
@3 06790C5AD // [-83  98 -28  12]
@4 F6FD3AC25 // [ 37 -42 -12 -19]
@5 E47F4B1C4 // [-60  88  -3 -56]
@6 00617EC46 // [  70  -10 -123    0]
@7 ED5F7C423 // [  35  -30 -131  -38]
@8 24EF8A41D // [ 29  82 -66  73]
@9 19F600E4D // [ 77   7 -40  51]
@A D803043F4 // [-12  33  12 -80]
@B 2300ED2A7 // [ 167 -151    3   70]
@C 00002EA5A // [  90 -139]
