@0 FF80C21AD // [-83  16   3  -1]
@1 14F9391B7 // [-73 -56 -28  41]
@2 0479C05C5 // [-59   2 -25   8]
@3 0DF934420 // [ 32 -94 -28  27]
@4 1599FC3C6 // [-58 -31 103  43]
@5 0B6846A51 // [ 81  53 -95  22]
@6 16F5439DD // [-35  28 -43  45]
@7 26021021E // [ 30 129   8  76]
@8 E180C0FB6 // [-74   7   3 -61]
@9 F11B01FF8 // [ -8  15 108 -30]
@A 150B3D5F6 // [-10 -22  44  42]
@B FD86FC9E7 // [-25 -28  27  -5]
@C 000006A00 // [ 0 53]
