@0 F0113D023 // [ 35 -24  68 -32]
@1 C2FBC9823 // [  35   76  -17 -123]
@2 FB8402169 // [-151   16   16   -9]
@3 1AE8473DF // [-33  57 -95  53]
@4 E88744A16 // [ 22  37  29 -47]
@5 0BF839443 // [ 67 -54 -32  23]
@6 CF83C0208 // [  8   1  15 -97]
@7 0E7AC54A1 // [161  42 -21  28]
@8 F804B8FD5 // [-43 -57  18 -16]
@9 F89CBDE0F // [ 15 -17 114 -15]
@A F38FC65E7 // [-25  50  63 -25]
@B 0EF4055FE // [ -2  42 -48  29]
@C 0000333F2 // [ -14 -103]
