@0 0605C7A00 // [ 0 61 23 12]
@1 E3F77B45A // [ 90 -38 -35 -57]
@2 1303C1633 // [51 11 15 38]
@3 0E034898F // [-113   68   13   28]
@4 F00184FE4 // [-28  39   6 -32]
@5 E60D3BFE6 // [-26 -33  52 -52]
@6 C99D42A0C // [  12   21  117 -109]
@7 FDF2FB587 // [-121  -38  -53   -5]
@8 1277BE41F // [ 31 -14 -34  36]
@9 12F774219 // [ 25 -95 -35  37]
@A DB03FF258 // [ 88  -7  15 -74]
@B EB86BA622 // [ 34 -45  26 -41]
@C 000033689 // [ 137 -101]
