@0 FFE87EE6D // [109  -9 -95  -1]
@1 13F7B47EE // [-18 -93 -34  39]
@2 E6F982430 // [ 48  18 -26 -51]
@3 E39D887F7 // [ -9  67 118 -57]
@4 1362BBA09 // [   9  -35 -118   38]
@5 190580A1E // [30  5 22 50]
@6 10F7F4E3C // [ 60 -89 -33  33]
@7 067CF79BF // [-65 -68 -13  12]
@8 0708C6460 // [96 50 35 14]
@9 E4FB48FE4 // [-28  71 -19 -55]
@A 27E5AF23D // [  61 -135 -106   79]
@B 19E5CB422 // [  34   90 -105   51]
@C 00003EE2F // [47 -9]
