@0 F8690B448 // [ 72  90 -92 -16]
@1 047EBC200 // [  0 -31  -6   8]
@2 F0077B3F9 // [ -7 -39  29 -32]
@3 EA0D42C16 // [ 22  22  53 -44]
@4 CC92409F5 // [ -11    4   73 -103]
@5 DEF635E1E // [ 30 -81 -40 -67]
@6 EB0200C39 // [ 57   6   8 -42]
@7 1EF5005A4 // [-92   2 -44  61]
@8 08993CA04 // [  4 -27 100  17]
@9 0B69C15EF // [-17  10 -89  22]
@A 1D037DE6A // [106 -17  13  58]
@B 17F980644 // [ 68   3 -26  47]
@C 00003E3E3 // [-29 -15]
