@0 17770BC52 // [ 82  94 -36  46]
@1 EA8238610 // [ 16 -61   8 -43]
@2 E76B7EC22 // [ 34 -10 -83 -50]
@3 EB8A469E0 // [-32  52  41 -41]
@4 126485213 // [  19   41 -110   36]
@5 5F7F7D9E9 // [-23 -20  -3 190]
@6 2686727EA // [ -22 -109   25   77]
@7 D8F36FDAA // [ -86 -130  -51  -79]
@8 07FB82E70 // [112  23 -18  15]
@9 F4EDBE1E1 // [-31 -16 -74 -23]
@A 0872F722E // [ 46 -71 -53  16]
@B 27067F5ED // [-19  -6  25  78]
@C 00000B5EE // [-18  90]
