@0 E677C960A // [ 10  75 -33 -52]
@1 1E96417C4 // [-60  11  89  61]
@2 EC8EEB085 // [ 133 -168   59  -39]
@3 CD187B446 // [  70  -38   97 -102]
@4 1885EEC2D // [  45 -138   23   49]
@5 EE0976DBE // [-66 -74  37 -36]
@6 1E7B3EE17 // [ 23  -9 -20  60]
@7 0BFE3E3D9 // [-39 -15  -8  23]
@8 DB95769EA // [-22 -76  85 -73]
@9 E7E9851C6 // [-58  40 -90 -49]
@A 077EBDC3E // [ 62 -18  -6  14]
@B 24EF47039 // [ 57  56 -67  73]
@C 0000005FF // [-1  2]
