@0 2371119DF // [-33 140 -60  70]
@1 1D880A854 // [84 84 32 59]
@2 DA8BBE800 // [  0 -12  46 -75]
@3 EC6FB9010 // [ 16 -56 -66 -40]
@4 E77344BCE // [-50  37 -51 -50]
@5 12728081A // [ 26   4 -54  36]
@6 1FFB03215 // [ 21  25 -20  63]
@7 0900789F5 // [-11 -60   1  18]
@8 BE74BF7E5 // [ -27   -5  -46 -132]
@9 06003A1C4 // [-60 -48   0  12]
@A 20FEFE60C // [ 12 -13  -5  65]
@B 102035401 // [  1 -86 128  32]
@C 0000059EB // [-21  44]
