@0 FBEB045CC // [-52  34 -84  -9]
@1 F200355FD // [ -3 -86   0 -28]
@2 00774926D // [109  73 -35   0]
@3 0C087CFF0 // [-16 -25  33  24]
@4 E885C0F82 // [-126    7   23  -47]
@5 021C07FEB // [-21  63 112   4]
@6 FF92C15D8 // [-40  10  75  -1]
@7 E5F2413B6 // [-74   9 -55 -53]
@8 1FFA76201 // [  1 -79 -23  63]
@9 11E7869F0 // [-16  52 -98  35]
@A 000A3D618 // [ 24 -21  40   0]
@B D684C41F1 // [-15  32  19 -83]
@C 000004267 // [103  33]
