@0 FE7ACD585 // [-123  106  -21   -4]
@1 FFF0C5E29 // [ 41  47 -61  -1]
@2 08158B9C0 // [-64  92  86  16]
@3 4E6F5073F // [-193  131  -67  156]
@4 6F4D86EA2 // [ 162   55 -202  222]
@5 DF0E3DE75 // [117 -17  56 -66]
@6 5188CFCC5 // [197 126  35 163]
@7 58050FBEC // [-20 125  20 176]
@8 D4F02514F // [-177 -216  -64  -87]
@9 F763C4858 // [  88   36 -113  -18]
@A 328B0C85C // [ 92 100  44 101]
@B 9E24305E7 // [ -25 -126  144 -196]
@C 1E3FFD619 // [ 25 -21 255  60]
@D 299CEB710 // [-240 -165  115   83]
@E 147FC47B7 // [-73  35  -1  40]
@F 049D3AA6A // [106 -43 116   9]
@10 128960014 // [  20 -256   37   37]
@11 18FFC1F8F // [-113   15   -1   49]
@12 EEF21FF67 // [-153  255  -56  -35]
@13 1B20729CA // [ -54 -108  129   54]
@14 E81C4795D // [-163   60  113  -48]
@15 0081FDB28 // [-216  -19    7    1]
@16 DE3372E33 // [  51 -105  205  -68]
@17 AD8EAD5BF // [ -65 -150   58 -165]
@18 AF2876197 // [-105  -80  161 -162]
