@0 B61446FCE // [ -50   55   81 -148]
@1 09F40F150 // [-176  120  -48   19]
@2 F7D3391A8 // [ -88  -56 -180  -17]
@3 B2726E055 // [  85 -144  -55 -156]
@4 E898B1900 // [-256 -116   98  -47]
@5 ED346D459 // [  89 -150  209  -38]
@6 886D34623 // [  35  -93  -76 -240]
@7 FEF7777A6 // [-90 -69 -35  -3]
@8 6E608C438 // [  56   98 -126  220]
@9 FDA72F853 // [  83 -132  156   -5]
@A 486C847AA // [-86  35 -78 144]
@B 4F6282A81 // [ 129   21 -118  158]
@C D3060C58D // [-115   98   24  -90]
@D C5524E871 // [ 113  116 -183 -118]
@E 23B4D3845 // [ 69 156 211  71]
@F 027C3FE81 // [129  -1 -16   4]
@10 03F553A0F // [ 15 157 -43   7]
@11 06600EDE4 // [ -28  118 -128   12]
@12 C9AAEB08A // [ 138 -168  171 -109]
@13 10B21BB73 // [-141  221  200   33]
@14 221C8EFD8 // [-40 119 114  68]
@15 33156BA30 // [  48 -163   85  102]
@16 E25DC935E // [-162   73 -137  -60]
@17 396F6EBCE // [ -50 -139  -67  114]
@18 E3EC32026 // [  38 -112  -80  -57]
