@0 FF047F3FF // [-1 -7 17 -2]
@1 FE81801F3 // [-13   0   6  -3]
@2 017D3E204 // [  4 -15 -12   2]
@3 0101BE5EF // [-17 -14   6   2]
@4 0181BE400 // [  0 -14   6   3]
@5 0480003FE // [-2  1  0  9]
@6 FFFD41202 // [  2   9 -11  -1]
@7 F9FE81A03 // [  3  13  -6 -13]
@8 0083C1DFD // [-3 14 15  1]
@9 0600BF3EF // [-17  -7   2  12]
@A 03FDC280A // [10 20 -9  7]
@B 04FFC21F2 // [-14  16  -1   9]
@C F4817F403 // [  3  -6   5 -23]
@D FE7D021F7 // [ -9  16 -12  -4]
@E F97EBE3FE // [ -2 -15  -6 -14]
@F FC8101405 // [ 5 10  4 -7]
@10 FC00FE7F6 // [-10 -13   3  -8]
@11 FF7DBF804 // [  4  -4 -10  -2]
@12 05FC3F003 // [  3  -8 -16  11]
@13 017EC27FA // [-6 19 -5  2]
@14 01FC7E5FB // [ -5 -14 -15   3]
@15 027FFE00D // [ 13 -16  -1   4]
@16 FE00019FB // [-5 12  0 -4]
@17 078001BF7 // [-9 13  0 15]
@18 FDFE7DFEA // [-22 -17  -7  -5]
@19 0A04FF801 // [ 1 -4 19 20]
@1A F77E00001 // [  1   0  -8 -18]
@1B 02FF40203 // [ 3  1 -3  5]
@1C FFFE80E06 // [ 6  7 -6 -1]
@1D FB817E9F4 // [-12 -12   5  -9]
@1E F4F6BF7FD // [ -3  -5 -38 -23]
@1F F7773DBF5 // [-11 -19 -36 -18]
@20 FE8241604 // [ 4 11  9 -3]
@21 067EC3805 // [ 5 28 -5 12]
@22 FFFABF80C // [ 12  -4 -22  -1]
@23 04833E9F9 // [ -7 -12  12   9]
@24 FB7DBF00A // [ 10  -8 -10 -10]
@25 F8FAFE9F2 // [-14 -12 -21 -15]
@26 EDF7BD5F3 // [-13 -22 -34 -37]
@27 FF02839EC // [-20  28  10  -2]
@28 128602616 // [22 19 24 37]
@29 0382017FD // [-3 11  8  7]
@2A 047FBEC06 // [  6 -10  -2   8]
@2B FD7BBFFEE // [-18  -1 -18  -6]
@2C FA0140E0A // [ 10   7   5 -12]
@2D F4783F7DE // [-34  -5 -32 -24]
@2E 12FF3E7F4 // [-12 -13  -4  37]
@2F 100A45812 // [18 44 41 32]
@30 FF8280213 // [19  1 10 -1]
@31 F8803F5FF // [ -1  -6   0 -15]
@32 01FD7DE00 // [  0 -17 -11   3]
@33 0B858360F // [15 27 22 23]
@34 EFF6BE5FD // [ -3 -14 -38 -33]
@35 04FA3F5DB // [-37  -6 -24   9]
@36 1C0D8301D // [29 24 54 56]
@37 017CC260C // [ 12  19 -13   2]
@38 0100BF9FF // [-1 -4  2  2]
@39 0F00001EF // [-17   0   0  30]
@3A 0D85C1E16 // [22 15 23 27]
@3B F17581207 // [  7   9 -42 -30]
@3C FC7EFD7D9 // [-39 -21  -5  -8]
@3D 1F86C13FD // [-3  9 27 63]
@3E 010503028 // [40 24 20  2]
@3F FB7F82E02 // [  2  23  -2 -10]
@40 098300004 // [ 4  0 12 19]
@41 130882C15 // [21 22 34 38]
@42 E37740E1F // [ 31   7 -35 -58]
@43 F3787C3DC // [-36 -31 -31 -26]
@44 1D0B80E02 // [ 2  7 46 58]
@45 FB0141E26 // [ 38  15   5 -10]
@46 FC047FBF2 // [-14  -3  17  -8]
@47 0001C11F0 // [-16   8   7   0]
@48 1689C5A30 // [48 45 39 45]
@49 EC7640C2A // [ 42   6 -39 -40]
@4A F2FD7D9E0 // [-32 -20 -11 -27]
@4B 1205415FB // [-5 10 21 36]
@4C FE81C1820 // [32 12  7 -3]
@4D FCFE3F400 // [ 0 -6 -8 -7]
@4E 0E0580C03 // [ 3  6 22 28]
@4F 0B05C4617 // [23 35 23 22]
@50 EA79C321E // [ 30  25 -25 -44]
@51 F4FA3CBE1 // [-31 -27 -24 -23]
@52 0D85FF7E0 // [-32  -5  23  27]
@53 017FC0011 // [17  0 -1  2]
@54 FF8181000 // [ 0  8  6 -1]
@55 070441206 // [ 6  9 17 14]
@56 060101406 // [ 6 10  4 12]
@57 E6F642A2D // [ 45  21 -39 -51]
@58 F277BDDE2 // [-30 -18 -34 -28]
@59 1085411F9 // [-7  8 21 33]
@5A FF8200004 // [ 4  0  8 -1]
@5B FA854000A // [ 10   0  21 -11]
@5C 0B843FBF9 // [-7 -3 16 23]
@5D 0D02BF5F9 // [-7 -6 10 26]
@5E F075BDA21 // [ 33 -19 -42 -32]
@5F 007C7D7DE // [-34 -21 -15   0]
@60 09057F1FE // [-2 -8 21 18]
@61 F9803F405 // [  5  -6   0 -13]
@62 F88300803 // [  3   4  12 -15]
@63 04013FDFD // [-3 -2  4  8]
@64 080540C02 // [ 2  6 21 16]
@65 EB79FE812 // [ 18 -12 -25 -42]
@66 0702BCDF7 // [ -9 -26  10  14]
@67 0A0A0160E // [14 11 40 20]
@68 038000C15 // [21  6  0  7]
@69 FA003EBFD // [ -3 -11   0 -12]
@6A 058200E01 // [ 1  7  8 11]
@6B 070900002 // [ 2  0 36 14]
@6C F8FB7E005 // [  5 -16 -19 -15]
@6D 058080DFD // [-3  6  2 11]
@6E 107E41C10 // [16 14 -7 32]
@6F FB7EBDE01 // [  1 -17  -6 -10]
@70 FFFE7EBFD // [ -3 -11  -7  -1]
@71 0600FF3F0 // [-16  -7   3  12]
@72 077EC0002 // [ 2  0 -5 14]
@73 FB0100601 // [  1   3   4 -10]
@74 0981001FA // [-6  0  4 19]
@75 0C0080212 // [18  1  2 24]
@76 027B40009 // [  9   0 -19   4]
@77 000140406 // [6 2 5 0]
@78 0286FF3F2 // [-14  -7  27   5]
@79 0805FE20E // [ 14 -15  23  16]
@7A FF807F00E // [14 -8  1 -1]
@7B 00047F3FA // [-6 -7 17  0]
@7C FCFEC1207 // [ 7  9 -5 -7]
@7D FF7F7F7F7 // [-9 -5 -3 -2]
@7E F8838120E // [ 14   9  14 -15]
@7F 0783BEFF5 // [-11  -9  14  15]
@80 138301A0B // [11 13 12 39]
@81 FE0181E18 // [24 15  6 -4]
@82 01007E80C // [ 12 -12   1   2]
@83 0201017F3 // [-13  11   4   4]
@84 FA02BFDFE // [ -2  -2  10 -12]
@85 050080FF4 // [-12   7   2  10]
@86 0304FFE08 // [ 8 -1 19  6]
@87 198682C00 // [ 0 22 26 51]
@88 06FF82C2C // [44 22 -2 13]
@89 FAFF7F402 // [  2  -6  -3 -11]
@8A 03FCBFBF9 // [ -7  -3 -14   7]
@8B FDFEBFA04 // [ 4 -3 -6 -5]
@8C F500C1C13 // [ 19  14   3 -22]
@8D 0481801F8 // [-8  0  6  9]
@8E 158882009 // [ 9 16 34 43]
@8F FF8703C32 // [50 30 28 -1]
@90 FFFD81401 // [  1  10 -10  -1]
@91 088000FF4 // [-12   7   0  17]
@92 F4FE81211 // [ 17   9  -6 -23]
@93 FE0141E0E // [14 15  5 -4]
@94 07FEBF5F6 // [-10  -6  -6  15]
@95 0E8880401 // [ 1  2 34 29]
@96 078404C16 // [22 38 16 15]
@97 FF79FE000 // [  0 -16 -25  -2]
@98 FF00BEBF2 // [-14 -11   2  -2]
@99 FA7FBFA09 // [  9  -3  -2 -12]
@9A 0001BF7FC // [-4 -5  6  0]
@9B 04FFBD5FA // [ -6 -22  -2   9]
@9C 0780C2209 // [ 9 17  3 15]
@9D 0203C1E0F // [15 15 15  4]
@9E 007A801FA // [ -6   0 -22   0]
@9F 048001A06 // [ 6 13  0  9]
@A0 FC7DC0203 // [ 3  1 -9 -8]
@A1 027E40408 // [ 8  2 -7  4]
@A2 00007E1F8 // [ -8 -16   1   0]
@A3 098201009 // [ 9  8  8 19]
@A4 0D8540A13 // [19  5 21 27]
@A5 FF7C00200 // [  0   1 -16  -2]
@A6 00007FDF6 // [-10  -2   1   0]
@A7 F77EBF3F8 // [ -8  -7  -6 -18]
@A8 0203809FF // [-1  4 14  4]
@A9 04F93E9FB // [ -5 -12 -28   9]
@AA 0383C0600 // [ 0  3 15  7]
@AB 0F0501412 // [18 10 20 30]
@AC 000280414 // [20  2 10  0]
@AD 04033E7EE // [-18 -13  12   8]
@AE FE02C01F9 // [-7  0 11 -4]
@AF 02FEC09F4 // [-12   4  -5   5]
@B0 0278C25EF // [-17  18 -29   4]
@B1 01FFBE1ED // [-19 -16  -2   3]
@B2 0400BF9FE // [-2 -4  2  8]
@B3 F3FB00206 // [  6   1 -20 -25]
@B4 06867FA00 // [ 0 -3 25 13]
@B5 0480BE5F7 // [ -9 -14   2   9]
@B6 FDFF41E01 // [ 1 15 -3 -5]
@B7 0282C1A02 // [ 2 13 11  5]
@B8 00013F7FF // [-1 -5  4  0]
@B9 F7FB41BF6 // [-10  13 -19 -17]
@BA 0481005F4 // [-12   2   4   9]
@BB 00023FC00 // [ 0 -2  8  0]
@BC FF8041203 // [ 3  9  1 -1]
@BD 06007F9FD // [-3 -4  1 12]
@BE 017CC0002 // [  2   0 -13   2]
@BF F87EC05FD // [ -3   2  -5 -16]
@C0 FE817F817 // [23 -4  5 -3]
@C1 01FF00400 // [ 0  2 -4  3]
@C2 028340E04 // [ 4  7 13  5]
@C3 FF7F80808 // [ 8  4 -2 -2]
