@0 07003FC03 // [ 3 -2  0 14]
@1 FB0582200 // [  0  17  22 -10]
@2 0480801FE // [-2  0  2  9]
@3 08FE7F9F6 // [-10  -4  -7  17]
@4 008041209 // [9 9 1 1]
@5 FDFE413FD // [-3  9 -7 -5]
@6 FD7FFFDF5 // [-11  -2  -1  -6]
@7 057D40E02 // [  2   7 -11  10]
@8 FA80807FE // [ -2   3   2 -11]
@9 FA013E1FE // [ -2 -16   4 -12]
@A 00FCFE201 // [  1 -15 -13   1]
@B FF01FF1F9 // [-7 -8  7 -2]
@C 0380BFE0D // [13 -1  2  7]
@D 04800000A // [10  0  0  9]
@E FD7F42400 // [ 0 18 -3 -6]
@F FF7F405F8 // [-8  2 -3 -2]
@10 F5817F1FD // [ -3  -8   5 -21]
@11 01FDFF9F8 // [-8 -4 -9  3]
@12 FE81FE609 // [  9 -13   7  -3]
@13 0581C1BF9 // [-7 13  7 11]
@14 FD80FF400 // [ 0 -6  3 -5]
@15 007FBF40D // [13 -6 -2  0]
@16 0380BF001 // [ 1 -8  2  7]
@17 F4803D40A // [ 10 -22   0 -23]
@18 FB7C3C5FA // [ -6 -30 -16 -10]
@19 FE7F3FA05 // [ 5 -3 -4 -4]
@1A FE017E401 // [  1 -14   5  -4]
@1B 0301C0C04 // [4 6 7 6]
@1C 00FE00003 // [ 3  0 -8  1]
@1D FD7E401FE // [-2  0 -7 -6]
@1E F4FE3E800 // [  0 -12  -8 -23]
@1F FD003F5EE // [-18  -6   0  -6]
@20 FF803EBEF // [-17 -11   0  -1]
@21 008180FFC // [-4  7  6  1]
@22 FB7F003F6 // [-10   1  -4 -10]
@23 FF7C3EBF2 // [-14 -11 -16  -2]
@24 FA8080003 // [  3   0   2 -11]
@25 ECF83C1E0 // [-32 -32 -32 -39]
@26 FBFF3ADEA // [-22 -42  -4  -9]
@27 00813DFFE // [ -2 -17   4   1]
@28 04074420C // [12 33 29  8]
@29 00803F004 // [ 4 -8  0  1]
@2A FDFC807F6 // [-10   3 -14  -5]
@2B F2817E1F5 // [-11 -16   5 -27]
@2C ECF7FC5CF // [-49 -30 -33 -39]
@2D F2803C3E1 // [-31 -31   0 -27]
@2E 08003E1E4 // [-28 -16   0  16]
@2F 0401C281D // [29 20  7  8]
@30 F7FF8000C // [ 12   0  -2 -17]
@31 FA7FC27FC // [ -4  19  -1 -12]
@32 F07F801FB // [ -5   0  -2 -32]
@33 F075BB3DB // [-37 -39 -42 -32]
@34 F37B3EDE9 // [-23 -10 -20 -26]
@35 0AFD3EFD8 // [-40  -9 -12  21]
@36 080501800 // [ 0 12 20 16]
@37 057F3EE00 // [ 0 -9 -4 10]
@38 007D00208 // [  8   1 -12   0]
@39 F9F8BE9FB // [ -5 -12 -30 -13]
@3A F0FB7D7E5 // [-27 -21 -19 -31]
@3B F9003F7D5 // [-43  -5   0 -14]
@3C FE82001FD // [-3  0  8 -3]
@3D F6FFBEDFD // [ -3 -10  -2 -19]
@3E FE02BF1FC // [-4 -8 10 -4]
@3F 0583C1A04 // [ 4 13 15 11]
@40 F779BFA06 // [  6  -3 -26 -18]
@41 F5787CBE0 // [-32 -27 -31 -22]
@42 0D0340DFC // [-4  6 13 26]
@43 FAFEC1E03 // [  3  15  -5 -11]
@44 FB807EDFE // [ -2 -10   1  -9]
@45 FCFD401F4 // [-12   0 -11  -7]
@46 FCFF003FB // [-5  1 -4 -7]
@47 F2003F1F6 // [-10  -8   0 -28]
@48 FD7ABDDF4 // [-12 -18 -22  -6]
@49 0C0AC460F // [15 35 43 24]
@4A F6FC40605 // [  5   3 -15 -19]
@4B 047DBF9E3 // [-29  -4 -10   8]
@4C F900811FA // [ -6   8   2 -14]
@4D FA83409FA // [ -6   4  13 -11]
@4E FF7F40215 // [21  1 -3 -2]
@4F FE7A7FFF9 // [ -7  -1 -23  -4]
@50 110D85E10 // [16 47 54 34]
@51 F8FB7D1FF // [ -1 -24 -19 -15]
@52 007F7DDE4 // [-28 -18  -3   0]
@53 0000C0208 // [8 1 3 0]
@54 FFFC803F7 // [ -9   1 -14  -1]
@55 FEFDFF414 // [20 -6 -9 -3]
@56 EDF9FDDEB // [-21 -18 -25 -37]
@57 0D0D42E00 // [ 0 23 53 26]
@58 FE7BFC5F0 // [-16 -30 -17  -4]
@59 00003FBFA // [-6 -3  0  0]
@5A FB00FEE00 // [  0  -9   3 -10]
@5B 02017F008 // [ 8 -8  5  4]
@5C FA7FC1801 // [  1  12  -1 -12]
@5D EBF2FC200 // [  0 -31 -53 -41]
@5E 0C08813F1 // [-15   9  34  24]
@5F F4773A1EE // [-18 -48 -36 -24]
@60 FCFB3F5F5 // [-11  -6 -20  -7]
@61 06803FFF9 // [-7 -1  0 13]
@62 F88280201 // [  1   1  10 -15]
@63 FFFBFFE04 // [  4  -1 -17  -1]
@64 EE73BB7DC // [-36 -37 -50 -36]
@65 048A02BF9 // [-7 21 40  9]
@66 FDF5389E1 // [-31 -60 -44  -5]
@67 017D3F3F8 // [ -8  -7 -12   2]
@68 FC7D00400 // [  0   2 -12  -8]
@69 FCFF3E60F // [ 15 -13  -4  -7]
@6A F87E3E3F9 // [ -7 -15  -8 -16]
@6B F1F8BC1DE // [-34 -32 -30 -29]
@6C 000803602 // [ 2 27 32  0]
@6D E973B75E5 // [-27 -70 -50 -46]
@6E F57CBD5E4 // [-28 -22 -14 -22]
@6F 0100801F5 // [-11   0   2   2]
@70 FD803F1F0 // [-16  -8   0  -5]
@71 F17DFF1F9 // [ -7  -8  -9 -30]
@72 007C7E1F3 // [-13 -16 -15   0]
@73 FA8905BF2 // [-14  45  36 -11]
@74 E9F3769D1 // [-47 -76 -51 -45]
@75 017ABCBE2 // [-30 -27 -22   2]
@76 F6017E7F5 // [-11 -13   5 -20]
@77 067FBF9F8 // [-8 -4 -2 12]
@78 FB78BE3F7 // [ -9 -15 -30 -10]
@79 0003007E4 // [-28   3  12   0]
@7A F20744810 // [ 16  36  29 -28]
@7B EDF038BC8 // [-56 -59 -64 -37]
@7C FC7D7D1EF // [-17 -24 -11  -8]
@7D 00FE3EFF6 // [-10  -9  -8   1]
@7E FD7DC0010 // [16  0 -9 -6]
@7F F5783E602 // [  2 -13 -32 -22]
@80 070280BFD // [-3  5 10 14]
@81 EF0203418 // [ 24  26   8 -34]
@82 F1F6BADD5 // [-43 -42 -38 -29]
@83 F8F87C7DC // [-36 -29 -31 -15]
@84 FA8041BFC // [ -4  13   1 -11]
@85 FB803EE04 // [ 4 -9  0 -9]
@86 F9FABDC07 // [  7 -18 -22 -13]
@87 FA81415EE // [-18  10   5 -11]
@88 FAFDC07FA // [ -6   3  -9 -11]
@89 FB74BD7D4 // [-44 -21 -46 -10]
@8A F5FC3B9DB // [-37 -36 -16 -21]
@8B FF01BF7F6 // [-10  -5   6  -2]
@8C FB80C23FF // [-1 17  3 -9]
@8D FF7B7F5F9 // [ -7  -6 -19  -2]
@8E 047F81605 // [ 5 11 -2  8]
@8F F6FAFFFE4 // [-28  -1 -21 -19]
@90 F47BFE9F1 // [-15 -12 -17 -24]
@91 FC7ABD9E4 // [-28 -20 -22  -8]
@92 FA01C01F6 // [-10   0   7 -12]
@93 FE810060A // [10  3  4 -3]
@94 00003EBEF // [-17 -11   0   0]
@95 F87F80C04 // [  4   6  -2 -16]
@96 F8797B3FB // [ -5 -39 -27 -16]
@97 EFF7C0204 // [  4   1 -33 -33]
@98 FEF93CDE4 // [-28 -26 -28  -3]
@99 F5FEC0002 // [  2   0  -5 -21]
@9A FE7D4041E // [ 30   2 -11  -4]
@9B FE0680BFA // [-6  5 26 -4]
@9C FBFF80002 // [ 2  0 -2 -9]
@9D 047D3F9E4 // [-28  -4 -12   8]
@9E F3FD3F210 // [ 16  -7 -12 -25]
@9F 04FF3C402 // [  2 -30  -4   9]
@A0 FCFCC11FD // [ -3   8 -13  -7]
@A1 FF00001F9 // [-7  0  0 -2]
@A2 0589C19F7 // [-9 12 39 11]
@A3 020182021 // [33 16  6  4]
@A4 067E80A05 // [ 5  5 -6 12]
@A5 0380C0A08 // [8 5 3 7]
@A6 FDFEFC9F6 // [-10 -28  -5  -5]
@A7 F701FF3FE // [ -2  -7   7 -18]
@A8 FEFE001F5 // [-11   0  -8  -3]
@A9 00813F3F5 // [-11  -7   4   1]
@AA F77F3EDF9 // [ -7 -10  -4 -18]
@AB FD7B3E3F6 // [-10 -15 -20  -6]
@AC FA007EDFF // [ -1 -10   1 -12]
@AD 03FDC07FF // [-1  3 -9  7]
@AE F2FE81606 // [  6  11  -6 -27]
@AF FD7FBE9FD // [ -3 -12  -2  -6]
@B0 F7FEBF9FE // [ -2  -4  -6 -17]
@B1 F079FF600 // [  0  -5 -25 -32]
@B2 0179BF7E5 // [-27  -5 -26   2]
@B3 02007F803 // [ 3 -4  1  4]
@B4 FD0001205 // [ 5  9  0 -6]
@B5 03817FFFE // [-2 -1  5  7]
@B6 0302BFE04 // [ 4 -1 10  6]
@B7 037F7E9F9 // [ -7 -12  -3   6]
@B8 FC7E3E3F5 // [-11 -15  -8  -8]
@B9 FB7CC0BF1 // [-15   5 -13 -10]
@BA FE7EC01E0 // [-32   0  -5  -4]
@BB 03FE80006 // [ 6  0 -6  7]
@BC FF0102DF3 // [-13  22   4  -2]
@BD FF7CC03F7 // [ -9   1 -13  -2]
@BE 057D8020A // [ 10   1 -10  10]
@BF FE02013FE // [-2  9  8 -4]
@C0 FDFF3F80B // [11 -4 -4 -5]
@C1 FEFD3D9F9 // [ -7 -20 -12  -3]
@C2 FF7F80602 // [ 2  3 -2 -2]
@C3 FDFD40BFF // [ -1   5 -11  -5]
