@0 FFFFFFFFF // [-1 -1 -1 -1]
@1 F780C0E0B // [ 11   7   3 -17]
@2 FEFEFF803 // [ 3 -4 -5 -3]
@3 FDFF415FA // [-6 10 -3 -5]
@4 F98281C0E // [ 14  14  10 -13]
@5 FC82C03FC // [-4  1 11 -7]
@6 040001FF2 // [-14  15   0   8]
@7 07FE7E40F // [ 15 -14  -7  15]
@8 F900413FE // [ -2   9   1 -14]
@9 FFFF80E07 // [ 7  7 -2 -1]
@A 0B01BEC00 // [  0 -10   6  22]
@B 007FC13FE // [-2  9 -1  0]
@C 03803EDED // [-19 -10   0   7]
@D FD83003FD // [-3  1 12 -5]
@E 028180BFB // [-5  5  6  5]
@F 0482BFE0B // [11 -1 10  9]
@10 047D80E00 // [  0   7 -10   8]
@11 FAFA3E9FD // [ -3 -12 -24 -11]
@12 037FC0DFE // [-2  6 -1  6]
@13 0402BFA0A // [10 -3 10  8]
@14 00813F005 // [ 5 -8  4  1]
@15 FB01FFA06 // [  6  -3   7 -10]
@16 047FBEFF6 // [-10  -9  -2   8]
@17 F97EFE5F9 // [ -7 -14  -5 -14]
@18 037B3F1F5 // [-11  -8 -20   6]
@19 027FC1401 // [ 1 10 -1  4]
@1A FD7F00FFE // [-2  7 -4 -6]
@1B 077CC0E13 // [ 19   7 -13  14]
@1C FBFDC03EC // [-20   1  -9  -9]
@1D FE7E01806 // [ 6 12 -8 -4]
@1E 00FC3FDF9 // [ -7  -2 -16   1]
@1F FF797F607 // [  7  -5 -27  -2]
@20 00827F3F8 // [-8 -7  9  1]
@21 0603BF7FC // [-4 -5 14 12]
@22 FF8140A00 // [ 0  5  5 -1]
@23 0301FFBFD // [-3 -3  7  6]
@24 0A863FFFF // [-1 -1 24 21]
@25 06807E40F // [ 15 -14   1  13]
@26 F77BBE400 // [  0 -14 -18 -18]
@27 0180FE9EC // [-20 -12   3   3]
@28 0B7E82806 // [ 6 20 -6 22]
@29 000180A19 // [25  5  6  0]
@2A 028340614 // [20  3 13  5]
@2B 07007FA00 // [ 0 -3  1 14]
@2C 038180806 // [6 4 6 7]
@2D 03843E9FF // [ -1 -12  16   7]
@2E 088201E1C // [28 15  8 17]
@2F 06FF02006 // [ 6 16 -4 13]
@30 0003001F1 // [-15   0  12   0]
@31 01FF7FE00 // [ 0 -1 -3  3]
@32 010380C0F // [15  6 14  2]
@33 000181DF9 // [-7 14  6  0]
@34 0C85C1207 // [ 7  9 23 25]
@35 080845012 // [18 40 33 16]
@36 0282C1C04 // [ 4 14 11  5]
@37 FEFF3EBF2 // [-14 -11  -4  -3]
@38 04FF005F8 // [-8  2 -4  9]
@39 FB803EE00 // [ 0 -9  0 -9]
@3A F97B7CDFB // [ -5 -26 -19 -14]
@3B 09823DFEC // [-20 -17   8  19]
@3C 0B8841C13 // [19 14 33 23]
@3D 068081818 // [24 12  2 13]
@3E 058480605 // [ 5  3 18 11]
@3F 0281C0802 // [2 4 7 5]
@40 F8804020A // [ 10   1   1 -15]
@41 ED737D3E9 // [-23 -23 -51 -38]
@42 05003DFF1 // [-15 -17   0  10]
@43 0A04C2A14 // [20 21 19 20]
@44 F9FEC1E10 // [ 16  15  -5 -13]
@45 04FDC1DFB // [-5 14 -9  9]
@46 FF807E1FA // [ -6 -16   1  -1]
@47 F87D3F212 // [ 18  -7 -12 -16]
@48 F2F73BBEC // [-20 -35 -36 -27]
@49 077F3C5ED // [-19 -30  -4  14]
@4A 0A05C322B // [43 25 23 20]
@4B F801BE414 // [ 20 -14   6 -16]
@4C FCFF80A01 // [ 1  5 -2 -7]
@4D 0400BEC09 // [  9 -10   2   8]
@4E 0083BFA00 // [ 0 -3 14  1]
@4F 0A80FDDF3 // [-13 -18   3  21]
@50 067C3EFFE // [ -2  -9 -16  12]
@51 0D068580C // [12 44 26 26]
@52 EF7A7F40B // [ 11  -6 -23 -34]
@53 00003F7F9 // [-7 -5  0  0]
@54 028100A12 // [18  5  4  5]
@55 077F00005 // [ 5  0 -4 14]
@56 0D0A017FE // [-2 11 40 26]
@57 1400C1E0B // [11 15  3 40]
@58 09860181B // [27 12 24 19]
@59 F6FB7D1F7 // [ -9 -24 -19 -19]
@5A 007F7EDF2 // [-14 -10  -3   0]
@5B 007EBEA02 // [  2 -11  -6   0]
@5C 128782A00 // [ 0 21 30 37]
@5D 118B04C26 // [38 38 44 35]
@5E FD84BFFF8 // [-8 -1 18 -5]
@5F 06838421D // [29 33 14 13]
@60 F0FFC05FE // [ -2   2  -1 -31]
@61 FB82BFFF2 // [-14  -1  10  -9]
@62 07003EA14 // [ 20 -11   0  14]
@63 0B078300D // [13 24 30 22]
@64 FE8843417 // [23 26 33 -3]
@65 FA7D3F80B // [ 11  -4 -12 -12]
@66 070984415 // [21 34 38 14]
@67 F78002013 // [ 19  16   0 -17]
@68 06FE7EBF5 // [-11 -11  -7  13]
@69 FB7F3EE19 // [ 25  -9  -4 -10]
@6A 160642A00 // [ 0 21 25 44]
@6B 0484C2229 // [41 17 19  9]
@6C FDFBFF813 // [ 19  -4 -17  -5]
@6D 1106C6010 // [16 48 27 34]
@6E F901C1A17 // [ 23  13   7 -14]
@6F FD7FFF9ED // [-19  -4  -1  -6]
@70 FCFFBE7FF // [ -1 -13  -2  -7]
@71 078443205 // [ 5 25 17 15]
@72 F47A3E40B // [ 11 -14 -24 -24]
@73 047C3E9EE // [-18 -12 -16   8]
@74 0D0A83A0C // [12 29 42 26]
@75 000603C14 // [20 30 24  0]
@76 F881C01E2 // [-30   0   7 -15]
@77 FD0000004 // [ 4  0  0 -6]
@78 07850100F // [15  8 20 15]
@79 EEF67CFF2 // [-14 -25 -39 -35]
@7A 0EFDFC9E6 // [-26 -28  -9  29]
@7B 0B078360F // [15 27 30 22]
@7C F30380600 // [  0   3  14 -26]
@7D FB017D9FA // [ -6 -20   5 -10]
@7E 03807E5FD // [ -3 -14   1   7]
@7F FD7DC2414 // [20 18 -9 -6]
@80 ECF77B7E1 // [-31 -37 -35 -39]
@81 057FBD3D2 // [-46 -23  -2  10]
@82 0C8942E18 // [24 23 37 25]
@83 FF0083200 // [ 0 25  2 -2]
@84 F97FBF7E3 // [-29  -5  -2 -14]
@85 078100002 // [ 2  0  4 15]
@86 028282822 // [34 20 10  5]
@87 E6F67B5ED // [-19 -38 -39 -51]
@88 01FB7BDCF // [-49 -34 -19   3]
@89 010100005 // [5 0 4 2]
@8A F7FE4100F // [ 15   8  -7 -17]
@8B FC81BDFF9 // [ -7 -17   6  -7]
@8C 057DFFC07 // [ 7 -2 -9 10]
@8D F5FF4140F // [ 15  10  -3 -21]
@8E EDF6BDBF8 // [ -8 -19 -38 -37]
@8F FCFE7D9C3 // [-61 -20  -7  -7]
@90 058241805 // [ 5 12  9 11]
@91 F8FABC803 // [  3 -28 -22 -15]
@92 FD80FFA03 // [ 3 -3  3 -5]
@93 0201C01FE // [-2  0  7  4]
@94 007BFE80A // [ 10 -12 -17   0]
@95 F77B3F1EF // [-17  -8 -20 -18]
@96 F9F9FD5E2 // [-30 -22 -25 -13]
@97 03FF7F203 // [ 3 -7 -3  7]
@98 02003E3FB // [ -5 -15   0   4]
@99 06803FC01 // [ 1 -2  0 13]
@9A 020142401 // [ 1 18  5  4]
@9B 0180FFC00 // [ 0 -2  3  3]
@9C F2FBFF9F8 // [ -8  -4 -17 -27]
@9D FCF63C5E8 // [-24 -30 -40  -7]
@9E 0281C17EF // [-17  11   7   5]
@9F FCFEBEFFD // [-3 -9 -6 -7]
@A0 007EBF801 // [ 1 -4 -6  0]
@A1 FD80017FC // [-4 11  0 -5]
@A2 09087FFFE // [-2 -1 33 18]
@A3 F2FEC19F0 // [-16  12  -5 -27]
@A4 F37DFB1E6 // [-26 -40  -9 -26]
@A5 0682013F6 // [-10   9   8  13]
@A6 F67F00BF9 // [ -7   5  -4 -20]
@A7 FB837E001 // [  1 -16  13  -9]
@A8 057F81FF6 // [-10  15  -2  10]
@A9 1005C39EF // [-17  28  23  32]
@AA FE00C2604 // [ 4 19  3 -4]
@AB F87D3D5F7 // [ -9 -22 -12 -16]
@AC FE82FF9FE // [-2 -4 11 -3]
@AD 0803C0C08 // [ 8  6 15 16]
@AE 027F00C04 // [ 4  6 -4  4]
@AF 0080FFFFB // [-5 -1  3  1]
@B0 1001813F6 // [-10   9   6  32]
@B1 0B0583217 // [23 25 22 22]
@B2 067FC0608 // [ 8  3 -1 12]
@B3 050301C09 // [ 9 14 12 10]
@B4 027D7FA05 // [  5  -3 -11   4]
@B5 FBFFBFC03 // [ 3 -2 -2 -9]
@B6 018100E00 // [0 7 4 3]
@B7 01FF3FE06 // [ 6 -1 -4  3]
@B8 0203007FD // [-3  3 12  4]
@B9 FC8300609 // [ 9  3 12 -7]
@BA 010100204 // [4 1 4 2]
@BB FBFFBFC04 // [ 4 -2 -2 -9]
@BC FFFEC15F5 // [-11  10  -5  -1]
@BD 0380009FA // [-6  4  0  7]
@BE 00FE3F603 // [ 3 -5 -8  1]
@BF 0101803FC // [-4  1  6  2]
@C0 037F023F9 // [-7 17 -4  6]
@C1 FF803EC02 // [  2 -10   0  -1]
@C2 0302FF7F9 // [-7 -5 11  6]
@C3 02FEBFA16 // [22 -3 -6  5]
