@0 FDFDC0405 // [ 5  2 -9 -5]
@1 02FB7EFF2 // [-14  -9 -19   5]
@2 037CC1604 // [  4  11 -13   6]
@3 06FEC0205 // [ 5  1 -5 13]
@4 FEFF00609 // [ 9  3 -4 -3]
@5 FC8081000 // [ 0  8  2 -7]
@6 047F0100B // [11  8 -4  8]
@7 FBFD015F9 // [ -7  10 -12  -9]
@8 000081606 // [ 6 11  2  0]
@9 000082A12 // [18 21  2  0]
@A FE01BE60B // [ 11 -13   6  -4]
@B 01007E1F5 // [-11 -16   1   2]
@C FEFE7D5FC // [ -4 -22  -7  -3]
@D 0200C180D // [13 12  3  4]
@E 007F82E0B // [11 23 -2  0]
@F 027F40000 // [ 0  0 -3  4]
@10 FE01C0003 // [ 3  0  7 -4]
@11 FE7EFF3F3 // [-13  -7  -5  -4]
@12 F47F7FFED // [-19  -1  -3 -24]
@13 F60300009 // [  9   0  12 -20]
@14 00827F201 // [ 1 -7  9  1]
@15 03823F400 // [ 0 -6  8  7]
@16 FAFBFE1F8 // [ -8 -16 -17 -11]
@17 FDFFFEBF7 // [ -9 -11  -1  -5]
@18 FB7CBE000 // [  0 -16 -14 -10]
@19 F47EBE7FF // [ -1 -13  -6 -24]
@1A 067EBFE00 // [ 0 -1 -6 12]
@1B FE7E001FF // [-1  0 -8 -4]
@1C 03047FFFC // [-4 -1 17  6]
@1D FA050100A // [ 10   8  20 -12]
@1E F67B3EBFB // [ -5 -11 -20 -20]
@1F F7753C7D6 // [-42 -29 -44 -18]
@20 FE7CFD9F0 // [-16 -20 -13  -4]
@21 06FFFFFFE // [-2 -1 -1 13]
@22 02003E60A // [ 10 -13   0   4]
@23 00027FDF4 // [-12  -2   9   0]
@24 FA7E7F200 // [  0  -7  -7 -12]
@25 F5FA3D9E3 // [-29 -20 -24 -21]
@26 E1F87B5DB // [-37 -38 -31 -61]
@27 F0F53A3CB // [-53 -47 -44 -31]
@28 FDFF3EA06 // [  6 -11  -4  -5]
@29 F9FF80005 // [  5   0  -2 -13]
@2A FFFEBF9FC // [-4 -4 -6 -1]
@2B FEFEC05F2 // [-14   2  -5  -3]
@2C EFFBBBFF9 // [ -7 -33 -18 -33]
@2D EEFABA1E3 // [-29 -48 -22 -35]
@2E 05FD7C5DF // [-33 -30 -11  11]
@2F 0B05401EF // [-17   0  21  22]
@30 FF837F602 // [ 2 -5 13 -1]
@31 077EC2009 // [ 9 16 -5 14]
@32 037FFF9FC // [-4 -4 -1  6]
@33 007EBCA06 // [  6 -27  -6   0]
@34 F8FD3EDF4 // [-12 -10 -12 -15]
@35 018401601 // [ 1 11 16  3]
@36 0F820441F // [31 34  8 31]
@37 FEFF80011 // [17  0 -2 -3]
@38 018080FFD // [-3  7  2  3]
@39 FD7C811F7 // [ -9   8 -14  -6]
@3A 00FCC0002 // [  2   0 -13   1]
@3B 0600BFDFF // [-1 -2  2 12]
@3C 0E0B84E11 // [17 39 46 28]
@3D 108543423 // [35 26 21 33]
@3E 000000E0E // [14  7  0  0]
@3F FF02009FA // [-6  4  8 -2]
@40 03017F806 // [ 6 -4  5  6]
@41 047FFDFF5 // [-11 -17  -1   8]
@42 138DC1814 // [20 12 55 39]
@43 128A05C2E // [46 46 40 37]
@44 0E86C2C0F // [15 22 27 29]
@45 FB7EC461F // [ 31  35  -5 -10]
@46 0085BF1FE // [-2 -8 22  1]
@47 03FE3FE10 // [16 -1 -8  7]
@48 0181BE807 // [  7 -12   6   3]
@49 1A0B437F9 // [-7 27 45 52]
@4A 120684627 // [39 35 26 36]
@4B 028644C2D // [45 38 25  5]
@4C 0100C0811 // [17  4  3  2]
@4D 0A80C1C0D // [13 14  3 21]
@4E 07FF0220B // [11 17 -4 15]
@4F 06803E411 // [ 17 -14   0  13]
@50 118484819 // [25 36 18 35]
@51 FC8402E28 // [40 23 16 -7]
@52 028041A03 // [ 3 13  1  5]
@53 00FD41A07 // [  7  13 -11   1]
@54 038081801 // [ 1 12  2  7]
@55 0C0102801 // [ 1 20  4 24]
@56 020240000 // [0 0 9 4]
@57 0207BDDFB // [ -5 -18  30   4]
@58 F3FBBD60F // [ 15 -21 -18 -25]
@59 F8027E7FA // [ -6 -13   9 -16]
@5A 017F3CE07 // [  7 -25  -4   2]
@5B 0A003F607 // [ 7 -5  0 20]
@5C 0E8101E04 // [ 4 15  4 29]
@5D 0102C1C12 // [18 14 11  2]
@5E F3F7BE5EC // [-20 -14 -34 -25]
@5F F4787BDF0 // [-16 -34 -31 -24]
@60 047E001FE // [-2  0 -8  8]
@61 FF7D7F804 // [  4  -4 -11  -2]
@62 047E005FA // [-6  2 -8  8]
@63 0481419F6 // [-10  12   5   9]
@64 F80141416 // [ 22  10   5 -16]
@65 F4F8FCBDD // [-35 -27 -29 -23]
@66 F6FA7BDE9 // [-23 -34 -23 -19]
@67 0301BEFFB // [-5 -9  6  6]
@68 0581BFFF4 // [-12  -1   6  11]
@69 027FC0FF9 // [-7  7 -1  4]
@6A 0705015FD // [-3 10 20 14]
@6B EF7ABF3FA // [ -6  -7 -22 -34]
@6C F575BA3DA // [-38 -47 -42 -22]
@6D F6807E7D9 // [-39 -13   1 -19]
@6E FFFB805F8 // [ -8   2 -18  -1]
@6F F9803FA0D // [ 13  -3   0 -13]
@70 007F4181C // [28 12 -3  0]
@71 080041816 // [22 12  1 16]
@72 EDFBBFC10 // [ 16  -2 -18 -37]
@73 F3FA7ABDF // [-33 -43 -23 -25]
@74 FC7DBF7F3 // [-13  -5 -10  -8]
@75 087DBEFF2 // [-14  -9 -10  16]
@76 0B7E3F5FB // [-5 -6 -8 22]
@77 08017F9FF // [-1 -4  5 16]
@78 088240800 // [ 0  4  9 17]
@79 F3FB4000A // [ 10   0 -19 -25]
@7A F67FFF3E6 // [-26  -7  -1 -20]
@7B FC7E7E9FD // [ -3 -12  -7  -8]
@7C FA7D3F5EF // [-17  -6 -12 -12]
@7D 0082807F8 // [-8  3 10  1]
@7E FEFAC1DF8 // [ -8  14 -21  -3]
@7F 0A0000401 // [ 1  2  0 20]
@80 F9FE40E15 // [ 21   7  -7 -13]
@81 FF05C1DF8 // [-8 14 23 -2]
@82 EF7E80BF1 // [-15   5  -6 -34]
@83 F8FB3E1EF // [-17 -16 -20 -15]
@84 0280007F2 // [-14   3   0   5]
@85 0001C1000 // [0 8 7 0]
@86 0104FE800 // [  0 -12  19   2]
@87 067DFFC00 // [ 0 -2 -9 12]
@88 F30002A0B // [ 11  21   0 -26]
@89 F1757B9D8 // [-40 -36 -43 -30]
@8A FC7C3C5EA // [-22 -30 -16  -8]
@8B FFFF7DE0A // [ 10 -17  -3  -1]
@8C FB84C09FD // [-3  4 19 -9]
@8D FB00001F5 // [-11   0   0 -10]
@8E FDFF7FE0C // [12 -1 -3 -5]
@8F FD7C7F615 // [ 21  -5 -15  -6]
@90 E8773A5E0 // [-32 -46 -36 -48]
@91 FA7B3CDE3 // [-29 -26 -20 -12]
@92 FD81C01F0 // [-16   0   7  -5]
@93 0280C1E09 // [ 9 15  3  5]
@94 FFFBFDBF9 // [ -7 -19 -17  -1]
@95 04FD007F4 // [-12   3 -12   9]
@96 E8F7BA3E5 // [-27 -47 -34 -47]
@97 F676BADC8 // [-56 -42 -38 -20]
@98 F67DBD7F0 // [-16 -21 -10 -20]
@99 0500401F7 // [-9  0  1 10]
@9A FCFCC100A // [ 10   8 -13  -7]
@9B 00007E3F1 // [-15 -15   1   0]
@9C F380FFFEC // [-20  -1   3 -25]
@9D F6FCBE1E1 // [-31 -16 -14 -19]
@9E F2FABE7E9 // [-23 -13 -22 -27]
@9F 057EFDDED // [-19 -18  -5  10]
@A0 FF817FBFB // [-5 -3  5 -1]
@A1 FF7E7EE01 // [ 1 -9 -7 -2]
@A2 040000606 // [6 3 0 8]
@A3 F87A3F800 // [  0  -4 -24 -16]
@A4 FEFA7D9F2 // [-14 -20 -23  -3]
@A5 F37C403EA // [-22   1 -15 -26]
@A6 F984007F8 // [ -8   3  16 -13]
@A7 FA003F205 // [  5  -7   0 -12]
@A8 0001C01F1 // [-15   0   7   0]
@A9 008181400 // [ 0 10  6  1]
@AA F4FCC01FF // [ -1   0 -13 -23]
@AB FF807FBE4 // [-28  -3   1  -1]
@AC F3017FFF3 // [-13  -1   5 -26]
@AD FC00007F0 // [-16   3   0  -8]
@AE 007F81208 // [ 8  9 -2  0]
@AF FF01C1008 // [ 8  8  7 -2]
@B0 0581C0C0B // [11  6  7 11]
@B1 088441A05 // [ 5 13 17 17]
@B2 08840020D // [13  1 16 17]
@B3 000141C17 // [23 14  5  0]
@B4 07FAFE605 // [  5 -13 -21  15]
@B5 FE7D801F7 // [ -9   0 -10  -4]
@B6 008141608 // [ 8 11  5  1]
@B7 FB037FE04 // [  4  -1  13 -10]
@B8 0781FE205 // [  5 -15   7  15]
@B9 0D023FC08 // [ 8 -2  8 26]
@BA 0481C1E07 // [ 7 15  7  9]
@BB FE00015FA // [-6 10  0 -4]
@BC F87FC05ED // [-19   2  -1 -16]
@BD 0300C01FF // [-1  0  3  6]
@BE 037F82209 // [ 9 17 -2  6]
@BF 02013F3FA // [-6 -7  4  4]
@C0 037E80008 // [ 8  0 -6  6]
@C1 FB008140B // [ 11  10   2 -10]
@C2 0080411F8 // [-8  8  1  1]
@C3 FE0200802 // [ 2  4  8 -4]
