@0 05FE40A02 // [ 2  5 -7 11]
@1 FD0001203 // [ 3  9  0 -6]
@2 F9FDBF7F1 // [-15  -5 -10 -13]
@3 097EFDA07 // [  7 -19  -5  18]
@4 F700015F7 // [ -9  10   0 -18]
@5 FF013EC09 // [  9 -10   4  -2]
@6 038240A00 // [0 5 9 7]
@7 0002021FC // [-4 16  8  0]
@8 02003FA06 // [ 6 -3  0  4]
@9 FE803FBF5 // [-11  -3   0  -3]
@A 03FFBE9F6 // [-10 -12  -2   7]
@B 028382FFE // [-2 23 14  5]
@C 007E805F8 // [-8  2 -6  0]
@D 03FD01BF5 // [-11  13 -12   7]
@E 01FDFEE06 // [ 6 -9 -9  3]
@F FCFFC07FB // [-5  3 -1 -7]
@10 04023EE01 // [ 1 -9  8  8]
@11 0201C0E0F // [15  7  7  4]
@12 038000403 // [3 2 0 7]
@13 FC84FE213 // [ 19 -15  19  -7]
@14 FC7E41000 // [ 0  8 -7 -8]
@15 FE01BF3FE // [-2 -7  6 -4]
@16 03003F3FB // [-5 -7  0  6]
@17 FC038120A // [10  9 14 -8]
@18 097C81001 // [  1   8 -14  18]
@19 027FFFBFA // [-6 -3 -1  4]
@1A FD0201C05 // [ 5 14  8 -6]
@1B FBFFC0DFF // [-1  6 -1 -9]
@1C 04FC40E04 // [  4   7 -15   9]
@1D 0401C13FE // [-2  9  7  8]
@1E FC8041E0A // [10 15  1 -7]
@1F 00FF805FC // [-4  2 -2  1]
@20 0001FE1FF // [ -1 -16   7   0]
@21 0380BE403 // [  3 -14   2   7]
@22 F4823F80C // [ 12  -4   8 -23]
@23 0301FEDFD // [ -3 -10   7   6]
@24 098000006 // [ 6  0  0 19]
@25 FF7F40407 // [ 7  2 -3 -2]
@26 0782FF603 // [ 3 -5 11 15]
@27 F9FE01E04 // [  4  15  -8 -13]
@28 01FD00008 // [  8   0 -12   3]
@29 017FC09F6 // [-10   4  -1   2]
@2A 058480E05 // [ 5  7 18 11]
@2B FFFFC01F9 // [-7  0 -1 -1]
@2C F6803FA02 // [  2  -3   0 -19]
@2D F5F5FD5F4 // [-12 -22 -41 -21]
@2E 047D3F1F1 // [-15  -8 -12   8]
@2F 00003E3F9 // [ -7 -15   0   0]
@30 04FFFFC08 // [ 8 -2 -1  9]
@31 087DBF209 // [  9  -7 -10  16]
@32 0783C03F7 // [-9  1 15 15]
@33 F37B41001 // [  1   8 -19 -26]
@34 EF777A7D9 // [-39 -45 -35 -34]
@35 08FCFA9E1 // [-31 -44 -13  17]
@36 F7033FA02 // [  2  -3  12 -18]
@37 05017FA06 // [ 6 -3  5 10]
@38 0AFF3FFF2 // [-14  -1  -4  21]
@39 0580007F9 // [-7  3  0 11]
@3A FBFD41400 // [  0  10 -11  -9]
@3B EDFCBD5ED // [-19 -22 -14 -37]
@3C 067FBF1EF // [-17  -8  -2  12]
@3D FA040261D // [ 29  19  16 -12]
@3E 07803DFF3 // [-13 -17   0  15]
@3F 01023F7FF // [-1 -5  8  2]
@40 0205401FF // [-1  0 21  4]
@41 F0FB3EDF3 // [-13 -10 -20 -31]
@42 0081FC9F3 // [-13 -28   7   1]
@43 130142C16 // [22 22  5 38]
@44 FE844401F // [31 32 17 -3]
@45 FF02BFC03 // [ 3 -2 10 -2]
@46 F501FFDF4 // [-12  -2   7 -22]
@47 02FCFF9F8 // [ -8  -4 -13   5]
@48 EFF93EBF2 // [-14 -11 -28 -33]
@49 150600DFA // [-6  6 24 42]
@4A 098300C0F // [15  6 12 19]
@4B FC0242A0C // [12 21  9 -8]
@4C FD807D1F7 // [ -9 -24   1  -5]
@4D 037D40E0D // [ 13   7 -11   6]
@4E F57C7DC05 // [  5 -18 -15 -22]
@4F 017A7D9E4 // [-28 -20 -23   2]
@50 1588C17F9 // [-7 11 35 43]
@51 0482FF42B // [43 -6 11  9]
@52 0002C3206 // [ 6 25 11  0]
@53 03003F5FE // [-2 -6  0  6]
@54 FC047FBFB // [-5 -3 17 -8]
@55 FAFB3F3FD // [ -3  -7 -20 -11]
@56 FCFDFD5F9 // [ -7 -22  -9  -7]
@57 1B09C3E09 // [ 9 31 39 54]
@58 088000E19 // [25  7  0 17]
@59 FEFDC3008 // [ 8 24 -9 -3]
@5A 0280FE208 // [  8 -15   3   5]
@5B FE803E5FB // [ -5 -14   0  -3]
@5C F97B7F9F2 // [-14  -4 -19 -14]
@5D 007DBBDFA // [ -6 -34 -10   0]
@5E 128842BFA // [-6 21 33 37]
@5F 040340E1D // [29  7 13  8]
@60 F780C2410 // [ 16  18   3 -17]
@61 017F80FF5 // [-11   7  -2   2]
@62 FF7C81404 // [  4  10 -14  -2]
@63 FF7DFE3F8 // [ -8 -15  -9  -2]
@64 0404801EF // [-17   0  18   8]
@65 0A8E42DF8 // [-8 22 57 21]
@66 030242A2F // [47 21  9  6]
@67 00FD8000C // [ 12   0 -10   1]
@68 047CFFBFC // [ -4  -3 -13   8]
@69 0D0640201 // [ 1  1 25 26]
@6A 04853FDFD // [-3 -2 20  9]
@6B F77C00017 // [ 23   0 -16 -18]
@6C 208CC6007 // [ 7 48 51 65]
@6D 02808381D // [29 28  2  5]
@6E F97C3CDEF // [-17 -26 -16 -14]
@6F 030000FFD // [-3  7  0  6]
@70 0281BFFEE // [-18  -1   6   5]
@71 0986BFA01 // [ 1 -3 26 19]
@72 0A0903E2D // [45 31 36 20]
@73 241288A1A // [26 69 74 72]
@74 F7FD80E2C // [ 44   7 -10 -17]
@75 FCFC805F4 // [-12   2 -14  -7]
@76 FB82011FA // [-6  8  8 -9]
@77 FFFF3FFFD // [-3 -1 -4 -1]
@78 128241604 // [ 4 11  9 37]
@79 148B0582B // [43 44 44 41]
@7A 229889844 // [68 76 98 69]
@7B F9FEFF019 // [ 25  -8  -5 -13]
@7C FAFCFDFF6 // [-10 -17 -13 -11]
@7D FB80803F9 // [-7  1  2 -9]
@7E FE7FFF804 // [ 4 -4 -1 -4]
@7F 0C827DBF9 // [ -7 -19   9  25]
@80 188A04627 // [39 35 40 49]
@81 16980A650 // [80 83 96 45]
@82 FBFC7D617 // [ 23 -21 -15  -9]
@83 017F7D1F1 // [-15 -24  -3   2]
@84 FF817EFF7 // [-9 -9  5 -1]
@85 FC00C0BEF // [-17   5   3  -8]
@86 00033F1FD // [-3 -8 12  0]
@87 0D85C3A14 // [20 29 23 27]
@88 070985826 // [38 44 38 14]
@89 FFFCFDE06 // [  6 -17 -13  -1]
@8A 00003E1EE // [-18 -16   0   0]
@8B FE0180801 // [ 1  4  6 -4]
@8C FF817EC0C // [ 12 -10   5  -1]
@8D 02FFBEE09 // [ 9 -9 -2  5]
@8E 0284C1C10 // [16 14 19  5]
@8F FF8300A1D // [29  5 12 -1]
@90 0080BF000 // [ 0 -8  2  1]
@91 007E813FC // [-4  9 -6  0]
@92 FF04C0A14 // [20  5 19 -2]
@93 FF007FE04 // [ 4 -1  1 -2]
@94 00FFC1FFD // [-3 15 -1  1]
@95 090202208 // [ 8 17  8 18]
@96 FB7F7F3F9 // [ -7  -7  -3 -10]
@97 FF7F3F9EF // [-17  -4  -4  -2]
@98 FF8500FFA // [-6  7 20 -1]
@99 FF7C40A03 // [  3   5 -15  -2]
@9A FA8180403 // [  3   2   6 -11]
@9B 0A82C1A04 // [ 4 13 11 21]
@9C F702C1816 // [ 22  12  11 -18]
@9D F078FBBFC // [ -4 -35 -29 -32]
@9E 0800FD9F5 // [-11 -20   3  16]
@9F FE8000206 // [ 6  1  0 -3]
@A0 00813FBF3 // [-13  -3   4   1]
@A1 0601C0000 // [ 0  0  7 12]
@A2 00FF3FBF4 // [-12  -3  -4   1]
@A3 F77B3D805 // [  5 -20 -20 -18]
@A4 FEFA7B3EB // [-21 -39 -23  -3]
@A5 0300FEFF7 // [-9 -9  3  6]
@A6 FE000020E // [14  1  0 -4]
@A7 FF7DC160A // [10 11 -9 -2]
@A8 0280BF809 // [ 9 -4  2  5]
@A9 FB017FC00 // [  0  -2   5 -10]
@AA F77AFDFFD // [ -3 -17 -21 -18]
@AB FCFE3E5EF // [-17 -14  -8  -7]
@AC 027DFD600 // [  0 -21  -9   4]
@AD 00FE423FA // [-6 17 -7  1]
@AE 02813FDFC // [-4 -2  4  5]
@AF 01FF3FFFD // [-3 -1 -4  3]
@B0 FD7FC01FC // [-4  0 -1 -6]
@B1 EF7DFC7F7 // [ -9 -29  -9 -34]
@B2 F9FF7D5E6 // [-26 -22  -3 -13]
@B3 037DBEDFD // [ -3 -10 -10   6]
@B4 06817FFFE // [-2 -1  5 13]
@B5 058340007 // [ 7  0 13 11]
@B6 037E809FF // [-1  4 -6  6]
@B7 F6FE42405 // [  5  18  -7 -19]
@B8 0A003F7FA // [-6 -5  0 20]
@B9 F5FFBE200 // [  0 -15  -2 -21]
@BA F47D801F4 // [-12   0 -10 -24]
@BB 030081602 // [ 2 11  2  6]
@BC 057F3FBF8 // [-8 -3 -4 10]
@BD 0080BDE04 // [  4 -17   2   1]
@BE FA003FE06 // [  6  -1   0 -12]
@BF 008240006 // [6 0 9 1]
@C0 03813DFFD // [ -3 -17   4   7]
@C1 F7FFBDC02 // [  2 -18  -2 -17]
@C2 037D7E9F6 // [-10 -12 -11   6]
@C3 FB81C0C04 // [ 4  6  7 -9]
