@0 027BC120A // [ 10   9 -17   4]
@1 03013FE05 // [ 5 -1  4  6]
@2 0081BFDF5 // [-11  -2   6   1]
@3 0381FFC04 // [ 4 -2  7  7]
@4 000241C04 // [ 4 14  9  0]
@5 FE7F401FD // [-3  0 -3 -4]
@6 FB01BFC03 // [  3  -2   6 -10]
@7 FF82FFE03 // [ 3 -1 11 -1]
@8 007F00407 // [ 7  2 -4  0]
@9 03FFBF3F1 // [-15  -7  -2   7]
@A FE803EFF8 // [-8 -9  0 -3]
@B FF7DBFE02 // [  2  -1 -10  -2]
@C 067F00208 // [ 8  1 -4 12]
@D 02FF0120B // [11  9 -4  5]
@E 037D7FDFF // [ -1  -2 -11   6]
@F FF80C0FF7 // [-9  7  3 -1]
@10 017FC0A02 // [ 2  5 -1  2]
@11 FBFE00009 // [ 9  0 -8 -9]
@12 0601C1FF9 // [-7 15  7 12]
@13 FC8281011 // [17  8 10 -7]
@14 FC01823FF // [-1 17  6 -8]
@15 FB7E80003 // [  3   0  -6 -10]
@16 007EBEFF6 // [-10  -9  -6   0]
@17 00027F9FD // [-3 -4  9  0]
@18 F8FF3C3F4 // [-12 -31  -4 -15]
@19 FFFCBF9F9 // [ -7  -4 -14  -1]
@1A 028281E0B // [11 15 10  5]
@1B 0200FDFFF // [ -1 -17   3   4]
@1C F981FF80C // [ 12  -4   7 -13]
@1D FA7E809FA // [ -6   4  -6 -12]
@1E F476FF1EC // [-20  -8 -37 -24]
@1F F77D3DFE7 // [-25 -17 -12 -18]
@20 0C807FA06 // [ 6 -3  1 25]
@21 07847EE03 // [ 3 -9 17 15]
@22 F48100E0D // [ 13   7   4 -23]
@23 FF824000C // [12  0  9 -1]
@24 02FFFFFF0 // [-16  -1  -1   5]
@25 FE80C01F3 // [-13   0   3  -3]
@26 F980803FD // [ -3   1   2 -13]
@27 06FC7DE00 // [  0 -17 -15  13]
@28 140500A13 // [19  5 20 40]
@29 FC8140E1C // [28  7  5 -7]
@2A 05FF7FDFB // [-5 -2 -3 11]
@2B F479BF9FE // [ -2  -4 -26 -24]
@2C 0383407FE // [-2  3 13  7]
@2D 050280819 // [25  4 10 10]
@2E 03013FDFE // [-2 -2  4  6]
@2F 1183001FE // [-2  0 12 35]
@30 F9FF3EE14 // [ 20  -9  -4 -13]
@31 FD7B3CC0A // [ 10 -26 -20  -6]
@32 FBFC7DBF4 // [-12 -19 -15  -9]
@33 0F0580E00 // [ 0  7 22 30]
@34 06048080D // [13  4 18 12]
@35 0603C01F9 // [-7  0 15 12]
@36 0082025EB // [-21  18   8   1]
@37 FEFEFE208 // [  8 -15  -5  -3]
@38 FB81C11F4 // [-12   8   7  -9]
@39 01FE7E7ED // [-19 -13  -7   3]
@3A 0B03031FC // [-4 24 12 22]
@3B F877BD40B // [ 11 -22 -34 -16]
@3C 057CC19FD // [ -3  12 -13  10]
@3D FE7CBF9F8 // [ -8  -4 -14  -4]
@3E 0001C1C11 // [17 14  7  0]
@3F F87C3FE0E // [ 14  -1 -16 -16]
@40 FB803DBE5 // [-27 -19   0  -9]
@41 058681618 // [24 11 26 11]
@42 E26D7BBF8 // [ -8 -35 -75 -60]
@43 ECF93C7EC // [-20 -29 -28 -39]
@44 00F97C1F0 // [-16 -32 -27   1]
@45 00FC819FF // [ -1  12 -14   1]
@46 F8003FE04 // [  4  -1   0 -16]
@47 0982FFDEA // [-22  -2  11  19]
@48 090906414 // [20 50 36 18]
@49 E2EC791F6 // [-10 -56 -79 -59]
@4A EFFB7DFDA // [-38 -17 -19 -33]
@4B FD777BFE4 // [-28 -33 -35  -6]
@4C F8FF3EFF3 // [-13  -9  -4 -15]
@4D F98040FF4 // [-12   7   1 -13]
@4E 0D81811F7 // [-9  8  6 27]
@4F 0F8A8442E // [46 34 42 31]
@50 EC6DB83FF // [ -1 -63 -74 -40]
@51 F57BBE5F1 // [-15 -14 -18 -22]
@52 F8FA7D1E6 // [-26 -24 -23 -15]
@53 0C7EBFDF8 // [-8 -2 -6 24]
@54 FDFF00A15 // [21  5 -4 -5]
@55 1109015F7 // [-9 10 36 34]
@56 0608C3620 // [32 27 35 12]
@57 F2EFB9FFF // [ -1 -49 -66 -27]
@58 F77F00403 // [  3   2  -4 -18]
@59 0003FE3FE // [ -2 -15  15   0]
@5A FD7DFE800 // [  0 -12  -9  -6]
@5B 0101BF3F3 // [-13  -7   6   2]
@5C 1A88439FF // [-1 28 33 53]
@5D 0A06C4224 // [36 33 27 20]
@5E F073FA3FD // [ -3 -47 -49 -32]
@5F 0A02803FF // [-1  1 10 20]
@60 0702C13FF // [-1  9 11 14]
@61 007C80008 // [  8   0 -14   0]
@62 F97AFE9FC // [ -4 -12 -21 -14]
@63 198BC37FD // [-3 27 47 51]
@64 0D0643E2B // [43 31 25 26]
@65 EE74FA80B // [ 11 -44 -45 -36]
@66 0180409FA // [-6  4  1  3]
@67 0A0400011 // [17  0 16 20]
@68 037FBD000 // [  0 -24  -2   6]
@69 0480C23FE // [-2 17  3  9]
@6A 0D07C37F1 // [-15  27  31  26]
@6B 0905C3427 // [39 26 23 18]
@6C F7F4BA9EE // [-18 -44 -46 -17]
@6D 007F3FFF1 // [-15  -1  -4   0]
@6E 03023FBF4 // [-12  -3   8   6]
@6F F7FFFF7F5 // [-11  -5  -1 -17]
@70 FEFE017F0 // [-16  11  -8  -3]
@71 0880C11FB // [-5  8  3 17]
@72 07838301C // [28 24 14 15]
@73 F8F3FABEB // [-21 -43 -49 -15]
@74 04FA401EC // [-20   0 -23   9]
@75 0381813FF // [-1  9  6  7]
@76 027FFE200 // [  0 -15  -1   4]
@77 F17DBF80D // [ 13  -4 -10 -30]
@78 03FE3F205 // [ 5 -7 -8  7]
@79 FE8041BFC // [-4 13  1 -3]
@7A F4F9FB7F9 // [ -7 -37 -25 -23]
@7B 0206401F1 // [-15   0  25   4]
@7C 0280BFC02 // [ 2 -2  2  5]
@7D FE7FFE9ED // [-19 -12  -1  -4]
@7E F101C1604 // [  4  11   7 -30]
@7F 0000FCDFB // [ -5 -26   3   0]
@80 F87F7E603 // [  3 -13  -3 -16]
@81 F9FEBB7E9 // [-23 -37  -6 -13]
@82 09803FFFB // [-5 -1  0 19]
@83 FE78801FA // [ -6   0 -30  -4]
@84 007BBEFFC // [ -4  -9 -18   0]
@85 FB82FF404 // [ 4 -6 11 -9]
@86 FFFEFC9F0 // [-16 -28  -5  -1]
@87 027CFEDF1 // [-15 -10 -13   4]
@88 FFFABB3E4 // [-28 -39 -22  -1]
@89 00027EA08 // [  8 -11   9   0]
@8A FC00FEBF9 // [ -7 -11   3  -8]
@8B 0681FE7F4 // [-12 -13   7  13]
@8C 018000002 // [2 0 0 3]
@8D FE7EFC9F7 // [ -9 -28  -5  -4]
@8E FA7B7BFF7 // [ -9 -33 -19 -12]
@8F 037F7FBE3 // [-29  -3  -3   6]
@90 0083BFA01 // [ 1 -3 14  1]
@91 FEFD40E03 // [  3   7 -11  -3]
@92 FB03FFBF9 // [ -7  -3  15 -10]
@93 FD02001FE // [-2  0  8 -6]
@94 F37A3C400 // [  0 -30 -24 -26]
@95 037C3EBF7 // [ -9 -11 -16   6]
@96 04FF7F81C // [28 -4 -3  9]
@97 087F0300B // [11 24 -4 16]
@98 007E81C12 // [18 14 -6  0]
@99 02FE3FC00 // [ 0 -2 -8  5]
@9A F9803FC02 // [  2  -2   0 -13]
@9B FA787FDEF // [-17  -2 -31 -12]
@9C 00FD7F9FA // [ -6  -4 -11   1]
@9D FCFDC0406 // [ 6  2 -9 -7]
@9E FE84C2812 // [18 20 19 -3]
@9F 0182FF9FF // [-1 -4 11  3]
@A0 01803EC00 // [  0 -10   0   3]
@A1 007FFD80F // [ 15 -20  -1   0]
@A2 F2FB7F3F3 // [-13  -7 -19 -27]
@A3 FC02BE9F7 // [ -9 -12  10  -8]
@A4 007E3E60B // [ 11 -13  -8   0]
@A5 080381200 // [ 0  9 14 16]
@A6 000180613 // [19  3  6  0]
@A7 0100BEE0B // [11 -9  2  2]
@A8 FE7F409F8 // [-8  4 -3 -4]
@A9 FB7F3F9F7 // [ -9  -4  -4 -10]
@AA F97D005F2 // [-14   2 -12 -14]
@AB F9FDFEFFE // [ -2  -9  -9 -13]
@AC 07827FE03 // [ 3 -1  9 15]
@AD 0E064100A // [10  8 25 28]
@AE FEFE8120D // [13  9 -6 -3]
@AF 0A043FC08 // [ 8 -2 16 20]
@B0 FDFF40002 // [ 2  0 -3 -5]
@B1 F701401F9 // [ -7   0   5 -18]
@B2 F9FEFD5EE // [-18 -22  -5 -13]
@B3 047F80DEA // [-22   6  -2   8]
@B4 02FB80206 // [  6   1 -18   5]
@B5 FC7F7EE04 // [ 4 -9 -3 -8]
@B6 03803F800 // [ 0 -4  0  7]
@B7 02013FBFE // [-2 -3  4  4]
@B8 017F7F1EB // [-21  -8  -3   2]
@B9 FD7E7F9FE // [-2 -4 -7 -6]
@BA FEFEBF5F4 // [-12  -6  -6  -3]
@BB 007EFE203 // [  3 -15  -5   0]
@BC 01FD7F7FC // [ -4  -5 -11   3]
@BD FD7E417F8 // [-8 11 -7 -6]
@BE 0702025F4 // [-12  18   8  14]
@BF FF02C1800 // [ 0 12 11 -2]
@C0 02FF7E808 // [  8 -12  -3   5]
@C1 0503C17F8 // [-8 11 15 10]
@C2 FCFEFFDF1 // [-15  -2  -5  -7]
@C3 FB8001A05 // [ 5 13  0 -9]
