@0 FDFE7DBFF // [ -1 -19  -7  -5]
@1 0503009F7 // [-9  4 12 10]
@2 027EFF80E // [14 -4 -5  4]
@3 FCFF7F809 // [ 9 -4 -3 -7]
@4 0303FFBFB // [-5 -3 15  6]
@5 FC00BE5F3 // [-13 -14   2  -8]
@6 FFFEBF1FA // [-6 -8 -6 -1]
@7 FBFF40803 // [ 3  4 -3 -9]
@8 0580BEE04 // [ 4 -9  2 11]
@9 00013F601 // [ 1 -5  4  0]
@A FAFEFF80E // [ 14  -4  -5 -11]
@B 0400C020A // [10  1  3  8]
@C FDFDFFFF7 // [-9 -1 -9 -5]
@D 097FBFFFA // [-6 -1 -2 18]
@E 007E7F609 // [ 9 -5 -7  0]
@F 0C7F7FE06 // [ 6 -1 -3 24]
@10 01013E609 // [  9 -13   4   2]
@11 0000C0DF9 // [-7  6  3  0]
@12 03014060E // [14  3  5  6]
@13 FFFF0140D // [13 10 -4 -1]
@14 06837EDFD // [ -3 -10  13  13]
@15 FE06803F8 // [-8  1 26 -4]
@16 017E7F7FC // [-4 -5 -7  2]
@17 F8FE42404 // [  4  18  -7 -15]
@18 037F401F0 // [-16   0  -3   6]
@19 0806017FE // [-2 11 24 16]
@1A 0180FF9FC // [-4 -4  3  3]
@1B F7FEC07F0 // [-16   3  -5 -17]
@1C FF7FC23E6 // [-26  17  -1  -2]
@1D 01FFBFC03 // [ 3 -2 -2  3]
@1E F87EC0BEE // [-18   5  -5 -16]
@1F F6F93DBEB // [-21 -19 -28 -19]
@20 077F3E9DF // [-33 -12  -4  14]
@21 020480419 // [25  2 18  4]
@22 098300408 // [ 8  2 12 19]
@23 007E001FE // [-2  0 -8  0]
@24 FF01401FD // [-3  0  5 -2]
@25 F17700000 // [  0   0 -36 -30]
@26 F07A7C5E1 // [-31 -30 -23 -32]
@27 FCFDBF9E1 // [-31  -4 -10  -7]
@28 0781FF80D // [13 -4  7 15]
@29 01803F012 // [18 -8  0  3]
@2A 047EBF001 // [ 1 -8 -6  8]
@2B 02FDBFDFE // [ -2  -2 -10   5]
@2C F7FABEBE6 // [-26 -11 -22 -17]
@2D F07DFEFDA // [-38  -9  -9 -32]
@2E FE7D3E7ED // [-19 -13 -12  -4]
@2F 08FFFFFFB // [-5 -1 -1 17]
@30 FAFEC0A06 // [  6   5  -5 -11]
@31 017EBF205 // [ 5 -7 -6  2]
@32 FBFD01A07 // [  7  13 -12  -9]
@33 F175BE3E7 // [-25 -15 -42 -30]
@34 FE7DFDFE7 // [-25 -17  -9  -4]
@35 F3F9BE9FF // [ -1 -12 -26 -25]
@36 FE7B7EDEA // [-22 -10 -19  -4]
@37 007EFDE0F // [ 15 -17  -5   0]
@38 03007F9FF // [-1 -4  1  6]
@39 F8F8BDE00 // [  0 -17 -30 -15]
@3A EFF57B5CB // [-53 -38 -43 -33]
@3B F5FFBD7E0 // [-32 -21  -2 -21]
@3C E7FA7E7F2 // [-14 -13 -23 -49]
@3D F57DBCBE1 // [-31 -27 -10 -22]
@3E 027B3F9EE // [-18  -4 -20   4]
@3F FDFF3F1FF // [-1 -8 -4 -5]
@40 E9FBBEDF4 // [-12 -10 -18 -45]
@41 F0F43E1D3 // [-45 -16 -48 -31]
@42 F7FCBFDF4 // [-12  -2 -14 -17]
@43 F476BF1EF // [-17  -8 -38 -24]
@44 F2F67BDE2 // [-30 -34 -39 -27]
@45 F8FB7E7D6 // [-42 -13 -19 -15]
@46 F6FEC0C02 // [  2   6  -5 -19]
@47 F27BFC5F3 // [-13 -30 -17 -28]
@48 F27C7D1D9 // [-39 -24 -15 -28]
@49 FE007E7EC // [-20 -13   1  -4]
@4A F3783D5EE // [-18 -22 -32 -26]
@4B ECF23D3DB // [-37 -23 -56 -39]
@4C 04FBFC3EE // [-18 -31 -17   9]
@4D FBFEBEE02 // [ 2 -9 -6 -9]
@4E F9FEBF1F0 // [-16  -8  -6 -13]
@4F 047E7F5FD // [-3 -6 -7  8]
@50 FF8101A1A // [26 13  4 -1]
@51 F57EC001A // [ 26   0  -5 -22]
@52 F2FEFD3F7 // [ -9 -23  -5 -27]
@53 007FBEBE6 // [-26 -11  -2   0]
@54 F80181FFF // [ -1  15   6 -16]
@55 FC7CBF5F4 // [-12  -6 -14  -8]
@56 0E0541DF4 // [-12  14  21  28]
@57 0D06C1E36 // [54 15 27 26]
@58 FE01C2225 // [37 17  7 -4]
@59 0101BEFFD // [-3 -9  6  2]
@5A FC7EBD5F9 // [ -7 -22  -6  -8]
@5B FC82801FE // [-2  0 10 -7]
@5C 0B0380FFC // [-4  7 14 22]
@5D 130702811 // [17 20 28 38]
@5E 16878241F // [31 18 30 45]
@5F FE0283026 // [38 24 10 -4]
@60 0483417FA // [-6 11 13  9]
@61 FE02FD80F // [ 15 -20  11  -4]
@62 FD81FE00C // [ 12 -16   7  -5]
@63 02FD80004 // [  4   0 -10   5]
@64 108902A18 // [24 21 36 33]
@65 0A840001A // [26  0 16 21]
@66 008083228 // [40 25  2  1]
@67 030280406 // [ 6  2 10  6]
@68 057FBE002 // [  2 -16  -2  10]
@69 FC82C0404 // [ 4  2 11 -7]
@6A FD007D400 // [  0 -22   1  -6]
@6B 050780A15 // [21  5 30 10]
@6C 0B85BF814 // [20 -4 22 23]
@6D FAF901424 // [ 36  10 -28 -11]
@6E FD0000600 // [ 0  3  0 -6]
@6F 03023EDFA // [ -6 -10   8   6]
@70 01FE00405 // [ 5  2 -8  3]
@71 F77AFE9FC // [ -4 -12 -21 -18]
@72 0D0242002 // [ 2 16  9 26]
@73 0D04FF9F6 // [-10  -4  19  26]
@74 F58000002 // [  2   0   0 -21]
@75 02FE005F8 // [-8  2 -8  5]
@76 F581BFFFD // [ -3  -1   6 -21]
@77 F80080600 // [  0   3   2 -16]
@78 F476FCFE6 // [-26 -25 -37 -24]
@79 FE81FFFED // [-19  -1   7  -3]
@7A 0686C23F1 // [-15  17  27  13]
@7B F0FDFCFF2 // [-14 -25  -9 -31]
@7C E7F6BCFEC // [-20 -25 -38 -49]
@7D 05FDFE5F6 // [-10 -14  -9  11]
@7E 008000008 // [8 0 0 1]
@7F EA74BCBE2 // [-30 -27 -46 -44]
@80 F8F93E1E7 // [-25 -16 -28 -15]
@81 FF02809F8 // [-8  4 10 -2]
@82 F27EFE3F6 // [-10 -15  -5 -28]
@83 F37BFBDF2 // [-14 -34 -17 -26]
@84 F97EFD9E9 // [-23 -20  -5 -14]
@85 F9813F408 // [  8  -6   4 -13]
@86 E0F43BDF4 // [-12 -34 -48 -63]
@87 FAFE7B7D5 // [-43 -37  -7 -11]
@88 04018000E // [14  0  6  8]
@89 FAFCBEC02 // [  2 -10 -14 -11]
@8A F6F53E1F1 // [-15 -16 -44 -19]
@8B 0004BF1E8 // [-24  -8  18   0]
@8C 017E7FA00 // [ 0 -3 -7  2]
@8D E3F4BD1FB // [ -5 -24 -46 -57]
@8E 027C39BD1 // [-47 -51 -16   4]
@8F 0C054360E // [14 27 21 24]
@90 F20181A22 // [ 34  13   6 -28]
@91 EE74FC1F6 // [-10 -32 -45 -36]
@92 FD8000DF2 // [-14   6   0  -5]
@93 FBFFC0800 // [ 0  4 -1 -9]
@94 E6F83DFF7 // [ -9 -17 -32 -51]
@95 017C7C5DD // [-35 -30 -15   2]
@96 078AC1A1C // [28 13 43 15]
@97 F3FE7F408 // [  8  -6  -7 -25]
@98 F8F9BCBD4 // [-44 -27 -26 -15]
@99 FB7F40404 // [  4   2  -3 -10]
@9A 00FEBFFF3 // [-13  -1  -6   1]
@9B FA7C7EDFD // [ -3 -10 -15 -12]
@9C FB043FFEB // [-21  -1  16 -10]
@9D F8813E801 // [  1 -12   4 -15]
@9E F7803F3EF // [-17  -7   0 -17]
@9F FA7B00DEB // [-21   6 -20 -12]
@A0 FE8041801 // [ 1 12  1 -3]
@A1 FE0100DFB // [-5  6  4 -4]
@A2 FF7DC1A07 // [ 7 13 -9 -2]
@A3 01FD00800 // [  0   4 -12   3]
@A4 F3F77C5E4 // [-28 -30 -35 -25]
@A5 F6FC3CDEE // [-18 -26 -16 -19]
@A6 FA833F9F3 // [-13  -4  12 -11]
@A7 03010180C // [12 12  4  6]
@A8 057C7F800 // [  0  -4 -15  10]
@A9 05FE815F8 // [-8 10 -6 11]
@AA FD8140809 // [ 9  4  5 -5]
@AB EDFD7DDF7 // [ -9 -18 -11 -37]
@AC 0300017F0 // [-16  11   0   6]
@AD 0C02BFFF6 // [-10  -1  10  24]
@AE FF84BF208 // [ 8 -7 18 -1]
@AF FF8241A0C // [12 13  9 -1]
@B0 FD8200DFA // [-6  6  8 -5]
@B1 F97DFEFF2 // [-14  -9  -9 -14]
@B2 F97BBDDE0 // [-32 -18 -18 -14]
@B3 0D7CFF5F1 // [-15  -6 -13  26]
@B4 F97F00C09 // [  9   6  -4 -14]
@B5 04FFFEC01 // [  1 -10  -1   9]
@B6 FDFC80801 // [  1   4 -14  -5]
@B7 FF02C2E01 // [ 1 23 11 -2]
@B8 F2FB80803 // [  3   4 -18 -27]
@B9 017DBF1ED // [-19  -8 -10   2]
@BA FE7F3EA00 // [  0 -11  -4  -4]
@BB 0001009F7 // [-9  4  4  0]
@BC FE7EC000D // [13  0 -5 -4]
@BD 037DBF3FA // [ -6  -7 -10   6]
@BE 04013F612 // [18 -5  4  8]
@BF FBFF7E601 // [  1 -13  -3  -9]
@C0 01FD819F0 // [-16  12 -10   3]
@C1 FF7F3F80D // [13 -4 -4 -2]
@C2 FBFD7F7FB // [ -5  -5 -11  -9]
@C3 00FBFEC08 // [  8 -10 -17   1]
