@0 0581407FC // [-4  3  5 11]
@1 07FD81200 // [  0   9 -10  15]
@2 0000FEBF7 // [ -9 -11   3   0]
@3 FE81403FD // [-3  1  5 -3]
@4 FF7D3FBFE // [ -2  -3 -12  -2]
@5 FC803FC11 // [17 -2  0 -7]
@6 FF0200BEC // [-20   5   8  -2]
@7 F5000000E // [ 14   0   0 -22]
@8 FE003F7FD // [-3 -5  0 -4]
@9 02FEC0E06 // [ 6  7 -5  5]
@A 0000C1DFC // [-4 14  3  0]
@B FB823F9FD // [-3 -4  8 -9]
@C 0283405FC // [-4  2 13  5]
@D FF0140000 // [ 0  0  5 -2]
@E FB01001FB // [ -5   0   4 -10]
@F 0100BFDF5 // [-11  -2   2   2]
@10 F87D7FE04 // [  4  -1 -11 -16]
@11 01FEBDFEE // [-18 -17  -6   3]
@12 FFFF3E802 // [  2 -12  -4  -1]
@13 06013F602 // [ 2 -5  4 12]
@14 03817F60A // [10 -5  5  7]
@15 FF807FC00 // [ 0 -2  1 -1]
@16 038080C0B // [11  6  2  7]
@17 F57F81605 // [  5  11  -2 -22]
@18 0403FF3FB // [-5 -7 15  8]
@19 FE8041002 // [ 2  8  1 -3]
@1A FD003E7F1 // [-15 -13   0  -6]
@1B FF01001FA // [-6  0  4 -2]
@1C 017D811F9 // [ -7   8 -10   2]
@1D 0382013F6 // [-10   9   8   7]
@1E 018001C0A // [10 14  0  3]
@1F 060642A15 // [21 21 25 12]
@20 FDFDBF3FF // [ -1  -7 -10  -5]
@21 FF027D60C // [ 12 -21   9  -2]
@22 0382027F9 // [-7 19  8  7]
@23 0B7F01604 // [ 4 11 -4 22]
@24 09078140B // [11 10 30 18]
@25 FEFE41A12 // [18 13 -7 -3]
@26 ECFA3D7ED // [-19 -21 -24 -39]
@27 F5F93B7D3 // [-45 -37 -28 -21]
@28 0500801F7 // [-9  0  2 10]
@29 06FF3EDFC // [ -4 -10  -4  13]
@2A 04FE41A0F // [15 13 -7  9]
@2B 0A040080A // [10  4 16 20]
@2C 09058140E // [14 10 22 18]
@2D EEFA405F2 // [-14   2 -23 -35]
@2E F980BAFE7 // [-25 -41   2 -13]
@2F FD80011EE // [-18   8   0  -5]
@30 FF0280007 // [ 7  0 10 -2]
@31 047DC1FFF // [-1 15 -9  8]
@32 1107C3017 // [23 24 31 34]
@33 0B8883814 // [20 28 34 23]
@34 F87F01A19 // [ 25  13  -4 -16]
@35 0AFD3E3E7 // [-25 -15 -12  21]
@36 FFFF80C1C // [28  6 -2 -1]
@37 FEFBC0007 // [  7   0 -17  -3]
@38 FFFE001FC // [-4  0 -8 -1]
@39 0B8443420 // [32 26 17 23]
@3A 0E8181226 // [38  9  6 29]
@3B 068342A1D // [29 21 13 13]
@3C 1582C1204 // [ 4  9 11 43]
@3D FD85C121F // [31  9 23 -5]
@3E 048041000 // [0 8 1 9]
@3F 000280A00 // [ 0  5 10  0]
@40 068443A20 // [32 29 17 13]
@41 F6FEC040E // [ 14   2  -5 -19]
@42 190C8180A // [10 12 50 50]
@43 0701C2E1A // [26 23  7 14]
@44 FC8AC2410 // [16 18 43 -7]
@45 FE0200216 // [22  1  8 -4]
@46 118180404 // [ 4  2  6 35]
@47 FD0343410 // [16 26 13 -6]
@48 FBFC7BDF2 // [-14 -34 -15  -9]
@49 2D95067F8 // [-8 51 84 91]
@4A 0805C2A4A // [74 21 23 16]
@4B FCFC81818 // [ 24  12 -14  -7]
@4C 03FFC3A10 // [16 29 -1  7]
@4D 0A82819FF // [-1 12 10 21]
@4E F87CBF613 // [ 19  -5 -14 -16]
@4F 077F7CDDC // [-36 -26  -3  14]
@50 261086810 // [16 52 66 76]
@51 FF8844E2E // [46 39 33 -1]
@52 EDFA7D007 // [  7 -24 -23 -37]
@53 0282C05F8 // [-8  2 11  5]
@54 07023EBFF // [ -1 -11   8  14]
@55 F6793FA0C // [ 12  -3 -28 -20]
@56 FB75BEBE5 // [-27 -11 -42 -10]
@57 159040DF6 // [-10   6  65  43]
@58 FA03C4827 // [ 39  36  15 -12]
@59 EE747C9E9 // [-23 -28 -47 -36]
@5A 007DFF5E6 // [-26  -6  -9   0]
@5B 007FFEA12 // [ 18 -11  -1   0]
@5C EC77FCDFB // [ -5 -26 -33 -40]
@5D E0F879FE5 // [-27 -49 -31 -63]
@5E FD80FF1CD // [-51  -8   3  -5]
@5F F8837F9F8 // [ -8  -4  13 -15]
@60 F673FBDEC // [-20 -34 -49 -20]
@61 00003EFEF // [-17  -9   0   0]
@62 08828160F // [15 11 10 17]
@63 F274BD7F6 // [-10 -21 -46 -28]
@64 CF6C395CC // [-52 -54 -80 -98]
@65 FBFE7C9BD // [-67 -28  -7  -9]
@66 0805BEBF8 // [ -8 -11  22  16]
@67 F4803F811 // [ 17  -4   0 -23]
@68 FEFEFF9F1 // [-15  -4  -5  -3]
@69 0380005FB // [-5  2  0  7]
@6A E7797A9F7 // [ -9 -44 -27 -50]
@6B DAEDF93D7 // [-41 -55 -73 -75]
@6C 0300FE9BF // [-65 -12   3   6]
@6D 0E85FD9F2 // [-14 -20  23  29]
@6E F98242A22 // [ 34  21   9 -13]
@6F 00FE821FF // [-1 16 -6  1]
@70 020282BEF // [-17  21  10   4]
@71 ED74FDA03 // [  3 -19 -45 -38]
@72 E772B7FC0 // [-64 -65 -54 -50]
@73 FF833FFCF // [-49  -1  12  -1]
@74 11843E3E8 // [-24 -15  16  35]
@75 020286023 // [35 48 10  4]
@76 F982BFE0A // [ 10  -1  10 -13]
@77 FC000040A // [10  2  0 -8]
@78 E6FCC0620 // [ 32   3 -13 -51]
@79 E7F237FC8 // [-56 -65 -56 -49]
@7A FD06425DE // [-34  18  25  -6]
@7B 0502801EF // [-17   0  10  10]
@7C 02014380A // [10 28  5  4]
@7D 07FF007FD // [-3  3 -4 15]
@7E FE81801F6 // [-10   0   6  -3]
@7F EBFC7E81C // [ 28 -12 -15 -41]
@80 EF6F3B1E2 // [-30 -40 -68 -34]
@81 FE85C2FED // [-19  23  23  -3]
@82 08FFC2C00 // [ 0 22 -1 17]
@83 040582A00 // [ 0 21 22  8]
@84 0302FF403 // [ 3 -6 11  6]
@85 09820120A // [10  9  8 19]
@86 FC7F4281B // [27 20 -3 -8]
@87 FD7EFE5F7 // [ -9 -14  -5  -6]
@88 FE858460C // [12 35 22 -3]
@89 FA00C2007 // [  7  16   3 -12]
@8A FD00FFE0A // [10 -1  3 -6]
@8B 028141E01 // [ 1 15  5  5]
@8C 0F7FC01F8 // [-8  0 -1 30]
@8D 0301C0DFF // [-1  6  7  6]
@8E 08004100C // [12  8  1 16]
@8F FF80811FF // [-1  8  2 -1]
@90 01813FC0D // [13 -2  4  3]
@91 FE803DFF9 // [ -7 -17   0  -3]
@92 FD817D7F1 // [-15 -21   5  -5]
@93 007F80BFC // [-4  5 -2  0]
@94 00058040B // [11  2 22  0]
@95 0202C0E0B // [11  7 11  4]
@96 FA02BEA07 // [  7 -11  10 -12]
@97 00004180F // [15 12  1  0]
@98 F9FBBCDF6 // [-10 -26 -18 -13]
@99 0182FE9FE // [ -2 -12  11   3]
@9A FD02813F7 // [-9  9 10 -6]
@9B 038684A16 // [22 37 26  7]
@9C F88201014 // [ 20   8   8 -15]
@9D 037EFDDE1 // [-31 -18  -5   6]
@9E FD7EC23F5 // [-11  17  -5  -6]
@9F FC7C3D406 // [  6 -22 -16  -8]
@A0 FE0101003 // [ 3  8  4 -4]
@A1 0485BDE01 // [  1 -17  22   9]
@A2 138DC4421 // [33 34 55 39]
@A3 FA02007FD // [ -3   3   8 -12]
@A4 03FF7CDF4 // [-12 -26  -3   7]
@A5 F8FE40005 // [  5   0  -7 -15]
@A6 FCFB3D5E5 // [-27 -22 -20  -7]
@A7 FEFFC0BFB // [-5  5 -1 -3]
@A8 0800C13F5 // [-11   9   3  16]
@A9 1205C0BF8 // [-8  5 23 36]
@AA 0E04C1618 // [24 11 19 28]
@AB 048301416 // [22 10 12  9]
@AC F5FDBFBFA // [ -6  -3 -10 -21]
@AD FB003E5E0 // [-32 -14   0 -10]
@AE FB80411FD // [-3  8  1 -9]
@AF FEFF3F5FD // [-3 -6 -4 -3]
@B0 0D0500604 // [ 4  3 20 26]
@B1 178C05418 // [24 42 48 47]
@B2 08874542D // [45 42 29 17]
@B3 FD8202219 // [25 17  8 -5]
@B4 FDFFC0FF4 // [-12   7  -1  -5]
@B5 03FBC09EE // [-18   4 -17   7]
@B6 FFFDFF202 // [ 2 -7 -9 -1]
@B7 FF80001FF // [-1  0  0 -1]
@B8 0881BFDFB // [-5 -2  6 17]
@B9 030481FFF // [-1 15 18  6]
@BA FD7E02201 // [ 1 17 -8 -6]
@BB 0501FD200 // [  0 -23   7  10]
@BC 02027FC00 // [ 0 -2  9  4]
@BD 01823F5FE // [-2 -6  8  3]
@BE 03FCC0005 // [  5   0 -13   7]
@BF FEFCBE401 // [  1 -14 -14  -3]
@C0 0580BFC00 // [ 0 -2  2 11]
@C1 FFFCFFA01 // [  1  -3 -13  -1]
@C2 01037FE01 // [ 1 -1 13  2]
@C3 FA8000A0A // [ 10   5   0 -11]
