@0 FF000060A // [10  3  0 -2]
@1 007E805FD // [-3  2 -6  0]
@2 FEFD001FD // [ -3   0 -12  -3]
@3 FC7E825FC // [-4 18 -6 -8]
@4 FD7DFF1F9 // [-7 -8 -9 -6]
@5 0B7F019FB // [-5 12 -4 22]
@6 F801FF3F6 // [-10  -7   7 -16]
@7 FF7BBF608 // [  8  -5 -18  -2]
@8 0282BF3FB // [-5 -7 10  5]
@9 01FFFF1FC // [-4 -8 -1  3]
@A FF7C02002 // [  2  16 -16  -2]
@B 0100C03F0 // [-16   1   3   2]
@C 05803F7FB // [-5 -5  0 11]
@D 00033D5FC // [ -4 -22  12   0]
@E 01003DFFA // [ -6 -17   0   2]
@F F3817FDFB // [ -5  -2   5 -25]
@10 FDFF80209 // [ 9  1 -2 -5]
@11 F47F80C0B // [ 11   6  -2 -24]
@12 037DBFA0D // [ 13  -3 -10   6]
@13 0702FEBF9 // [ -7 -11  11  14]
@14 FF00C03FD // [-3  1  3 -2]
@15 028140008 // [8 0 5 5]
@16 037EC0DF0 // [-16   6  -5   6]
@17 0701FF606 // [ 6 -5  7 14]
@18 FF017DC00 // [  0 -18   5  -2]
@19 0382BF009 // [ 9 -8 10  7]
@1A FDFDBEA07 // [  7 -11 -10  -5]
@1B FB8640BF6 // [-10   5  25  -9]
@1C FAFE00C01 // [  1   6  -8 -11]
@1D FF7B7F7F6 // [-10  -5 -19  -2]
@1E 0785BFE09 // [ 9 -1 22 15]
@1F 0C03423FF // [-1 17 13 24]
@20 048440818 // [24  4 17  9]
@21 087DFEA02 // [  2 -11  -9  16]
@22 01FD00BFA // [ -6   5 -12   3]
@23 FD00FF9F9 // [-7 -4  3 -6]
@24 04FDFF208 // [ 8 -7 -9  9]
@25 FD013F5EF // [-17  -6   4  -6]
@26 0E80009F2 // [-14   4   0  29]
@27 03074161C // [28 11 29  6]
@28 F5FDC0A00 // [  0   5  -9 -21]
@29 FA7F809FE // [ -2   4  -2 -12]
@2A 080340E10 // [16  7 13 16]
@2B 0581819FA // [-6 12  6 11]
@2C 0000003EF // [-17   1   0   0]
@2D 097DC1604 // [ 4 11 -9 18]
@2E 0F830380C // [12 28 12 31]
@2F F9FC81211 // [ 17   9 -14 -13]
@30 FF0301BFF // [-1 13 12 -2]
@31 FFFF4180A // [10 12 -3 -1]
@32 FFFEC0DF5 // [-11   6  -5  -1]
@33 FC003DC0C // [ 12 -18   0  -8]
@34 04017FDFD // [-3 -2  5  8]
@35 0E03C39F5 // [-11  28  15  28]
@36 047E41C0A // [10 14 -7  8]
@37 058001400 // [ 0 10  0 11]
@38 000480000 // [ 0  0 18  0]
@39 FCFE0120A // [10  9 -8 -7]
@3A FE823FC01 // [ 1 -2  8 -3]
@3B 027F00A10 // [16  5 -4  4]
@3C 10048440C // [12 34 18 32]
@3D 0C0342E14 // [20 23 13 24]
@3E 018000218 // [24  1  0  3]
@3F 0180C000C // [12  0  3  3]
@40 06003EA08 // [  8 -11   0  12]
@41 027E3FE0D // [13 -1 -8  4]
@42 01044120B // [11  9 17  2]
@43 100082C0B // [11 22  2 32]
@44 0C8A02819 // [25 20 40 25]
@45 000004A1A // [26 37  0  0]
@46 F7FF00E0A // [ 10   7  -4 -17]
@47 FD7E81C04 // [ 4 14 -6 -6]
@48 00807DBF8 // [ -8 -19   1   1]
@49 078303C0E // [14 30 12 15]
@4A 02013FA01 // [ 1 -3  4  4]
@4B 100841001 // [ 1  8 33 32]
@4C FF80BE620 // [ 32 -13   2  -1]
@4D FF020160B // [11 11  8 -2]
@4E FC81BE60B // [ 11 -13   6  -7]
@4F FC7BBE3FB // [ -5 -15 -18  -8]
@50 028B043FB // [-5 33 44  5]
@51 FD02BF5FF // [-1 -6 10 -6]
@52 0C82BF5FD // [-3 -6 10 25]
@53 FB017E81F // [ 31 -12   5 -10]
@54 0403405E9 // [-23   2  13   8]
@55 FC7C7E5F2 // [-14 -14 -15  -8]
@56 FDFE3F7FB // [-5 -5 -8 -5]
@57 FC868620E // [14 49 26 -7]
@58 FF7C3D9E0 // [-32 -20 -16  -2]
@59 0C7CBEDF0 // [-16 -10 -14  24]
@5A 007C80FFB // [ -5   7 -14   0]
@5B FF03FEBF9 // [ -7 -11  15  -2]
@5C 02FCBDFFD // [ -3 -17 -14   5]
@5D FE7C7DFFC // [ -4 -17 -15  -4]
@5E F60383C17 // [ 23  30  14 -20]
@5F EFFBFDBDF // [-33 -19 -17 -33]
@60 FA7AFBBDD // [-35 -35 -21 -12]
@61 FE003F5FC // [-4 -6  0 -4]
@62 FE003FC00 // [ 0 -2  0 -4]
@63 FCFAFD7F4 // [-12 -21 -21  -7]
@64 0485C0202 // [ 2  1 23  9]
@65 EB804421E // [ 30  33   1 -41]
@66 F37C3ADE6 // [-26 -42 -16 -26]
@67 FD823E5ED // [-19 -14   8  -5]
@68 01FD0040B // [ 11   2 -12   3]
@69 FDFBC07FD // [ -3   3 -17  -5]
@6A FF7AFF3E2 // [-30  -7 -21  -2]
@6B 0884811FA // [-6  8 18 17]
@6C F17CC2614 // [ 20  19 -13 -30]
@6D F77B795D5 // [-43 -54 -19 -18]
@6E 09007EFF5 // [-11  -9   1  18]
@6F FC800140C // [12 10  0 -7]
@70 FDFE7FA03 // [ 3 -3 -7 -5]
@71 F3FB40E07 // [  7   7 -19 -25]
@72 0C8542E06 // [ 6 23 21 25]
@73 E176FF40B // [ 11  -6 -37 -62]
@74 FF00797C5 // [-59 -53   1  -2]
@75 0202C15FC // [-4 10 11  4]
@76 F98280206 // [  6   1  10 -13]
@77 FEFF3F002 // [ 2 -8 -4 -3]
@78 000480606 // [ 6  3 18  0]
@79 040300001 // [ 1  0 12  8]
@7A EE767B7F0 // [-16 -37 -39 -36]
@7B 0781BC5ED // [-19 -30   6  15]
@7C FE8480600 // [ 0  3 18 -3]
@7D 03003F3FB // [-5 -7  0  6]
@7E 027FC0005 // [ 5  0 -1  4]
@7F 0F8242406 // [ 6 18  9 31]
@80 F88002C14 // [ 20  22   0 -15]
@81 F0727A7D8 // [-40 -45 -55 -32]
@82 0284C0BEE // [-18   5  19   5]
@83 FB8802C08 // [ 8 22 32 -9]
@84 010001BEF // [-17  13   0   2]
@85 FDFC7EFF1 // [-15  -9 -15  -5]
@86 11830101F // [31  8 12 35]
@87 F785C1E2F // [ 47  15  23 -17]
@88 FCFBFC3E7 // [-25 -31 -17  -7]
@89 0505807FC // [-4  3 22 10]
@8A 0A8BC480E // [14 36 47 21]
@8B FAFD3F7FA // [ -6  -5 -12 -11]
@8C 017D011FD // [ -3   8 -12   2]
@8D 1387C2617 // [23 19 31 39]
@8E 040805E22 // [34 47 32  8]
@8F FB7A001FB // [ -5   0 -24 -10]
@90 098381C0B // [11 14 14 19]
@91 028402A17 // [23 21 16  5]
@92 FE01C07FB // [-5  3  7 -4]
@93 FCFBFF403 // [  3  -6 -17  -7]
@94 0E8543215 // [21 25 21 29]
@95 0105C1815 // [21 12 23  2]
@96 FCFDC0BF8 // [-8  5 -9 -7]
@97 FE8441810 // [16 12 17 -3]
@98 FE0281E14 // [20 15 10 -4]
@99 FD0000FFE // [-2  7  0 -6]
@9A 080040801 // [ 1  4  1 16]
@9B 0F04BF20B // [11 -7 18 30]
@9C 0D06C240C // [12 18 27 26]
@9D 0F00C2E08 // [ 8 23  3 30]
@9E 030041A08 // [ 8 13  1  6]
@9F 0000403F3 // [-13   1   1   0]
@A0 FD80C2E00 // [ 0 23  3 -5]
@A1 F780FEDF6 // [-10 -10   3 -17]
@A2 038003C09 // [ 9 30  0  7]
@A3 088002E02 // [ 2 23  0 17]
@A4 088642212 // [18 17 25 17]
@A5 00003EE15 // [21 -9  0  0]
@A6 00FD3CFED // [-19 -25 -12   1]
@A7 FC8000A12 // [18  5  0 -7]
@A8 0B81001F5 // [-11   0   4  23]
@A9 077CC1408 // [  8  10 -13  14]
@AA 0704BF802 // [ 2 -4 18 14]
@AB 048941E1D // [29 15 37  9]
@AC 007EC2003 // [ 3 16 -5  0]
@AD FA80401F4 // [-12   0   1 -11]
@AE FF7FBF3F7 // [-9 -7 -2 -2]
@AF FC8201202 // [ 2  9  8 -7]
@B0 F97F8020F // [ 15   1  -2 -14]
@B1 FCFF7FDFE // [-2 -2 -3 -7]
@B2 078080C08 // [ 8  6  2 15]
@B3 FCFF011F6 // [-10   8  -4  -7]
@B4 FA02FFBF3 // [-13  -3  11 -12]
@B5 FDFC00604 // [  4   3 -16  -5]
@B6 02FE41600 // [ 0 11 -7  5]
@B7 05FD805F4 // [-12   2 -10  11]
@B8 047F00004 // [ 4  0 -4  8]
@B9 087AFE405 // [  5 -14 -21  16]
@BA FF02FF007 // [ 7 -8 11 -2]
@BB 0103FF1FA // [-6 -8 15  2]
@BC FEFC7E400 // [  0 -14 -15  -3]
@BD 03FE80A11 // [17  5 -6  7]
@BE 01013E3FA // [ -6 -15   4   2]
@BF 047D823F5 // [-11  17 -10   8]
@C0 03807FA00 // [ 0 -3  1  7]
@C1 03FEC1FF8 // [-8 15 -5  7]
@C2 FFFDBE5F8 // [ -8 -14 -10  -1]
@C3 03FE42403 // [ 3 18 -7  7]
