@0 070141C08 // [ 8 14  5 14]
@1 FB023E7EF // [-17 -13   8 -10]
@2 067EFFE15 // [21 -1 -5 12]
@3 FA8201E05 // [  5  15   8 -11]
@4 FCFDBCA0F // [ 15 -27 -10  -7]
@5 FD00BF20E // [14 -7  2 -6]
@6 FF7F00210 // [16  1 -4 -2]
@7 04FF3FC00 // [ 0 -2 -4  9]
@8 04823F206 // [ 6 -7  8  9]
@9 FF80407F0 // [-16   3   1  -1]
@A 00FF00003 // [ 3  0 -4  1]
@B FE0280800 // [ 0  4 10 -4]
@C F68001805 // [  5  12   0 -19]
@D FC803F405 // [ 5 -6  0 -7]
@E 087F3FFFF // [-1 -1 -4 16]
@F 0880C0600 // [ 0  3  3 17]
@10 07803F209 // [ 9 -7  0 15]
@11 FB7F3FBF8 // [ -8  -3  -4 -10]
@12 F7FD3F3FD // [ -3  -7 -12 -17]
@13 0002C11F2 // [-14   8  11   0]
@14 007E3F807 // [ 7 -4 -8  0]
@15 FF8100003 // [ 3  0  4 -1]
@16 0102001F7 // [-9  0  8  2]
@17 F8FA803FA // [ -6   1 -22 -15]
@18 F7FBFD1EF // [-17 -24 -17 -17]
@19 FC803FDEF // [-17  -2   0  -7]
@1A 028041404 // [ 4 10  1  5]
@1B 007EFE203 // [  3 -15  -5   0]
@1C 0501FF9FF // [-1 -4  7 10]
@1D 02803FFFC // [-4 -1  0  5]
@1E F3F9FCDF6 // [-10 -26 -25 -25]
@1F FAFC7CFEA // [-22 -25 -15 -11]
@20 FE803FFEF // [-17  -1   0  -3]
@21 FB8301612 // [18 11 12 -9]
@22 037E80008 // [ 8  0 -6  6]
@23 0A7E7F009 // [ 9 -8 -7 20]
@24 FB7C00002 // [  2   0 -16 -10]
@25 F4F9FD1F1 // [-15 -24 -25 -23]
@26 FFF9FDFFC // [ -4 -17 -25  -1]
@27 FA79BE7F8 // [ -8 -13 -26 -12]
@28 05863FE00 // [ 0 -1 24 11]
@29 FE823F407 // [ 7 -6  8 -3]
@2A 01FD01802 // [  2  12 -12   3]
@2B FC7B3FBFE // [ -2  -3 -20  -8]
@2C FC7DFF5EA // [-22  -6  -9  -8]
@2D F4FBBDDFC // [ -4 -18 -18 -23]
@2E FD7D3CFF1 // [-15 -25 -12  -6]
@2F 0E0342C03 // [ 3 22 13 28]
@30 057EC1C19 // [25 14 -5 10]
@31 0A7E81405 // [ 5 10 -6 20]
@32 00FB3E7FF // [ -1 -13 -20   1]
@33 FE8603004 // [ 4 24 24 -3]
@34 F5F87C802 // [  2 -28 -31 -21]
@35 F87F7D9E2 // [-30 -20  -3 -16]
@36 1505C1411 // [17 10 23 42]
@37 06063FE10 // [16 -1 24 12]
@38 FE023DA04 // [  4 -19   8  -4]
@39 14843FBF3 // [-13  -3  16  41]
@3A 0A0404021 // [33 32 16 20]
@3B F37C3E41A // [ 26 -14 -16 -26]
@3C 0180FE1F0 // [-16 -16   3   3]
@3D 0605007F0 // [-16   3  20  12]
@3E 0081C0010 // [16  0  7  1]
@3F FA80411FD // [ -3   8   1 -11]
@40 0F0A001FC // [-4  0 40 30]
@41 1B0E86245 // [69 49 58 54]
@42 F3FFC2C28 // [ 40  22  -1 -25]
@43 F97F3DDD8 // [-40 -18  -4 -14]
@44 028640200 // [ 0  1 25  5]
@45 FEFF40209 // [ 9  1 -3 -3]
@46 FE803DC09 // [  9 -18   0  -3]
@47 188483000 // [ 0 24 18 49]
@48 168D85C42 // [66 46 54 45]
@49 0BFF03A28 // [40 29 -4 23]
@4A FA7D3CE00 // [  0 -25 -12 -12]
@4B FE84BFFEF // [-17  -1  18  -3]
@4C 037D00809 // [  9   4 -12   6]
@4D FF803F7F7 // [-9 -5  0 -1]
@4E 158802215 // [21 17 32 43]
@4F 0D8C06631 // [49 51 48 27]
@50 0D0543229 // [41 25 21 26]
@51 007CC0016 // [ 22   0 -13   0]
@52 EE8000800 // [  0   4   0 -35]
@53 FC8100C02 // [ 2  6  4 -7]
@54 0301FEFFF // [-1 -9  7  6]
@55 110A83004 // [ 4 24 42 34]
@56 060681623 // [35 11 26 12]
@57 190B42412 // [18 18 45 50]
@58 FE0002A14 // [20 21  0 -4]
@59 00FC3F1FC // [ -4  -8 -16   1]
@5A FC0000C04 // [ 4  6  0 -8]
@5B FC81BFE07 // [ 7 -1  6 -7]
@5C 058802821 // [33 20 32 11]
@5D F800C1214 // [ 20   9   3 -16]
@5E 1005BFFEA // [-22  -1  22  32]
@5F 058440A1F // [31  5 17 11]
@60 F47EFFA1D // [ 29  -3  -5 -24]
@61 037EC09F7 // [-9  4 -5  6]
@62 FB7F7DA00 // [  0 -19  -3 -10]
@63 FD7D41C0A // [ 10  14 -11  -6]
@64 EC7C3E5F7 // [ -9 -14 -16 -40]
@65 1685405EE // [-18   2  21  45]
@66 08810161A // [26 11  4 17]
@67 F07B4000C // [ 12   0 -19 -32]
@68 03FF003FC // [-4  1 -4  7]
@69 057F01C00 // [ 0 14 -4 10]
@6A F27ABB206 // [  6 -39 -22 -28]
@6B F6FC7C7E7 // [-25 -29 -15 -19]
@6C 188701A09 // [ 9 13 28 49]
@6D 028400622 // [34  3 16  5]
@6E F5FEFF004 // [  4  -8  -5 -21]
@6F 0500FE3F0 // [-16 -15   3  10]
@70 0000001FF // [-1  0  0  0]
@71 F4773C9EF // [-17 -28 -36 -24]
@72 FF7CBDDED // [-19 -18 -14  -2]
@73 140643C1A // [26 30 25 40]
@74 F80080612 // [ 18   3   2 -16]
@75 F6773E3FE // [ -2 -15 -36 -20]
@76 FF82001F8 // [-8  0  8 -1]
@77 FC02FEFFC // [-4 -9 11 -8]
@78 F8763B7EE // [-18 -37 -40 -16]
@79 0AFF801EA // [-22   0  -2  21]
@7A 0B880681A // [26 52 32 23]
@7B FBFD7E3FE // [ -2 -15 -11  -9]
@7C FAFC3E5FB // [ -5 -14 -16 -11]
@7D FE7E7F9FF // [-1 -4 -7 -4]
@7E FC7F807F1 // [-15   3  -2  -8]
@7F F9793C9EE // [-18 -28 -28 -14]
@80 0082407EE // [-18   3   9   1]
@81 FF8602011 // [17 16 24 -1]
@82 F9777DFE8 // [-24 -17 -35 -14]
@83 FD7DBE9EF // [-17 -12 -10  -6]
@84 04FD407FC // [ -4   3 -11   9]
@85 FC84405F2 // [-14   2  17  -7]
@86 FE79BD3EB // [-21 -23 -26  -4]
@87 F279BEBEC // [-20 -11 -26 -28]
@88 FF02BFFE4 // [-28  -1  10  -2]
@89 FBFA7EBEF // [-17 -11 -23  -9]
@8A FD7B7CDEB // [-21 -26 -19  -6]
@8B F501BD7EF // [-17 -21   6 -22]
@8C FE03FE7FE // [ -2 -13  15  -4]
@8D FFFBBD9EA // [-22 -20 -18  -1]
@8E F578BDFFA // [ -6 -17 -30 -22]
@8F F1FE7F5F6 // [-10  -6  -7 -29]
@90 F37BBF5ED // [-19  -6 -18 -26]
@91 FBFCFDBF1 // [-15 -19 -13  -9]
@92 F882C11E9 // [-23   8  11 -15]
@93 F6FEC05F6 // [-10   2  -5 -19]
@94 F9FE7CDE7 // [-25 -26  -7 -13]
@95 FD013F5F0 // [-16  -6   4  -6]
@96 FF81FF9FB // [-5 -4  7 -1]
@97 F97B80DFB // [ -5   6 -18 -14]
@98 F78000FF6 // [-10   7   0 -17]
@99 03817E3F1 // [-15 -15   5   7]
@9A 0781FEE00 // [ 0 -9  7 15]
@9B F97E7F5EE // [-18  -6  -7 -14]
@9C FFFE817F6 // [-10  11  -6  -1]
@9D 0B0140FF7 // [-9  7  5 22]
@9E FE7F00216 // [22  1 -4 -4]
@9F F9FEC09F9 // [ -7   4  -5 -13]
@A0 FF7D00BF1 // [-15   5 -12  -2]
@A1 FF007F7F9 // [-7 -5  1 -2]
@A2 FA7E001FE // [ -2   0  -8 -12]
@A3 FFFF40BF2 // [-14   5  -3  -1]
@A4 05014200D // [13 16  5 10]
@A5 FC0204411 // [17 34  8 -8]
@A6 F97F001FA // [ -6   0  -4 -14]
@A7 027DFEC00 // [  0 -10  -9   4]
@A8 050141607 // [ 7 11  5 10]
@A9 FA7EC1FE6 // [-26  15  -5 -12]
@AA 037D415FF // [ -1  10 -11   6]
@AB 058481202 // [ 2  9 18 11]
@AC 038240DFB // [-5  6  9  7]
@AD 0300BFFFE // [-2 -1  2  6]
@AE FF01401F7 // [-9  0  5 -2]
@AF FEFF3DFF5 // [-11 -17  -4  -3]
@B0 047D3E60B // [ 11 -13 -12   8]
@B1 060040BFC // [-4  5  1 12]
@B2 FC0381004 // [ 4  8 14 -8]
@B3 FAFB0040B // [ 11   2 -20 -11]
@B4 020301A0A // [10 13 12  4]
@B5 FC0101C08 // [ 8 14  4 -8]
@B6 FC7E401F3 // [-13   0  -7  -8]
@B7 03FE7EDFF // [ -1 -10  -7   7]
@B8 FF0041C04 // [ 4 14  1 -2]
@B9 078181600 // [ 0 11  6 15]
@BA 0200C13FE // [-2  9  3  4]
@BB FE02FE602 // [  2 -13  11  -4]
@BC 01807F403 // [ 3 -6  1  3]
@BD 007F00207 // [ 7  1 -4  0]
@BE 007F7F402 // [ 2 -6 -3  0]
@BF 08037EC05 // [  5 -10  13  16]
@C0 07827DE02 // [  2 -17   9  15]
@C1 FC7EFDA00 // [  0 -19  -5  -8]
@C2 030381404 // [ 4 10 14  6]
@C3 0B8400000 // [ 0  0 16 23]
