@0 05FDC0003 // [ 3  0 -9 11]
@1 FAFEFEA08 // [  8 -11  -5 -11]
@2 FE7F013FA // [-6  9 -4 -4]
@3 030280405 // [ 5  2 10  6]
@4 027E02DFD // [-3 22 -8  4]
@5 007EBF60B // [11 -5 -6  0]
@6 0001BCE00 // [  0 -25   6   0]
@7 FCFE01406 // [ 6 10 -8 -7]
@8 0003BF7FE // [-2 -5 14  0]
@9 05FC00417 // [ 23   2 -16  11]
@A 037D3E9F9 // [ -7 -12 -12   6]
@B 077C40001 // [  1   0 -15  14]
@C FD023F9F9 // [-7 -4  8 -6]
@D 0A003DE0A // [ 10 -17   0  20]
@E F801017EB // [-21  11   4 -16]
@F 0605805FC // [-4  2 22 12]
@10 0A8241A03 // [ 3 13  9 21]
@11 09FF4160E // [14 11 -3 19]
@12 060502C10 // [16 22 20 12]
@13 F900C2A00 // [  0  21   3 -14]
@14 01013F1FC // [-4 -8  4  2]
@15 00FF41DEC // [-20  14  -3   1]
@16 06FFBF9FF // [-1 -4 -2 13]
@17 06044120D // [13  9 17 12]
@18 0C8B02C2F // [47 22 44 25]
@19 10863FC19 // [25 -2 24 33]
@1A FF0040604 // [ 4  3  1 -2]
@1B F67F40A14 // [ 20   5  -3 -20]
@1C 00FCC0001 // [  1   0 -13   1]
@1D 0882C0DFC // [-4  6 11 17]
@1E 0D03C1214 // [20  9 15 26]
@1F 0000C001B // [27  0  3  0]
@20 0C8540A0C // [12  5 21 25]
@21 020080012 // [18  0  2  4]
@22 047CFF205 // [  5  -7 -13   8]
@23 FD03801FA // [-6  0 14 -6]
@24 078181E01 // [ 1 15  6 15]
@25 030383818 // [24 28 14  6]
@26 F77B7D5EF // [-17 -22 -19 -18]
@27 02017F7F6 // [-10  -5   5   4]
@28 03FF00007 // [ 7  0 -4  7]
@29 FE7FFFE08 // [ 8 -1 -1 -4]
@2A 0384BEBF3 // [-13 -11  18   7]
@2B 11014240C // [12 18  5 34]
@2C F57F40C11 // [ 17   6  -3 -22]
@2D EDF5BBBE1 // [-31 -35 -42 -37]
@2E FD7F7E3F4 // [-12 -15  -3  -6]
@2F F97C3FFF7 // [ -9  -1 -16 -14]
@30 FF803F805 // [ 5 -4  0 -1]
@31 067DFEDF1 // [-15 -10  -9  12]
@32 058183809 // [ 9 28  6 11]
@33 EF7C7F9EE // [-18  -4 -15 -34]
@34 EC77BB7DB // [-37 -37 -34 -40]
@35 EA78FD7D4 // [-44 -21 -29 -44]
@36 F8FF7D3E7 // [-25 -23  -3 -15]
@37 0002BFFF9 // [-7 -1 10  0]
@38 050180809 // [ 9  4  6 10]
@39 F883C0A10 // [ 16   5  15 -15]
@3A E9F73BDE0 // [-32 -34 -36 -45]
@3B EFF5FAFDA // [-38 -41 -41 -33]
@3C F876BE9D5 // [-43 -12 -38 -16]
@3D F978FDFE0 // [-32 -17 -29 -14]
@3E FE04823F3 // [-13  17  18  -4]
@3F 03FE805FF // [-1  2 -6  7]
@40 EEFB7F202 // [  2  -7 -19 -35]
@41 E7767ABDF // [-33 -43 -39 -50]
@42 FBFB3A9CC // [-52 -44 -20  -9]
@43 EE773F3FF // [ -1  -7 -36 -36]
@44 F876BD5EC // [-20 -22 -38 -16]
@45 FB803FFF5 // [-11  -1   0  -9]
@46 067BC05F2 // [-14   2 -17  12]
@47 EEF7BC406 // [  6 -30 -34 -35]
@48 E2717A5D5 // [-43 -46 -59 -60]
@49 FF7DBDDCB // [-53 -18 -10  -2]
@4A F1FD8021C // [ 28   1 -10 -29]
@4B F775FDBDE // [-34 -19 -41 -18]
@4C 03FDC0DF0 // [-16   6  -9   7]
@4D 0000801F9 // [-7  0  2  0]
@4E EC76FC3FD // [ -3 -31 -37 -40]
@4F F9783ADE0 // [-32 -42 -32 -14]
@50 007FFEC04 // [  4 -10  -1   0]
@51 F87E7D80E // [ 14 -20  -7 -16]
@52 00F83B1F7 // [ -9 -40 -32   1]
@53 FBFBBFDFF // [ -1  -2 -18  -9]
@54 017DC000D // [13  0 -9  2]
@55 EFFABC002 // [  2 -32 -22 -33]
@56 0301BF7E4 // [-28  -5   6   6]
@57 048183C24 // [36 30  6  9]
@58 EB7B00A04 // [  4   5 -20 -42]
@59 FDF93B7EA // [-22 -37 -28  -5]
@5A 03FE80020 // [32  0 -6  7]
@5B FE80FD815 // [ 21 -20   3  -3]
@5C FD837EFEE // [-18  -9  13  -5]
@5D 098683011 // [17 24 26 19]
@5E 030382616 // [22 19 14  6]
@5F FD7F81405 // [ 5 10 -2 -6]
@60 097F807F5 // [-11   3  -2  18]
@61 FE7E81400 // [ 0 10 -6 -4]
@62 02FF00E0A // [10  7 -4  5]
@63 0C8140200 // [ 0  1  5 25]
@64 0E0484A29 // [41 37 18 28]
@65 0A8582622 // [34 19 22 21]
@66 0C0100806 // [ 6  4  4 24]
@67 048302E0A // [10 23 12  9]
@68 FE7F41A02 // [ 2 13 -3 -4]
@69 080040407 // [ 7  2  1 16]
@6A 0083C1014 // [20  8 15  1]
@6B 0B0203407 // [ 7 26  8 22]
@6C 050941009 // [ 9  8 37 10]
@6D 0B0700A03 // [ 3  5 28 22]
@6E 0D08C4620 // [32 35 35 26]
@6F 00FE80212 // [18  1 -6  1]
@70 FF800060B // [11  3  0 -1]
@71 0A864180A // [10 12 25 21]
@72 08FE3EDF7 // [ -9 -10  -8  17]
@73 030501202 // [ 2  9 20  6]
@74 18053EE02 // [ 2 -9 20 48]
@75 018382C21 // [33 22 14  3]
@76 028300024 // [36  0 12  5]
@77 057F007F9 // [-7  3 -4 10]
@78 FD04C3817 // [23 28 19 -6]
@79 FAF83BBE5 // [-27 -35 -32 -11]
@7A EFFD3D9E2 // [-30 -20 -12 -33]
@7B 0B05823F0 // [-16  17  22  22]
@7C 0703C3A23 // [35 29 15 14]
@7D F98201A02 // [  2  13   8 -13]
@7E 047FC0A09 // [ 9  5 -1  8]
@7F 038040C13 // [19  6  1  7]
@80 F4FC3D404 // [  4 -22 -16 -23]
@81 0284BEDF7 // [ -9 -10  18   5]
@82 0384C5E1A // [26 47 19  7]
@83 048541C0C // [12 14 21  9]
@84 F880BEE05 // [  5  -9   2 -15]
@85 0001021F9 // [-7 16  4  0]
@86 02FDC0801 // [ 1  4 -9  5]
@87 1B85C1802 // [ 2 12 23 55]
@88 070483A10 // [16 29 18 14]
@89 068A83A2B // [43 29 42 13]
@8A 0580C2411 // [17 18  3 11]
@8B FBFF7F9F8 // [-8 -4 -3 -9]
@8C FFFDC0E0C // [12  7 -9 -1]
@8D 03803FA0E // [14 -3  0  7]
@8E 1107C3A11 // [17 29 31 34]
@8F 100A83020 // [32 24 42 32]
@90 0B87C2229 // [41 17 31 23]
@91 F98243406 // [  6  26   9 -13]
@92 FC0000C0F // [15  6  0 -8]
@93 0401C01F7 // [-9  0  7  8]
@94 06800120B // [11  9  0 13]
@95 0385FFA09 // [ 9 -3 23  7]
@96 0106C1FFC // [-4 15 27  2]
@97 018243427 // [39 26  9  3]
@98 FBFD8220E // [ 14  17 -10  -9]
@99 FC0000204 // [ 4  1  0 -8]
@9A 00007FE00 // [ 0 -1  1  0]
@9B 01838160F // [15 11 14  3]
@9C F87DFE3FC // [ -4 -15  -9 -16]
@9D F9F9FDDDD // [-35 -18 -25 -13]
@9E FAFF3F5F8 // [ -8  -6  -4 -11]
@9F FB807DFF7 // [ -9 -17   1  -9]
@A0 FB0101004 // [  4   8   4 -10]
@A1 F70280BFD // [ -3   5  10 -18]
@A2 0005C4400 // [ 0 34 23  0]
@A3 F1FE40BFD // [ -3   5  -7 -29]
@A4 F0F8FB3E3 // [-29 -39 -29 -31]
@A5 FCFD7D1DA // [-38 -24 -11  -7]
@A6 027EBE1E0 // [-32 -16  -6   4]
@A7 FF02BFDF8 // [-8 -2 10 -2]
@A8 00FCC01FB // [ -5   0 -13   1]
@A9 050280600 // [ 0  3 10 10]
@AA FF0180BFE // [-2  5  6 -2]
@AB 01FE805F2 // [-14   2  -6   3]
@AC FAFE3F3E8 // [-24  -7  -8 -11]
@AD FF7FBFBEC // [-20  -3  -2  -2]
@AE 0BFB3E801 // [  1 -12 -20  23]
@AF 070000005 // [ 5  0  0 14]
@B0 0201411FB // [-5  8  5  4]
@B1 F9FF3FDED // [-19  -2  -4 -13]
@B2 F7FC00FF7 // [ -9   7 -16 -17]
@B3 F278FD5E7 // [-25 -22 -29 -28]
@B4 F6FFBF5EA // [-22  -6  -2 -19]
@B5 FE8180FFE // [-2  7  6 -3]
@B6 0083BEBF2 // [-14 -11  14   1]
@B7 FCFCBEA13 // [ 19 -11 -14  -7]
@B8 FC80FF5F8 // [-8 -6  3 -7]
@B9 F27F3E1F7 // [ -9 -16  -4 -28]
@BA F97EFEBED // [-19 -11  -5 -14]
@BB 00813EE03 // [ 3 -9  4  1]
@BC 0280C1C03 // [ 3 14  3  5]
@BD FB7F3EFF9 // [ -7  -9  -4 -10]
@BE FC82C09F5 // [-11   4  11  -7]
@BF FB80017F0 // [-16  11   0  -9]
@C0 007C02C05 // [  5  22 -16   0]
@C1 038002DF3 // [-13  22   0   7]
@C2 FF827F800 // [ 0 -4  9 -1]
@C3 FA8180E00 // [  0   7   6 -11]
