@0 FDFE41BF9 // [-7 13 -7 -5]
@1 007F3F600 // [ 0 -5 -4  0]
@2 0182001FC // [-4  0  8  3]
@3 02018120A // [10  9  6  4]
@4 07003E802 // [  2 -12   0  14]
@5 FD01FFBF5 // [-11  -3   7  -6]
@6 0480803FE // [-2  1  2  9]
@7 FA00BFDF1 // [-15  -2   2 -12]
@8 FF7C82207 // [  7  17 -14  -2]
@9 FE81FF9F5 // [-11  -4   7  -3]
@A 09FC7E606 // [  6 -13 -15  19]
@B F90280400 // [  0   2  10 -14]
@C 0481407FC // [-4  3  5  9]
@D FFFD40202 // [  2   1 -11  -1]
@E 077D7FFED // [-19  -1 -11  14]
@F 01803F801 // [ 1 -4  0  3]
@10 FDFD403F8 // [ -8   1 -11  -5]
@11 F47F7E3FD // [ -3 -15  -3 -24]
@12 FDFCFE7E6 // [-26 -13 -13  -5]
@13 007F7D7F7 // [ -9 -21  -3   0]
@14 F67D8080C // [ 12   4 -10 -20]
@15 027E80C04 // [ 4  6 -6  4]
@16 F200001F7 // [ -9   0   0 -28]
@17 FAFAFE5EF // [-17 -14 -21 -11]
@18 F1FBFCDF9 // [ -7 -26 -17 -29]
@19 FC7E7C3EB // [-21 -31  -7  -8]
@1A 01003F1F8 // [-8 -8  0  2]
@1B FF817F603 // [ 3 -5  5 -1]
@1C FB8000604 // [ 4  3  0 -9]
@1D 037EC1402 // [ 2 10 -5  6]
@1E 02FFBDA04 // [  4 -19  -2   5]
@1F F8FEFDDF3 // [-13 -18  -5 -15]
@20 FCFD3EDF3 // [-13 -10 -12  -7]
@21 FE803EDE8 // [-24 -10   0  -3]
@22 F90401E0B // [ 11  15  16 -14]
@23 040200600 // [0 3 8 8]
@24 007B405F8 // [ -8   2 -19   0]
@25 000380003 // [ 3  0 14  0]
@26 F30383602 // [  2  27  14 -26]
@27 FDFCC03EF // [-17   1 -13  -5]
@28 FE7BBFBED // [-19  -3 -18  -4]
@29 FAFFC05F3 // [-13   2  -1 -11]
@2A 060000609 // [ 9  3  0 12]
@2B 0601FF7FB // [-5 -5  7 12]
@2C 118A43A0E // [14 29 41 35]
@2D 080BC5626 // [38 43 47 16]
@2E 0A0501A01 // [ 1 13 20 20]
@2F 047F00E02 // [ 2  7 -4  8]
@30 037D411FB // [ -5   8 -11   6]
@31 FD82FE9FF // [ -1 -12  11  -5]
@32 06813F400 // [ 0 -6  4 13]
@33 138B03C08 // [ 8 30 44 39]
@34 02838583F // [63 44 14  5]
@35 0A8641C1C // [28 14 25 21]
@36 0683C2811 // [17 20 15 13]
@37 FDFF0021B // [27  1 -4 -5]
@38 048000202 // [2 1 0 9]
@39 098382406 // [ 6 18 14 19]
@3A 158685427 // [39 42 26 43]
@3B 0A0605429 // [41 42 24 20]
@3C 0B894201A // [26 16 37 23]
@3D 150C06026 // [38 48 48 42]
@3E FF0240425 // [37  2  9 -2]
@3F FFFC3FFF6 // [-10  -1 -16  -1]
@40 0786825FC // [-4 18 26 15]
@41 0D88C401F // [31 32 35 27]
@42 008342416 // [22 18 13  1]
@43 148C81201 // [ 1  9 50 41]
@44 180F05A27 // [39 45 60 48]
@45 FC0380A31 // [49  5 14 -8]
@46 067CC060A // [ 10   3 -13  12]
@47 0B067F5FE // [-2 -6 25 22]
@48 0B01C4E1A // [26 39  7 22]
@49 F80002E2D // [ 45  23   0 -16]
@4A 208900DF9 // [-7  6 36 65]
@4B 178605438 // [56 42 24 47]
@4C 050181621 // [33 11  6 10]
@4D F901FFFFA // [ -6  -1   7 -14]
@4E 0E0602DFC // [-4 22 24 28]
@4F 158543E1B // [27 31 21 43]
@50 0203C4824 // [36 36 15  4]
@51 0D8803FFA // [-6 31 32 27]
@52 130781A2A // [42 13 30 38]
@53 FF8080202 // [ 2  1  2 -1]
@54 FD81FFE02 // [ 2 -1  7 -5]
@55 068682608 // [ 8 19 26 13]
@56 0E03029FD // [-3 20 12 28]
@57 00FD0381A // [ 26  28 -12   1]
@58 1084C2403 // [ 3 18 19 33]
@59 FE0381411 // [17 10 14 -4]
@5A FA7FBFDF1 // [-15  -2  -2 -12]
@5B FE7B40405 // [  5   2 -19  -4]
@5C 090483008 // [ 8 24 18 18]
@5D 0803C01FA // [-6  0 15 16]
@5E FAFA40C16 // [ 22   6 -23 -11]
@5F 0C0301805 // [ 5 12 12 24]
@60 F5FF00808 // [  8   4  -4 -21]
@61 00FD3E7EA // [-22 -13 -12   1]
@62 00FDC1601 // [ 1 11 -9  1]
@63 F6FFBDFFB // [ -5 -17  -2 -19]
@64 FD817E1DE // [-34 -16   5  -5]
@65 F977FD3EB // [-21 -23 -33 -14]
@66 078783FFE // [-2 31 30 15]
@67 F47E80802 // [  2   4  -6 -24]
@68 FA7F3F5F1 // [-15  -6  -4 -12]
@69 03FF7E60E // [ 14 -13  -3   7]
@6A F47DFDFF1 // [-15 -17  -9 -24]
@6B E9F97F3E0 // [-32  -7 -27 -45]
@6C F8F2BA3F3 // [-13 -47 -54 -15]
@6D 0281BFC08 // [ 8 -2  6  5]
@6E F97C003FD // [ -3   1 -16 -14]
@6F F97F3DDE8 // [-24 -18  -4 -14]
@70 0100BF204 // [ 4 -7  2  2]
@71 EDF8FD607 // [  7 -21 -29 -37]
@72 EDF63C7DC // [-36 -29 -40 -37]
@73 FA72B9BF2 // [-14 -51 -54 -12]
@74 F77CC3A04 // [  4  29 -13 -18]
@75 F6FD7C3F3 // [-13 -31 -11 -19]
@76 FFFDBC5FF // [ -1 -30 -10  -1]
@77 FCFE00000 // [ 0  0 -8 -7]
@78 EF7DFE201 // [  1 -15  -9 -34]
@79 F9747D9EC // [-20 -20 -47 -14]
@7A F5F57BE00 // [  0 -33 -43 -21]
@7B FA79FF809 // [  9  -4 -25 -12]
@7C F4FB3E9F2 // [-14 -12 -20 -23]
@7D FF80BF3EF // [-17  -7   2  -1]
@7E FD7BC0204 // [  4   1 -17  -6]
@7F FF7FFEFF4 // [-12  -9  -1  -2]
@80 FE7C3F5EA // [-22  -6 -16  -4]
@81 FCFB3D9E2 // [-30 -20 -20  -7]
@82 FA783E5EE // [-18 -14 -32 -12]
@83 FCFBBF1F3 // [-13  -8 -18  -7]
@84 FF80011D9 // [-39   8   0  -1]
@85 FAFFBF00B // [ 11  -8  -2 -11]
@86 F8FEFF202 // [  2  -7  -5 -15]
@87 F87B3F3F5 // [-11  -7 -20 -16]
@88 F27D3F9EE // [-18  -4 -12 -28]
@89 F97BFD7E7 // [-25 -21 -17 -14]
@8A FDFD3D1F0 // [-16 -24 -12  -5]
@8B FA01BE5EF // [-17 -14   6 -12]
@8C F9FD407F8 // [ -8   3 -11 -13]
@8D F9827FBFF // [ -1  -3   9 -13]
@8E FC7ABE1FC // [ -4 -16 -22  -8]
@8F FC7CFFBEF // [-17  -3 -13  -8]
@90 F3F87C9E7 // [-25 -28 -31 -25]
@91 F6FAFFA01 // [  1  -3 -21 -19]
@92 02FE7F5E7 // [-25  -6  -7   5]
@93 FEFEC1809 // [ 9 12 -5 -3]
@94 F6FF403FB // [ -5   1  -3 -19]
@95 02FB3D7EF // [-17 -21 -20   5]
@96 F3FDC0BF5 // [-11   5  -9 -25]
@97 F9FABB9F3 // [-13 -36 -22 -13]
@98 007D813FE // [ -2   9 -10   0]
@99 FC02C21E5 // [-27  16  11  -8]
@9A 0601FF3F8 // [-8 -7  7 12]
@9B 097B7E3FB // [ -5 -15 -19  18]
@9C 0C8401213 // [19  9 16 25]
@9D 04878422A // [42 33 30  9]
@9E FFFFFF60E // [14 -5 -1 -1]
@9F 07023E409 // [  9 -14   8  14]
@A0 F6FDFEC17 // [ 23 -10  -9 -19]
@A1 0303FE5FC // [ -4 -14  15   6]
@A2 FDFF401F7 // [-9  0 -3 -5]
@A3 188803E10 // [16 31 32 49]
@A4 090BC5637 // [55 43 47 18]
@A5 FB010140D // [ 13  10   4 -10]
@A6 02003E80B // [ 11 -12   0   4]
@A7 FD833F802 // [ 2 -4 12 -5]
@A8 FE00FF20F // [15 -7  3 -4]
@A9 FF834140D // [13 10 13 -1]
@AA 1007C3C12 // [18 30 31 32]
@AB 0B0945E24 // [36 47 37 22]
@AC 050001C23 // [35 14  0 10]
@AD 058380A0B // [11  5 14 11]
@AE FE853FDF5 // [-11  -2  20  -3]
@AF 0201C07F8 // [-8  3  7  4]
@B0 038400BF9 // [-7  5 16  7]
@B1 0F8403403 // [ 3 26 16 31]
@B2 080A02E08 // [ 8 23 40 16]
@B3 0B0544E1E // [30 39 21 22]
@B4 0B00C1C0D // [13 14  3 22]
@B5 0000FF202 // [ 2 -7  3  0]
@B6 020240BFC // [-4  5  9  4]
@B7 02FEFF805 // [ 5 -4 -5  5]
@B8 050080C10 // [16  6  2 10]
@B9 0581C360A // [10 27  7 11]
@BA 0000BE417 // [ 23 -14   2   0]
@BB 05FCC1801 // [  1  12 -13  11]
@BC FD0300205 // [ 5  1 12 -6]
@BD FB050080B // [ 11   4  20 -10]
@BE F903403FA // [ -6   1  13 -14]
@BF FF7DC0C10 // [16  6 -9 -2]
@C0 047F00DFD // [-3  6 -4  8]
@C1 F78080C00 // [  0   6   2 -17]
@C2 FEFA40E05 // [  5   7 -23  -3]
@C3 FAFF3E015 // [ 21 -16  -4 -11]
