@0 0101BF000 // [ 0 -8  6  2]
@1 0581BDE00 // [  0 -17   6  11]
@2 F7008000A // [ 10   0   2 -18]
@3 FDFD801FD // [ -3   0 -10  -5]
@4 017AFEE07 // [  7  -9 -21   2]
@5 097BFDBF4 // [-12 -19 -17  18]
@6 05037FDF3 // [-13  -2  13  10]
@7 FD0140E00 // [ 0  7  5 -6]
@8 0B80807FE // [-2  3  2 23]
@9 00003E80E // [ 14 -12   0   0]
@A 037D827FF // [ -1  19 -10   6]
@B 01FDBE7FE // [ -2 -13 -10   3]
@C FB7F3F20A // [ 10  -7  -4 -10]
@D 01827F606 // [ 6 -5  9  3]
@E FF0080400 // [ 0  2  2 -2]
@F 00FBBEDFD // [ -3 -10 -18   1]
@10 FBFDFEFFE // [-2 -9 -9 -9]
@11 FC8000A00 // [ 0  5  0 -7]
@12 0103001FE // [-2  0 12  2]
@13 05FFBFE0F // [15 -1 -2 11]
@14 FBFEC15F0 // [-16  10  -5  -9]
@15 FB827F007 // [ 7 -8  9 -9]
@16 FEFFBF1FF // [-1 -8 -2 -3]
@17 F981C0FEC // [-20   7   7 -13]
@18 017E3E5FB // [ -5 -14  -8   2]
@19 03803FDFB // [-5 -2  0  7]
@1A 037C0040A // [ 10   2 -16   6]
@1B FDFD7F5F0 // [-16  -6 -11  -5]
@1C FD7CFFE09 // [  9  -1 -13  -6]
@1D FFFF80000 // [ 0  0 -2 -1]
@1E 03FFC0E03 // [ 3  7 -1  7]
@1F 018000401 // [1 2 0 3]
@20 087D01602 // [  2  11 -12  16]
@21 068142E0B // [11 23  5 13]
@22 007B41E00 // [  0  15 -19   0]
@23 FAFCC0800 // [  0   4 -13 -11]
@24 007E809FA // [-6  4 -6  0]
@25 FF82FFC0F // [15 -2 11 -1]
@26 F9FD81200 // [  0   9 -10 -13]
@27 087F7F7F1 // [-15  -5  -3  16]
@28 020400009 // [ 9  0 16  4]
@29 0301C0BFC // [-4  5  7  6]
@2A 0384BDE00 // [  0 -17  18   7]
@2B 060001406 // [ 6 10  0 12]
@2C 00FDC3C07 // [ 7 30 -9  1]
@2D 05803F5F9 // [-7 -6  0 11]
@2E 0281BE802 // [  2 -12   6   5]
@2F 0B0741DF7 // [-9 14 29 22]
@30 FAFFC100A // [ 10   8  -1 -11]
@31 F78082C00 // [  0  22   2 -17]
@32 FC7CBFDF7 // [ -9  -2 -14  -8]
@33 FE82001F4 // [-12   0   8  -3]
@34 007E3F3F5 // [-11  -7  -8   0]
@35 0001FDFF7 // [ -9 -17   7   0]
@36 0981C1A0C // [12 13  7 19]
@37 05067FA10 // [16 -3 25 10]
@38 0981BF806 // [ 6 -4  6 19]
@39 00FF81400 // [ 0 10 -2  1]
@3A FD01401F4 // [-12   0   5  -6]
@3B F779023E6 // [-26  17 -28 -18]
@3C 007FFE1EA // [-22 -16  -1   0]
@3D 0A8482004 // [ 4 16 18 21]
@3E 02FF43021 // [33 24 -3  5]
@3F F900405FA // [ -6   2   1 -14]
@40 028100C07 // [7 6 4 5]
@41 037DBD412 // [ 18 -22 -10   6]
@42 007E7F1F7 // [-9 -8 -7  0]
@43 FD00FDDF3 // [-13 -18   3  -6]
@44 0600007F6 // [-10   3   0  12]
@45 0382C2C16 // [22 22 11  7]
@46 F9817FBFF // [ -1  -3   5 -13]
@47 05827F201 // [ 1 -7  9 11]
@48 07807F5F1 // [-15  -6   1  15]
@49 FD7F00400 // [ 0  2 -4 -6]
@4A FCFB3CFFC // [ -4 -25 -20  -7]
@4B FEF7FCFF0 // [-16 -25 -33  -3]
@4C 0002C2601 // [ 1 19 11  0]
@4D FE7E80603 // [ 3  3 -6 -4]
@4E 0380FF3F9 // [-7 -7  3  7]
@4F 088184001 // [ 1 32  6 17]
@50 0B884260E // [14 19 33 23]
@51 F37E80A05 // [  5   5  -6 -26]
@52 F6F439FDE // [-34 -49 -48 -19]
@53 057D40C00 // [  0   6 -11  10]
@54 F8010100A // [ 10   8   4 -16]
@55 FD7D3E9FB // [ -5 -12 -12  -6]
@56 080741205 // [ 5  9 29 16]
@57 118B04A24 // [36 37 44 35]
@58 FD7D3F40E // [ 14  -6 -12  -6]
@59 F3F63C3E1 // [-31 -31 -40 -25]
@5A 00FBFFBF7 // [ -9  -3 -17   1]
@5B 047D411F4 // [-12   8 -11   8]
@5C FFFC40BF2 // [-14   5 -15  -1]
@5D 0D0482C01 // [ 1 22 18 26]
@5E 0A8AC4821 // [33 36 43 21]
@5F 0102817FD // [-3 11 10  2]
@60 ED763C1E9 // [-23 -32 -40 -38]
@61 0281003FA // [-6  1  4  5]
@62 01FFC0205 // [ 5  1 -1  3]
@63 F4FC81204 // [  4   9 -14 -23]
@64 0382C200D // [13 16 11  7]
@65 00080601E // [30 48 32  0]
@66 F57BC0418 // [ 24   2 -17 -22]
@67 E87B3DBE6 // [-26 -19 -20 -48]
@68 07FEC03FE // [-2  1 -5 15]
@69 0480013FE // [-2  9  0  9]
@6A FAF6FC7F5 // [-11 -29 -37 -11]
@6B 0782003F6 // [-10   1   8  15]
@6C 0A0A82216 // [22 17 42 20]
@6D F67C7CBFB // [ -5 -27 -15 -20]
@6E F47DBC5E7 // [-25 -30 -10 -24]
@6F 00063E3F6 // [-10 -15  24   0]
@70 03FFBFDFF // [-1 -2 -2  7]
@71 EFF7FE3FE // [ -2 -15 -33 -33]
@72 F77CFA3DB // [-37 -47 -13 -18]
@73 01848320F // [15 25 18  3]
@74 F4797D9F1 // [-15 -20 -27 -24]
@75 F9FD3D9FB // [ -5 -20 -12 -13]
@76 F7FD3F3FE // [ -2  -7 -12 -17]
@77 0582005F8 // [-8  2  8 11]
@78 FA7ABD406 // [  6 -22 -22 -12]
@79 F0F8F97E6 // [-26 -53 -29 -31]
@7A F9FE3F1EE // [-18  -8  -8 -13]
@7B FC7F7E600 // [  0 -13  -3  -8]
@7C FC823FFEB // [-21  -1   8  -7]
@7D F600001F8 // [ -8   0   0 -20]
@7E 038300FFC // [-4  7 12  7]
@7F FC7E7FA01 // [ 1 -3 -7 -8]
@80 EDF37C7F7 // [ -9 -29 -51 -37]
@81 FB013CDDE // [-34 -26   4 -10]
@82 FCFE3DA06 // [  6 -19  -8  -7]
@83 FD81C0E0D // [13  7  7 -5]
@84 FF003F607 // [ 7 -5  0 -2]
@85 0E7C3EA0D // [ 13 -11 -16  28]
@86 0204805F8 // [-8  2 18  4]
@87 F6797CFFC // [ -4 -25 -27 -20]
@88 017E3F7F3 // [-13  -5  -8   2]
@89 0581413EE // [-18   9   5  11]
@8A FD04C141B // [27 10 19 -6]
@8B FFFF80FF6 // [-10   7  -2  -1]
@8C F983C140C // [ 12  10  15 -13]
@8D 000002608 // [ 8 19  0  0]
@8E FA7E3FE10 // [ 16  -1  -8 -12]
@8F 06FF7F7F0 // [-16  -5  -3  13]
@90 118381A0A // [10 13 14 35]
@91 0082C1E0E // [14 15 11  1]
@92 FB00415FC // [ -4  10   1 -10]
@93 017E00201 // [ 1  1 -8  2]
@94 04FCC0E06 // [  6   7 -13   9]
@95 FA04FE814 // [ 20 -12  19 -12]
@96 0800003F0 // [-16   1   0  16]
@97 07048280A // [10 20 18 14]
@98 F4FF81208 // [  8   9  -2 -23]
@99 0AFF8000F // [15  0 -2 21]
@9A 0700BFBF2 // [-14  -3   2  14]
@9B FB8440C08 // [ 8  6 17 -9]
@9C F97EFF1E7 // [-25  -8  -5 -14]
@9D 05FEC11EC // [-20   8  -5  11]
@9E 090A02614 // [20 19 40 18]
@9F FEFE81618 // [24 11 -6 -3]
@A0 FF80003FA // [-6  1  0 -1]
@A1 0400BF002 // [ 2 -8  2  8]
@A2 0082815F9 // [-7 10 10  1]
@A3 F67E3FA03 // [  3  -3  -8 -20]
@A4 05FF3FC07 // [ 7 -2 -4 11]
@A5 068003C13 // [19 30  0 13]
@A6 06FBC23FD // [ -3  17 -17  13]
@A7 F880BF80A // [ 10  -4   2 -15]
@A8 03FF40C02 // [ 2  6 -3  7]
@A9 03FDC0603 // [ 3  3 -9  7]
@AA 090642015 // [21 16 25 18]
@AB FF8242401 // [ 1 18  9 -1]
@AC 100482219 // [25 17 18 32]
@AD FBFBBDC06 // [  6 -18 -18  -9]
@AE FF023EE08 // [ 8 -9  8 -2]
@AF 007FC0A0B // [11  5 -1  0]
@B0 0001815F4 // [-12  10   6   0]
@B1 07838000B // [11  0 14 15]
@B2 FC82807FE // [-2  3 10 -7]
@B3 FE007F7FE // [-2 -5  1 -4]
@B4 FFFE7FC0B // [11 -2 -7 -1]
@B5 0081FF5F7 // [-9 -6  7  1]
@B6 FF82001F9 // [-7  0  8 -1]
@B7 F900401FF // [ -1   0   1 -14]
@B8 F3FD413FF // [ -1   9 -11 -25]
@B9 FDFEC17FB // [-5 11 -5 -5]
@BA 007D3F801 // [  1  -4 -12   0]
@BB 00FD81206 // [  6   9 -10   1]
@BC FD00801F7 // [-9  0  2 -6]
@BD F7014140A // [ 10  10   5 -18]
@BE FEFE40BF1 // [-15   5  -7  -3]
@BF FFFEBE5FA // [ -6 -14  -6  -1]
@C0 FEFE3F808 // [ 8 -4 -8 -3]
@C1 FEFC7F405 // [  5  -6 -15  -3]
@C2 06FD7E5FD // [ -3 -14 -11  13]
@C3 01813EC06 // [  6 -10   4   3]
