@0 007F7EC02 // [  2 -10  -3   0]
@1 F8FEC2BFF // [ -1  21  -5 -15]
@2 FAFD00602 // [  2   3 -12 -11]
@3 017FC01FF // [-1  0 -1  2]
@4 FD82819EB // [-21  12  10  -5]
@5 037D7F002 // [  2  -8 -11   6]
@6 FC7EC11FD // [-3  8 -5 -8]
@7 FD804060F // [15  3  1 -5]
@8 FD0000BF5 // [-11   5   0  -6]
@9 FF80BF80A // [10 -4  2 -1]
@A 0100801FC // [-4  0  2  2]
@B 0180FF61E // [30 -5  3  3]
@C F8FFBF806 // [  6  -4  -2 -15]
@D 000140802 // [2 4 5 0]
@E FF0300406 // [ 6  2 12 -2]
@F 058040813 // [19  4  1 11]
@10 F87DFE60C // [ 12 -13  -9 -16]
@11 FD01BFDE5 // [-27  -2   6  -6]
@12 FF81BD9EF // [-17 -20   6  -1]
@13 FFFDC0DEF // [-17   6  -9  -1]
@14 008241C00 // [ 0 14  9  1]
@15 FC8580800 // [ 0  4 22 -7]
@16 050001603 // [ 3 11  0 10]
@17 FD0180BFD // [-3  5  6 -6]
@18 0082C05EE // [-18   2  11   1]
@19 087BC0C05 // [  5   6 -17  16]
@1A FF80BFE0F // [15 -1  2 -1]
@1B 0702411F0 // [-16   8   9  14]
@1C FC7F40016 // [22  0 -3 -8]
@1D FFFE7F808 // [ 8 -4 -7 -1]
@1E FAFCBE7F6 // [-10 -13 -14 -11]
@1F 0D00BFFF2 // [-14  -1   2  26]
@20 03850020D // [13  1 20  7]
@21 047F033FF // [-1 25 -4  8]
@22 0783013FC // [-4  9 12 15]
@23 FE003F804 // [ 4 -4  0 -4]
@24 017B80206 // [  6   1 -18   2]
@25 FAFE3C1E3 // [-29 -32  -8 -11]
@26 FB7CFE7F8 // [ -8 -13 -13 -10]
@27 05827EE01 // [ 1 -9  9 11]
@28 0B8241A0C // [12 13  9 23]
@29 017E81A05 // [ 5 13 -6  2]
@2A FE8000011 // [17  0  0 -3]
@2B F0FC3FDF8 // [ -8  -2 -16 -31]
@2C FC76BC7E4 // [-28 -29 -38  -8]
@2D 06023D403 // [  3 -22   8  12]
@2E 0580819F4 // [-12  12   2  11]
@2F 0E850160B // [11 11 20 29]
@30 00828000B // [11  0 10  1]
@31 02FE00605 // [ 5  3 -8  5]
@32 F7FD40DFE // [ -2   6 -11 -17]
@33 F2F9FD9EA // [-22 -20 -25 -27]
@34 108841009 // [ 9  8 33 33]
@35 060082617 // [23 19  2 12]
@36 107FBFA05 // [ 5 -3 -2 32]
@37 00040301A // [26 24 16  0]
@38 FBFF809F2 // [-14   4  -2  -9]
@39 EFFC7D600 // [  0 -21 -15 -33]
@3A FC7EBD3D3 // [-45 -23  -6  -8]
@3B 0104FFC04 // [ 4 -2 19  2]
@3C FAFDBF7FF // [ -1  -5 -10 -11]
@3D 040000802 // [2 4 0 8]
@3E 087F84415 // [21 34 -2 16]
@3F F9FFBE208 // [  8 -15  -2 -13]
@40 ECFC3CFF0 // [-16 -25 -16 -39]
@41 027E7D3F5 // [-11 -23  -7   4]
@42 F58281002 // [  2   8  10 -21]
@43 ED7A3C5E6 // [-26 -30 -24 -38]
@44 0A7DBEDF5 // [-11 -10 -10  20]
@45 03008320A // [10 25  2  6]
@46 F37DC0008 // [  8   0  -9 -26]
@47 FDFB7E5F4 // [-12 -14 -19  -5]
@48 0A043FA0B // [11 -3 16 20]
@49 F98101E0D // [ 13  15   4 -13]
@4A E4F43BFDF // [-33 -33 -48 -55]
@4B F9F8BCBE5 // [-27 -27 -30 -13]
@4C 038082007 // [ 7 16  2  7]
@4D 078200FFD // [-3  7  8 15]
@4E FD7DFF3F9 // [-7 -7 -9 -6]
@4F 0505435F4 // [-12  26  21  10]
@50 0B8701818 // [24 12 28 23]
@51 EE79FDDF1 // [-15 -18 -25 -36]
@52 F9F8FC5E9 // [-23 -30 -29 -13]
@53 07F941FFE // [ -2  15 -27  15]
@54 F901FEDFC // [ -4 -10   7 -14]
@55 007F7F206 // [ 6 -7 -3  0]
@56 010401015 // [21  8 16  2]
@57 0D8E84E0A // [10 39 58 27]
@58 FC8000A00 // [ 0  5  0 -7]
@59 F3F87B1FD // [ -3 -40 -31 -25]
@5A FF81BF7FA // [-6 -5  6 -1]
@5B FE7F3DE06 // [  6 -17  -4  -4]
@5C 047C7E5F8 // [ -8 -14 -15   8]
@5D 077FC1C00 // [ 0 14 -1 14]
@5E 0F8C84A0C // [12 37 50 31]
@5F 040401A0F // [15 13 16  8]
@60 F1F6BBFFE // [ -2 -33 -38 -29]
@61 FF003F3F1 // [-15  -7   0  -2]
@62 FE017EBFB // [ -5 -11   5  -4]
@63 F5F83EDFE // [ -2 -10 -32 -21]
@64 F88000002 // [  2   0   0 -15]
@65 098AC6015 // [21 48 43 19]
@66 FD7AC0012 // [ 18   0 -21  -6]
@67 F27CBC3EA // [-22 -31 -14 -28]
@68 F880FF9EF // [-17  -4   3 -15]
@69 02003FE0C // [12 -1  0  4]
@6A E7F53BBFC // [ -4 -35 -44 -49]
@6B FC7DFD3EB // [-21 -23  -9  -8]
@6C FE04417FE // [-2 11 17 -4]
@6D F37B3D9F3 // [-13 -20 -20 -26]
@6E F37BBCDE8 // [-24 -26 -18 -26]
@6F FE81BEBF0 // [-16 -11   6  -3]
@70 FA0140A00 // [  0   5   5 -12]
@71 F374BE5F6 // [-10 -14 -46 -26]
@72 F6F9F91DB // [-37 -56 -25 -19]
@73 F9017F7F2 // [-14  -5   5 -14]
@74 EE787D9EE // [-18 -20 -31 -36]
@75 F77ABC9E4 // [-28 -28 -22 -18]
@76 FF7E3EDE5 // [-27 -10  -8  -2]
@77 00FF7E208 // [  8 -15  -3   1]
@78 EFF8FC3F6 // [-10 -31 -29 -33]
@79 F9F73C3D3 // [-45 -31 -36 -13]
@7A FC7DBE1E9 // [-23 -16 -10  -8]
@7B EFF83EDF1 // [-15 -10 -32 -33]
@7C FA7D3EBF1 // [-15 -11 -12 -12]
@7D 03FFFCFF0 // [-16 -25  -1   7]
@7E FD04C17F4 // [-12  11  19  -6]
@7F F4FE3E9FB // [ -5 -12  -8 -23]
@80 EEF87C5E7 // [-25 -30 -31 -35]
@81 FD7AFBFE2 // [-30 -33 -21  -6]
@82 F680BEFF6 // [-10  -9   2 -19]
@83 FC783F7F1 // [-15  -5 -32  -8]
@84 00FDBF3EE // [-18  -7 -10   1]
@85 FD82FFE04 // [ 4 -1 11 -5]
@86 027E3F60C // [12 -5 -8  4]
@87 EFFE7F008 // [  8  -8  -7 -33]
@88 FF80FFDEF // [-17  -2   3  -1]
@89 FCFE81408 // [ 8 10 -6 -7]
@8A FA7BBE1EC // [-20 -16 -18 -12]
@8B FE813EDF1 // [-15 -10   4  -3]
@8C F97F003F5 // [-11   1  -4 -14]
@8D 08803E9FC // [ -4 -12   0  17]
@8E 0282C1C0E // [14 14 11  5]
@8F 0A017E3FD // [ -3 -15   5  20]
@90 FC823FDFE // [-2 -2  8 -7]
@91 FDFC7D401 // [  1 -22 -15  -5]
@92 01FD3F9FD // [ -3  -4 -12   3]
@93 FE7F405FA // [-6  2 -3 -4]
@94 0184FEC03 // [  3 -10  19   3]
@95 FD8281C1C // [28 14 10 -5]
@96 FD00019FF // [-1 12  0 -6]
@97 F87AC0007 // [  7   0 -21 -16]
@98 FEF9BF3F3 // [-13  -7 -26  -3]
@99 00807FFF2 // [-14  -1   1   1]
@9A 048000008 // [8 0 0 9]
@9B FEFEFFFFD // [-3 -1 -5 -3]
@9C FC8101A06 // [ 6 13  4 -7]
@9D FAFD80DFB // [ -5   6 -10 -11]
@9E F77BC27FD // [ -3  19 -17 -18]
@9F FA7D3E3F8 // [ -8 -15 -12 -12]
@A0 0180C09FA // [-6  4  3  3]
@A1 FC8300003 // [ 3  0 12 -7]
@A2 080080201 // [ 1  1  2 16]
@A3 05FD7F006 // [  6  -8 -11  11]
@A4 FE7F3F600 // [ 0 -5 -4 -4]
@A5 F2FEBE7FC // [ -4 -13  -6 -27]
@A6 F77C7CBFC // [ -4 -27 -15 -18]
@A7 FE0100A07 // [ 7  5  4 -4]
@A8 F883FF1F2 // [-14  -8  15 -15]
@A9 0181001FE // [-2  0  4  3]
@AA 0004BF9FC // [-4 -4 18  0]
@AB FD807E802 // [  2 -12   1  -5]
@AC FE803FFFF // [-1 -1  0 -3]
@AD 057DFF5FE // [-2 -6 -9 10]
@AE FA003EFFB // [ -5  -9   0 -12]
@AF FDFDFE411 // [ 17 -14  -9  -5]
@B0 067BBEFFA // [ -6  -9 -18  12]
@B1 04010161B // [27 11  4  8]
@B2 058001208 // [ 8  9  0 11]
@B3 0002C1202 // [ 2  9 11  0]
@B4 00803FE09 // [ 9 -1  0  1]
@B5 FD7E8000B // [11  0 -6 -6]
@B6 00003EE00 // [ 0 -9  0  0]
@B7 FC8000E01 // [ 1  7  0 -7]
@B8 FEFE40800 // [ 0  4 -7 -3]
@B9 018080008 // [8 0 2 3]
@BA 0C82FEA01 // [  1 -11  11  25]
@BB FC8000002 // [ 2  0  0 -7]
@BC 030080A05 // [5 5 2 6]
@BD F8FF41006 // [  6   8  -3 -15]
@BE FE003F7FF // [-1 -5  0 -4]
@BF FDFEBF7F4 // [-12  -5  -6  -5]
@C0 FCFD3E805 // [  5 -12 -12  -7]
@C1 050040600 // [ 0  3  1 10]
@C2 027F40BF5 // [-11   5  -3   4]
@C3 FB7E3FDFA // [ -6  -2  -8 -10]
