@0 03003EC0C // [ 12 -10   0   6]
@1 06FF01809 // [ 9 12 -4 13]
@2 03033F615 // [21 -5 12  6]
@3 028240603 // [3 3 9 5]
@4 0305C0600 // [ 0  3 23  6]
@5 087CC15F2 // [-14  10 -13  16]
@6 FF01413E8 // [-24   9   5  -2]
@7 FC80FD9FB // [ -5 -20   3  -7]
@8 FD82C1009 // [ 9  8 11 -5]
@9 FEFDBF3FD // [ -3  -7 -10  -3]
@A 00013F9FC // [-4 -4  4  0]
@B 05017F3FB // [-5 -7  5 10]
@C FF81427F4 // [-12  19   5  -1]
@D 08017E808 // [  8 -12   5  16]
@E FA82BFE07 // [  7  -1  10 -11]
@F FD7DFF5FF // [-1 -6 -9 -6]
@10 F6833D807 // [  7 -20  12 -19]
@11 FC82809F1 // [-15   4  10  -7]
@12 037CC09F3 // [-13   4 -13   6]
@13 03FEFE7F3 // [-13 -13  -5   7]
@14 08FC819FF // [ -1  12 -14  17]
@15 047E803FD // [-3  1 -6  8]
@16 FD01001F2 // [-14   0   4  -6]
@17 FB7BFF3F6 // [-10  -7 -17 -10]
@18 01813F7FB // [-5 -5  4  3]
@19 03FFC1C0F // [15 14 -1  7]
@1A F900BF7FE // [ -2  -5   2 -14]
@1B 03FD017FB // [ -5  11 -12   7]
@1C FD80C1400 // [ 0 10  3 -5]
@1D FE7F7E7FD // [ -3 -13  -3  -4]
@1E 0A8381603 // [ 3 11 14 21]
@1F 0400C3DFE // [-2 30  3  8]
@20 038281C07 // [ 7 14 10  7]
@21 FB807DDFD // [ -3 -18   1  -9]
@22 FF813FDF5 // [-11  -2   4  -1]
@23 0200003F9 // [-7  1  0  4]
@24 0D8705407 // [ 7 42 28 27]
@25 FA0781613 // [ 19  11  30 -12]
@26 FEFE7FC09 // [ 9 -2 -7 -3]
@27 FBFCFD1FD // [ -3 -24 -13  -9]
@28 F8FD7E1F4 // [-12 -16 -11 -15]
@29 FAFEFF803 // [  3  -4  -5 -11]
@2A 0701C0A0B // [11  5  7 14]
@2B 080643E0C // [12 31 25 16]
@2C 0182C2022 // [34 16 11  3]
@2D F27A3F001 // [  1  -8 -24 -28]
@2E FF7E005ED // [-19   2  -8  -2]
@2F FD7E00C02 // [ 2  6 -8 -6]
@30 00053FE00 // [ 0 -1 20  0]
@31 00FFBFDFC // [-4 -2 -2  1]
@32 068504E17 // [23 39 20 13]
@33 F48200803 // [  3   4   8 -23]
@34 FD7D3F3F0 // [-16  -7 -12  -6]
@35 0001FDFE9 // [-23 -17   7   0]
@36 F5013F213 // [ 19  -7   4 -22]
@37 FC80BF9F2 // [-14  -4   2  -7]
@38 03027F9FD // [-3 -4  9  6]
@39 0B0742E18 // [24 23 29 22]
@3A F37FBEE0B // [ 11  -9  -2 -26]
@3B 09FF3DDF1 // [-15 -18  -4  19]
@3C 0C068100E // [14  8 26 24]
@3D EE8441417 // [ 23  10  17 -35]
@3E 03FF809FC // [-4  4 -2  7]
@3F 01FFBF60E // [14 -5 -2  3]
@40 03858341A // [26 26 22  7]
@41 EF78FF60A // [ 10  -5 -29 -34]
@42 17FCBE5D6 // [-42 -14 -14  47]
@43 0E0B0461F // [31 35 44 28]
@44 F8FF03C1A // [ 26  30  -4 -15]
@45 0BFEC13F6 // [-10   9  -5  23]
@46 04FE80A0C // [12  5 -6  9]
@47 FD7F82601 // [ 1 19 -2 -6]
@48 E5767AFEE // [-18 -41 -39 -54]
@49 13807EFE6 // [-26  -9   1  39]
@4A 0D098682C // [44 52 38 26]
@4B F4FCC181D // [ 29  12 -13 -23]
@4C FE7F403F0 // [-16   1  -3  -4]
@4D 0D803FFF8 // [-8 -1  0 27]
@4E FBFCFE610 // [ 16 -13 -13  -9]
@4F 007F809FA // [-6  4 -2  0]
@50 16803EC0E // [ 14 -10   0  45]
@51 030B4562E // [46 43 45  6]
@52 F37AFCE08 // [  8 -25 -21 -26]
@53 0900401F1 // [-15   0   1  18]
@54 0580BD001 // [  1 -24   2  11]
@55 FD7AC021B // [ 27   1 -21  -6]
@56 0B8603809 // [ 9 28 24 23]
@57 0B02C0000 // [ 0  0 11 22]
@58 0F098481D // [29 36 38 30]
@59 E579BAA06 // [  6 -43 -26 -54]
@5A 027B7E3F0 // [-16 -15 -19   4]
@5B 02FB005F8 // [ -8   2 -20   5]
@5C FC7D00805 // [  5   4 -12  -8]
@5D 008684C0E // [14 38 26  1]
@5E 0985001FC // [-4  0 20 19]
@5F 078845C23 // [35 46 33 15]
@60 F2FA3A9FB // [ -5 -44 -24 -27]
@61 FE01805EB // [-21   2   6  -4]
@62 07FEC0603 // [ 3  3 -5 15]
@63 027AFCFFC // [ -4 -25 -21   4]
@64 F7FC4040E // [ 14   2 -15 -17]
@65 0C078120A // [10  9 30 24]
@66 108A0541D // [29 42 40 33]
@67 F77D3F208 // [  8  -7 -12 -18]
@68 FFFCC09F2 // [-14   4 -13  -1]
@69 037E011F8 // [-8  8 -8  6]
@6A F37FFF603 // [  3  -5  -1 -26]
@6B F4FC3CA00 // [  0 -27 -16 -23]
@6C 0B890080C // [12  4 36 23]
@6D 1005C3E29 // [41 31 23 32]
@6E 01FEC2203 // [ 3 17 -5  3]
@6F F57F00001 // [  1   0  -4 -22]
@70 008000605 // [5 3 0 1]
@71 EF003F208 // [  8  -7   0 -34]
@72 EF76B93E9 // [-23 -55 -38 -34]
@73 0A0A439F8 // [-8 28 41 20]
@74 040143624 // [36 27  5  8]
@75 FFFEC2A03 // [ 3 21 -5 -1]
@76 0282BEA08 // [  8 -11  10   5]
@77 02FDFFE0A // [10 -1 -9  5]
@78 F7FC81C16 // [ 22  14 -14 -17]
@79 DAEDB97ED // [-19 -53 -74 -75]
@7A 0F05407EB // [-21   3  21  30]
@7B 0781C0C1C // [28  6  7 15]
@7C 0381BF012 // [18 -8  6  7]
@7D 020300C06 // [ 6  6 12  4]
@7E 10027FC00 // [ 0 -2  9 32]
@7F F88040C24 // [ 36   6   1 -15]
@80 E26FB9BDD // [-35 -51 -66 -60]
@81 FE7CBD7CD // [-51 -21 -14  -4]
@82 0700BF5F8 // [-8 -6  2 14]
@83 FDFFFEE0E // [14 -9 -1 -5]
@84 05FD7E7F8 // [ -8 -13 -11  11]
@85 09037FBF7 // [-9 -3 13 18]
@86 F8FE81413 // [ 19  10  -6 -15]
@87 E1743CBF1 // [-15 -27 -48 -62]
@88 FE7FFDBDB // [-37 -19  -1  -4]
@89 FE02C100F // [15  8 11 -4]
@8A F17F7F807 // [  7  -4  -3 -30]
@8B FB813FDF3 // [-13  -2   4  -9]
@8C 0000FFA05 // [ 5 -3  3  0]
@8D F70000A00 // [  0   5   0 -18]
@8E F47D3DA01 // [  1 -19 -12 -24]
@8F 027E7D1DE // [-34 -24  -7   4]
@90 0481FFE02 // [ 2 -1  7  9]
@91 F27F7FC00 // [  0  -2  -3 -28]
@92 0200FFFF6 // [-10  -1   3   4]
@93 0A01423F1 // [-15  17   5  20]
@94 F7FA429F9 // [ -7  20 -23 -17]
@95 F2777CFE5 // [-27 -25 -35 -28]
@96 FE7CFD9EF // [-17 -20 -13  -4]
@97 0E0280DFE // [-2  6 10 28]
@98 F6FEBF5FF // [ -1  -6  -6 -19]
@99 FE00005F5 // [-11   2   0  -4]
@9A 04034100C // [12  8 13  8]
@9B F6FD00BFB // [ -5   5 -12 -19]
@9C EEFA7C5D7 // [-41 -30 -23 -35]
@9D 05003C3DC // [-36 -31   0  10]
@9E 05FF83C0D // [13 30 -2 11]
@9F F9FD7E009 // [  9 -16 -11 -13]
@A0 FF84BDFF6 // [-10 -17  18  -1]
@A1 0301401F4 // [-12   0   5   6]
@A2 048401008 // [ 8  8 16  9]
@A3 F377BBDE8 // [-24 -34 -34 -26]
@A4 02793DDEC // [-20 -18 -28   4]
@A5 000101E02 // [ 2 15  4  0]
@A6 FA7EBF7FE // [ -2  -5  -6 -12]
@A7 047F7F5F7 // [-9 -6 -3  8]
@A8 0081807F1 // [-15   3   6   1]
@A9 0C05827F4 // [-12  19  22  24]
@AA 00060001C // [28  0 24  0]
@AB 007DBD3EC // [-20 -23 -10   0]
@AC 048241E02 // [ 2 15  9  9]
@AD F97FFF213 // [ 19  -7  -1 -14]
@AE 00820000C // [12  0  8  1]
@AF 00FE82000 // [ 0 16 -6  1]
@B0 07068140B // [11 10 26 14]
@B1 068683223 // [35 25 26 13]
@B2 03084401C // [28 32 33  6]
@B3 FEFF80E05 // [ 5  7 -2 -3]
@B4 067D8200C // [ 12  16 -10  12]
@B5 0A7D40008 // [  8   0 -11  20]
@B6 028140002 // [2 0 5 5]
@B7 087D01E0A // [ 10  15 -12  16]
@B8 0C023F20E // [14 -7  8 24]
@B9 07053E00F // [ 15 -16  20  14]
@BA 028200E15 // [21  7  8  5]
@BB 0080419FC // [-4 12  1  1]
@BC FF0080607 // [ 7  3  2 -2]
@BD 07FE007EB // [-21   3  -8  15]
@BE 01FD7DA06 // [  6 -19 -11   3]
@BF 02FF3EDF9 // [ -7 -10  -4   5]
@C0 FC017FA12 // [18 -3  5 -8]
@C1 007FBEBF9 // [ -7 -11  -2   0]
@C2 02823E7FA // [ -6 -13   8   5]
@C3 F9FF007F5 // [-11   3  -4 -13]
