@0 FF7C009FF // [ -1   4 -16  -2]
@1 047EBFC12 // [18 -2 -6  8]
@2 017C81C0C // [ 12  14 -14   2]
@3 04FEC0DF4 // [-12   6  -5   9]
@4 047EC07F7 // [-9  3 -5  8]
@5 048442DFB // [-5 22 17  9]
@6 FEFD3FFEF // [-17  -1 -12  -3]
@7 067FC0A0C // [12  5 -1 12]
@8 FF027FFFB // [-5 -1  9 -2]
@9 0002807FE // [-2  3 10  0]
@A FD803F7FD // [-3 -5  0 -5]
@B FD7F7F9F2 // [-14  -4  -3  -6]
@C 007CC1E0C // [ 12  15 -13   0]
@D 0580BF9FC // [-4 -4  2 11]
@E 0182BDFFD // [ -3 -17  10   3]
@F F7FDFF400 // [  0  -6  -9 -17]
@10 FF02BE400 // [  0 -14  10  -2]
@11 FD7CFFBFA // [ -6  -3 -13  -6]
@12 FB7E40E00 // [  0   7  -7 -10]
@13 008181807 // [ 7 12  6  1]
@14 FC8000800 // [ 0  4  0 -7]
@15 017FC0FEF // [-17   7  -1   2]
@16 00023EA12 // [ 18 -11   8   0]
@17 FB01FEDFB // [ -5 -10   7 -10]
@18 F67C3F3F2 // [-14  -7 -16 -20]
@19 F8FBFE001 // [  1 -16 -17 -15]
@1A FE7AC05F8 // [ -8   2 -21  -4]
@1B FF01FFBFC // [-4 -3  7 -2]
@1C F8807FDED // [-19  -2   1 -15]
@1D FA82801EE // [-18   0  10 -11]
@1E 007D805F9 // [ -7   2 -10   0]
@1F F1FDFCDFA // [ -6 -26  -9 -29]
@20 FF7CBD7ED // [-19 -21 -14  -2]
@21 0DFE3E5FA // [ -6 -14  -8  27]
@22 FF0040000 // [ 0  0  1 -2]
@23 00FF001FC // [-4  0 -4  1]
@24 FEFBC01F4 // [-12   0 -17  -3]
@25 007B3FE00 // [  0  -1 -20   0]
@26 FE803FC0E // [14 -2  0 -3]
@27 FAFDC05EB // [-21   2  -9 -11]
@28 F9F87E1E7 // [-25 -16 -31 -13]
@29 F9FFBEDFD // [ -3 -10  -2 -13]
@2A 04FE42007 // [ 7 16 -7  9]
@2B 057F81FF9 // [-7 15 -2 10]
@2C FB7FBFDFD // [ -3  -2  -2 -10]
@2D 16878060C // [12  3 30 45]
@2E FA818281A // [ 26  20   6 -11]
@2F F8FEBE3F0 // [-16 -15  -6 -15]
@30 FAFB803E1 // [-31   1 -18 -11]
@31 0701BFFFC // [-4 -1  6 14]
@32 00FF80A09 // [ 9  5 -2  1]
@33 09FF01403 // [ 3 10 -4 19]
@34 120702A16 // [22 21 28 36]
@35 000743427 // [39 26 29  0]
@36 F17C3EBE8 // [-24 -11 -16 -30]
@37 F9FBFE3ED // [-19 -15 -17 -13]
@38 06823F9F3 // [-13  -4   8  13]
@39 00818000A // [10  0  6  1]
@3A 09013F805 // [ 5 -4  4 18]
@3B 1204C1A00 // [ 0 13 19 36]
@3C 05830281E // [30 20 12 11]
@3D FB80FFE06 // [ 6 -1  3 -9]
@3E FC00FEDEE // [-18 -10   3  -8]
@3F 0103009F9 // [-7  4 12  2]
@40 020301A07 // [ 7 13 12  4]
@41 05007EFF2 // [-14  -9   1  10]
@42 0F8403207 // [ 7 25 16 31]
@43 05048421D // [29 33 18 10]
@44 F8810040C // [ 12   2   4 -15]
@45 01803E7EB // [-21 -13   0   3]
@46 0A807F40C // [12 -6  1 21]
@47 FAFFC3DFD // [ -3  30  -1 -11]
@48 FA8080A00 // [  0   5   2 -11]
@49 0B8180A18 // [24  5  6 23]
@4A 0607C261B // [27 19 31 12]
@4B 000303421 // [33 26 12  0]
@4C FEFDBE1FE // [ -2 -16 -10  -3]
@4D 06813F40F // [15 -6  4 13]
@4E 077F01810 // [16 12 -4 14]
@4F 048041009 // [9 8 1 9]
@50 01807F80D // [13 -4  1  3]
@51 1406C301A // [26 24 27 40]
@52 0B0CC381E // [30 28 51 22]
@53 007F3EC04 // [  4 -10  -4   0]
@54 0500C1FFD // [-3 15  3 10]
@55 047F02DFF // [-1 22 -4  8]
@56 F7FD7E002 // [  2 -16 -11 -17]
@57 03F4B9FEC // [-20 -49 -46   7]
@58 0608C2C05 // [ 5 22 35 12]
@59 FF8785418 // [24 42 30 -1]
@5A 0782C0207 // [ 7  1 11 15]
@5B 020300206 // [ 6  1 12  4]
@5C 0606C1A07 // [ 7 13 27 12]
@5D F5FDBDDF4 // [-12 -18 -10 -21]
@5E FF793A5DD // [-35 -46 -28  -2]
@5F 0603FFA10 // [16 -3 15 12]
@60 FF0102C25 // [37 22  4 -2]
@61 04003D9FF // [ -1 -20   0   8]
@62 077EFEBFC // [ -4 -11  -5  14]
@63 040103611 // [17 27  4  8]
@64 F0FBBDFFF // [ -1 -17 -18 -31]
@65 F7F4F91D2 // [-46 -56 -45 -17]
@66 08037EFFF // [-1 -9 13 16]
@67 030AC3A0D // [13 29 43  6]
@68 02847F400 // [ 0 -6 17  5]
@69 037CC180C // [ 12  12 -13   6]
@6A 037F41C08 // [ 8 14 -3  6]
@6B ECFCFE9F8 // [ -8 -12 -13 -39]
@6C F1F43AFE1 // [-31 -41 -48 -29]
@6D 098302BEF // [-17  21  12  19]
@6E 040343429 // [41 26 13  8]
@6F 0481807F0 // [-16   3   6   9]
@70 FF7DC1000 // [ 0  8 -9 -2]
@71 018441FFC // [-4 15 17  3]
@72 F6010080B // [ 11   4   4 -20]
@73 F171B93E3 // [-29 -55 -58 -30]
@74 06FDBEE02 // [  2  -9 -10  13]
@75 F501C2DFE // [ -2  22   7 -22]
@76 03FE00FF3 // [-13   7  -8   7]
@77 FB853FDF1 // [-15  -2  20  -9]
@78 02817FFF9 // [-7 -1  5  5]
@79 08888201E // [30 16 34 17]
@7A F5FEFCE0B // [ 11 -25  -5 -21]
@7B F782C0DF3 // [-13   6  11 -17]
@7C FB7FBFE03 // [  3  -1  -2 -10]
@7D 0381405FC // [-4  2  5  7]
@7E 047FFEFF8 // [-8 -9 -1  8]
@7F 037E3E1F9 // [ -7 -16  -8   6]
@80 06858200E // [14 16 22 13]
@81 FFFE00803 // [ 3  4 -8 -1]
@82 FFFE7F1ED // [-19  -8  -7  -1]
@83 F5FABE40D // [ 13 -14 -22 -21]
@84 02FF41DF6 // [-10  14  -3   5]
@85 007F7FDFF // [-1 -2 -3  0]
@86 F97C3EA02 // [  2 -11 -16 -14]
@87 05FFBF3F1 // [-15  -7  -2  11]
@88 F8FD3EBEC // [-20 -11 -12 -15]
@89 FAFA7E3EA // [-22 -15 -23 -11]
@8A F4F8FE9E7 // [-25 -12 -29 -23]
@8B 0180BE5F3 // [-13 -14   2   3]
@8C FFFF00605 // [ 5  3 -4 -1]
@8D F4FCBF1F3 // [-13  -8 -14 -23]
@8E F3013F5ED // [-19  -6   4 -26]
@8F F0F97F9E8 // [-24  -4 -27 -31]
@90 F0F93C3EB // [-21 -31 -28 -31]
@91 F47D3C3E1 // [-31 -31 -12 -24]
@92 FF80FFDF2 // [-14  -2   3  -1]
@93 06FF7F809 // [ 9 -4 -3 13]
@94 F2FDBF3F3 // [-13  -7 -10 -27]
@95 FB81FDDEE // [-18 -18   7  -9]
@96 F7FFC05FE // [ -2   2  -1 -17]
@97 EA74FC5F7 // [ -9 -30 -45 -44]
@98 FBFCBEBE3 // [-29 -11 -14  -9]
@99 0B053FBFA // [-6 -3 20 22]
@9A 017A403FA // [ -6   1 -23   2]
@9B 02FE3CDF2 // [-14 -26  -8   5]
@9C 0B8000207 // [ 7  1  0 23]
@9D FF0280A0E // [14  5 10 -2]
@9E E8757CC06 // [  6 -26 -43 -48]
@9F F97F7C1EB // [-21 -32  -3 -14]
@A0 0183001FF // [-1  0 12  3]
@A1 F9FE00C10 // [ 16   6  -8 -13]
@A2 05FEFFDFC // [-4 -2 -5 11]
@A3 00803F9FB // [-5 -4  0  1]
@A4 00803F200 // [ 0 -7  0  1]
@A5 F07A3CBEF // [-17 -27 -24 -32]
@A6 FE7FBE9DB // [-37 -12  -2  -4]
@A7 FD80BF400 // [ 0 -6  2 -5]
@A8 F87E81C00 // [  0  14  -6 -16]
@A9 FF0241A04 // [ 4 13  9 -2]
@AA 027C3EC08 // [  8 -10 -16   4]
@AB 01FE7D5F0 // [-16 -22  -7   3]
@AC F67F3EBF2 // [-14 -11  -4 -20]
@AD F9807FBF7 // [ -9  -3   1 -13]
@AE 0501407F8 // [-8  3  5 10]
@AF FDFDFE403 // [  3 -14  -9  -5]
@B0 08810120F // [15  9  4 17]
@B1 FF808160B // [11 11  2 -1]
@B2 018342207 // [ 7 17 13  3]
@B3 0600C240A // [10 18  3 12]
@B4 F4FF81C0F // [ 15  14  -2 -23]
@B5 F9FF7E806 // [  6 -12  -3 -13]
@B6 FD007F211 // [17 -7  1 -6]
@B7 080180BFD // [-3  5  6 16]
@B8 018201A14 // [20 13  8  3]
@B9 080502029 // [41 16 20 16]
@BA 030181C08 // [ 8 14  6  6]
@BB 037F81A12 // [18 13 -2  6]
@BC 0401415ED // [-19  10   5   8]
@BD 028640DF7 // [-9  6 25  5]
@BE 057EC07FA // [-6  3 -5 10]
@BF FC807EFFE // [-2 -9  1 -7]
@C0 0502C1403 // [ 3 10 11 10]
@C1 FE7F3F1F2 // [-14  -8  -4  -4]
@C2 00003FFFF // [-1 -1  0  0]
@C3 028481807 // [ 7 12 18  5]
