@0 F9FEC0000 // [  0   0  -5 -13]
@1 FE01C0BFA // [-6  5  7 -4]
@2 02FE007FC // [-4  3 -8  5]
@3 0100001F4 // [-12   0   0   2]
@4 FF828000B // [11  0 10 -1]
@5 007EC1000 // [ 0  8 -5  0]
@6 00FC7FA0B // [ 11  -3 -15   1]
@7 F9FEC1DF9 // [ -7  14  -5 -13]
@8 FFFE0340E // [14 26 -8 -1]
@9 00823FE0F // [15 -1  8  1]
@A 058280A02 // [ 2  5 10 11]
@B FE8240A01 // [ 1  5  9 -3]
@C FB8280002 // [ 2  0 10 -9]
@D F67E8100B // [ 11   8  -6 -20]
@E F8FF8040C // [ 12   2  -2 -15]
@F 01FFBE801 // [  1 -12  -2   3]
@10 0982BFA01 // [ 1 -3 10 19]
@11 000000207 // [7 1 0 0]
@12 FCFF7EA0A // [ 10 -11  -3  -7]
@13 0480BF7F7 // [-9 -5  2  9]
@14 F70141C11 // [ 17  14   5 -18]
@15 FA017E80D // [ 13 -12   5 -12]
@16 008180E0A // [10  7  6  1]
@17 058342000 // [ 0 16 13 11]
@18 FA85C1014 // [ 20   8  23 -11]
@19 017F01FFF // [-1 15 -4  2]
@1A 06057E5F8 // [ -8 -14  21  12]
@1B FE04C0000 // [ 0  0 19 -4]
@1C FEFC005FB // [ -5   2 -16  -3]
@1D 0282C000E // [14  0 11  5]
@1E 060502A05 // [ 5 21 20 12]
@1F 050541810 // [16 12 21 10]
@20 FB037FBFB // [ -5  -3  13 -10]
@21 FF7D3EDF5 // [-11 -10 -12  -2]
@22 FE81BD7F9 // [ -7 -21   6  -3]
@23 FE7FC0003 // [ 3  0 -1 -4]
@24 008400A03 // [ 3  5 16  1]
@25 0302BF203 // [ 3 -7 10  6]
@26 0504C1A0B // [11 13 19 10]
@27 048181209 // [9 9 6 9]
@28 F07AFE3FF // [ -1 -15 -21 -32]
@29 FA00BFFDE // [-34  -1   2 -12]
@2A 017F3EA09 // [  9 -11  -4   2]
@2B 030240000 // [0 0 9 6]
@2C F7FEFE7FA // [ -6 -13  -5 -17]
@2D 00017FBF0 // [-16  -3   5   0]
@2E 037D3E002 // [  2 -16 -12   6]
@2F F7757DFF5 // [-11 -17 -43 -18]
@30 FF7FBE5E5 // [-27 -14  -2  -2]
@31 FD8101803 // [ 3 12  4 -5]
@32 FFFDBE9F4 // [-12 -12 -10  -1]
@33 F7797EA00 // [  0 -11 -27 -18]
@34 FFFE3FC02 // [ 2 -2 -8 -1]
@35 FB7B3FE04 // [  4  -1 -20 -10]
@36 F4F8BD7F0 // [-16 -21 -30 -23]
@37 04FFBD7ED // [-19 -21  -2   9]
@38 FDFE01600 // [ 0 11 -8 -5]
@39 0A0180BFE // [-2  5  6 20]
@3A FCFF401F7 // [-9  0 -3 -7]
@3B 0589013FF // [-1  9 36 11]
@3C 02034160E // [14 11 13  4]
@3D F100BE9F1 // [-15 -12   2 -30]
@3E FB7EBCBDF // [-33 -27  -6 -10]
@3F FF824020A // [10  1  9 -1]
@40 138200801 // [ 1  4  8 39]
@41 FE02C0C06 // [ 6  6 11 -4]
@42 0486431FF // [-1 24 25  9]
@43 0B0242A05 // [ 5 21  9 22]
@44 FB7EC2C04 // [  4  22  -5 -10]
@45 FF7F3F9D8 // [-40  -4  -4  -2]
@46 007E01E00 // [ 0 15 -8  0]
@47 0F090240E // [14 18 36 30]
@48 0A7E81004 // [ 4  8 -6 20]
@49 FB808060A // [10  3  2 -9]
@4A 1288435FE // [-2 26 33 37]
@4B 090582E1E // [30 23 22 18]
@4C 0002BE7EC // [-20 -13  10   0]
@4D FF7D42410 // [ 16  18 -11  -2]
@4E FF8842403 // [ 3 18 33 -1]
@4F F7F9C09FA // [ -6   4 -25 -17]
@50 F9FE3F3E0 // [-32  -7  -8 -13]
@51 1389FEBFF // [ -1 -11  39  39]
@52 140E03E28 // [40 31 56 40]
@53 007F3F60D // [13 -5 -4  0]
@54 03FF417FE // [-2 11 -3  7]
@55 FFFFFFE02 // [ 2 -1 -1 -1]
@56 EFF8BDDEE // [-18 -18 -30 -33]
@57 F6FB3F1F2 // [-14  -8 -20 -19]
@58 1785FFFFA // [-6 -1 23 47]
@59 128F85838 // [56 44 62 37]
@5A 0C0081E15 // [21 15  2 24]
@5B FC81C0406 // [ 6  2  7 -7]
@5C FFFE7D9EE // [-18 -20  -7  -1]
@5D F8F6FADE0 // [-32 -42 -37 -15]
@5E F9FAFFFF6 // [-10  -1 -21 -13]
@5F 028240800 // [0 4 9 5]
@60 0D8983813 // [19 28 38 27]
@61 FD043FC12 // [18 -2 16 -6]
@62 F981407FC // [ -4   3   5 -13]
@63 0701801FC // [-4  0  6 14]
@64 F9F7BC9EA // [-22 -28 -34 -13]
@65 EE8000BF7 // [ -9   5   0 -35]
@66 FB7E7F5EE // [-18  -6  -7 -10]
@67 0885017E2 // [-30  11  20  17]
@68 FD0300A24 // [36  5 12 -6]
@69 0100405FE // [-2  2  1  2]
@6A 0A06017F3 // [-13  11  24  20]
@6B F4F8BE405 // [  5 -14 -30 -23]
@6C F4FF7EDD6 // [-42 -10  -3 -23]
@6D FC793C1EF // [-17 -32 -28  -8]
@6E 047E3EFFB // [-5 -9 -8  8]
@6F 02008140F // [15 10  2  4]
@70 05FFC1DFC // [-4 14 -1 11]
@71 100DC4602 // [ 2 35 55 32]
@72 010343C24 // [36 30 13  2]
@73 ED7C3D3FB // [ -5 -23 -16 -38]
@74 01F9FD7EC // [-20 -21 -25   3]
@75 09FEC07F9 // [-7  3 -5 19]
@76 FFFF83017 // [23 24 -2 -1]
@77 FE8101BF5 // [-11  13   4  -3]
@78 208802C04 // [ 4 22 32 65]
@79 161249053 // [83 72 73 44]
@7A F0FDC242A // [ 42  18  -9 -31]
@7B 03FCC0004 // [  4   0 -13   7]
@7C 0C8600E0A // [10  7 24 25]
@7D 0001C161D // [29 11  7  0]
@7E F77FC0206 // [  6   1  -1 -18]
@7F 2006433FB // [-5 25 25 64]
@80 30170C048 // [72 96 92 96]
@81 07044323F // [63 25 17 14]
@82 078401A01 // [ 1 13 16 15]
@83 1484C2FFD // [-3 23 19 41]
@84 FC80C1A15 // [21 13  3 -7]
@85 008200006 // [6 0 8 1]
@86 067E02615 // [21 19 -8 12]
@87 1E93C6821 // [33 52 79 61]
@88 04060382D // [45 28 24  8]
@89 01834340E // [14 26 13  3]
@8A 0704C25FC // [-4 18 19 14]
@8B 028083208 // [ 8 25  2  5]
@8C 037D3E210 // [ 16 -15 -12   6]
@8D 0B0300A0B // [11  5 12 22]
@8E 118240A0D // [13  5  9 35]
@8F 0A0180A29 // [41  5  6 20]
@90 0B04C1E0A // [10 15 19 22]
@91 0A060180E // [14 12 24 20]
@92 058140E24 // [36  7  5 11]
@93 F57FBF606 // [  6  -5  -2 -22]
@94 057F00A01 // [ 1  5 -4 10]
@95 02033E7F1 // [-15 -13  12   4]
@96 068282409 // [ 9 18 10 13]
@97 040600200 // [ 0  1 24  8]
@98 0B0480A00 // [ 0  5 18 22]
@99 040280005 // [ 5  0 10  8]
@9A 02FFC020B // [11  1 -1  5]
@9B 0504801EE // [-18   0  18  10]
@9C FB7F7F9F9 // [ -7  -4  -3 -10]
@9D FC00C3C0B // [11 30  3 -8]
@9E 017FC09F0 // [-16   4  -1   2]
@9F 050441FFB // [-5 15 17 10]
@A0 038000801 // [1 4 0 7]
@A1 017DC0207 // [ 7  1 -9  2]
@A2 FB037F5FB // [ -5  -6  13 -10]
@A3 00FBFD008 // [  8 -24 -17   1]
@A4 040181E06 // [ 6 15  6  8]
@A5 027F3E5F9 // [ -7 -14  -4   4]
@A6 0501C2E04 // [ 4 23  7 10]
@A7 F90140203 // [  3   1   5 -14]
@A8 FD83BEFF2 // [-14  -9  14  -5]
@A9 F8FAFF5FE // [ -2  -6 -21 -15]
@AA FAFBBEDE7 // [-25 -10 -18 -11]
@AB 058542DF7 // [-9 22 21 11]
@AC 017C7E20D // [ 13 -15 -15   2]
@AD FF82FEE04 // [ 4 -9 11 -1]
@AE FF01401FC // [-4  0  5 -2]
@AF FE7E80FF9 // [-7  7 -6 -4]
@B0 FF7D011FE // [ -2   8 -12  -2]
@B1 F4797C9E6 // [-26 -28 -27 -24]
@B2 FA003E5ED // [-19 -14   0 -12]
@B3 F6817FFF8 // [ -8  -1   5 -19]
@B4 017CFF9F6 // [-10  -4 -13   2]
@B5 FA7F00A00 // [  0   5  -4 -12]
@B6 007F401FE // [-2  0 -3  0]
@B7 F78000409 // [  9   2   0 -17]
@B8 FCFFC03FF // [-1  1 -1 -7]
@B9 FB7D3FFF0 // [-16  -1 -12 -10]
@BA FE7AC0006 // [  6   0 -21  -4]
@BB 05003E601 // [  1 -13   0  10]
@BC 007DC19F8 // [-8 12 -9  0]
@BD FE7FC19F9 // [-7 12 -1 -4]
@BE 03033F600 // [ 0 -5 12  6]
@BF 0280FF9F1 // [-15  -4   3   5]
@C0 02010040B // [11  2  4  4]
@C1 0201FE7FF // [ -1 -13   7   4]
@C2 030200400 // [0 2 8 6]
@C3 00020240B // [11 18  8  0]
