@0 FA02007FD // [ -3   3   8 -12]
@1 048440407 // [ 7  2 17  9]
@2 0301BF000 // [ 0 -8  6  6]
@3 037DC0008 // [ 8  0 -9  6]
@4 FF00C0001 // [ 1  0  3 -2]
@5 027EBF7F5 // [-11  -5  -6   4]
@6 F7FE801FF // [ -1   0  -6 -17]
@7 007F40805 // [ 5  4 -3  0]
@8 FB7A7F3FF // [ -1  -7 -23 -10]
@9 FFFFBFFFE // [-2 -1 -2 -1]
@A FB7F005F2 // [-14   2  -4 -10]
@B F383BF201 // [  1  -7  14 -25]
@C FB7F7F805 // [  5  -4  -3 -10]
@D 010080200 // [0 1 2 2]
@E FB84BF202 // [ 2 -7 18 -9]
@F FBFCBF600 // [  0  -5 -14  -9]
@10 0500809FD // [-3  4  2 10]
@11 028340600 // [ 0  3 13  5]
@12 040081A0E // [14 13  2  8]
@13 058082207 // [ 7 17  2 11]
@14 0700BF1FF // [-1 -8  2 14]
@15 007F3FA0E // [14 -3 -4  0]
@16 017F805FD // [-3  2 -2  2]
@17 F97FBF605 // [  5  -5  -2 -14]
@18 FD7D00A03 // [  3   5 -12  -6]
@19 0B82835ED // [-19  26  10  23]
@1A 0501401FD // [-3  0  5 10]
@1B 0402BFBFB // [-5 -3 10  8]
@1C 018240A00 // [0 5 9 3]
@1D 037E401FD // [-3  0 -7  6]
@1E EEFE3EBEE // [-18 -11  -8 -35]
@1F EDF77C7E2 // [-30 -29 -35 -37]
@20 04023E7F4 // [-12 -13   8   8]
@21 FC7CC0E09 // [  9   7 -13  -8]
@22 F9FF81C0F // [ 15  14  -2 -13]
@23 047FC1BFE // [-2 13 -1  8]
@24 007FFEA01 // [  1 -11  -1   0]
@25 EA807F5FD // [ -3  -6   1 -43]
@26 EA79FB1E6 // [-26 -40 -25 -44]
@27 F7FE3DFE0 // [-32 -17  -8 -17]
@28 027F3EBED // [-19 -11  -4   4]
@29 F8FF7F7FB // [ -5  -5  -3 -15]
@2A F67E3F000 // [  0  -8  -8 -20]
@2B 0081C0A01 // [1 5 7 1]
@2C F3FD3EE04 // [  4  -9 -12 -25]
@2D F2F8BB5E4 // [-28 -38 -30 -27]
@2E F5FD7E7E9 // [-23 -13 -11 -21]
@2F F4FDFCFD7 // [-41 -25  -9 -23]
@30 FF807EDF7 // [ -9 -10   1  -1]
@31 060000BFB // [-5  5  0 12]
@32 06003F00F // [15 -8  0 12]
@33 047CFF400 // [  0  -6 -13   8]
@34 F9FBFD5E0 // [-32 -22 -17 -13]
@35 F679BEFF3 // [-13  -9 -26 -20]
@36 F87A7E7DF // [-33 -13 -23 -16]
@37 F2FE003F3 // [-13   1  -8 -27]
@38 0D7D80FF5 // [-11   7 -10  26]
@39 FF7DBFE03 // [  3  -1 -10  -2]
@3A FEFE405FB // [-5  2 -7 -3]
@3B 08807EFF4 // [-12  -9   1  17]
@3C F7FCFE001 // [  1 -16 -13 -17]
@3D EEF8BD1F2 // [-14 -24 -30 -35]
@3E 087DFBFD3 // [-45 -33  -9  16]
@3F 0400FF80D // [13 -4  3  8]
@40 FE0003009 // [ 9 24  0 -4]
@41 FF7C3D9F1 // [-15 -20 -16  -2]
@42 0386419F9 // [-7 12 25  7]
@43 FD008141D // [29 10  2 -6]
@44 EEF93FFF6 // [-10  -1 -28 -35]
@45 F97C7BFDB // [-37 -33 -15 -14]
@46 FC00801F7 // [-9  0  2 -8]
@47 007B81204 // [  4   9 -18   0]
@48 F8FEBE1F8 // [ -8 -16  -6 -15]
@49 0D8082007 // [ 7 16  2 27]
@4A 160583212 // [18 25 22 44]
@4B F97E0021F // [ 31   1  -8 -14]
@4C 0B80BE3D4 // [-44 -15   2  23]
@4D 04027F801 // [ 1 -4  9  8]
@4E FEFF40405 // [ 5  2 -3 -3]
@4F 09027FDF1 // [-15  -2   9  18]
@50 FFF7FFA0E // [ 14  -3 -33  -1]
@51 0B0785223 // [35 41 30 22]
@52 FAFC81E0B // [ 11  15 -14 -11]
@53 07FBFE3EA // [-22 -15 -17  15]
@54 FD80801FC // [-4  0  2 -5]
@55 067F7EE09 // [ 9 -9 -3 12]
@56 07037EDF4 // [-12 -10  13  14]
@57 F3F2BC602 // [  2 -29 -54 -25]
@58 04020221D // [29 17  8  8]
@59 040283E16 // [22 31 10  8]
@5A FDFE7E20A // [ 10 -15  -7  -5]
@5B 017F3EBFF // [ -1 -11  -4   2]
@5C 0484FFFF6 // [-10  -1  19   9]
@5D 08FEC05FC // [-4  2 -5 17]
@5E FC793A603 // [  3 -45 -28  -8]
@5F 05804321C // [28 25  1 11]
@60 0D080460C // [12 35 32 26]
@61 FEFEC000E // [14  0 -5 -3]
@62 02FEFDC09 // [  9 -18  -5   5]
@63 0A0341812 // [18 12 13 20]
@64 0B8482211 // [17 17 18 23]
@65 FBF7BBFF3 // [-13 -33 -34  -9]
@66 148481623 // [35 11 18 41]
@67 108DC4622 // [34 35 55 33]
@68 FB01C0025 // [ 37   0   7 -10]
@69 FC7D435FC // [ -4  26 -11  -8]
@6A 1006C1400 // [ 0 10 27 32]
@6B 08064180F // [15 12 25 16]
@6C 03777B3E1 // [-31 -39 -35   6]
@6D 138905C1E // [30 46 36 39]
@6E 0B0706C2A // [42 54 28 22]
@6F 0103FFDEC // [-20  -2  15   2]
@70 FE0140C0F // [15  6  5 -4]
@71 0C84C2A0B // [11 21 19 25]
@72 058502E25 // [37 23 20 11]
@73 067DFC3E7 // [-25 -31  -9  12]
@74 180804219 // [25 33 32 48]
@75 FD05C582F // [47 44 23 -6]
@76 FE80C0608 // [ 8  3  3 -3]
@77 0080805F6 // [-10   2   2   1]
@78 11FE42E00 // [ 0 23 -7 35]
@79 FE828660E // [14 51 10 -3]
@7A 138480A08 // [ 8  5 18 39]
@7B 09088241D // [29 18 34 18]
@7C 060103012 // [18 24  4 12]
@7D 0000015F8 // [-8 10  0  0]
@7E 0282C05FC // [-4  2 11  5]
@7F 0C833F00A // [10 -8 12 25]
@80 0909811FB // [-5  8 38 18]
@81 0D7DBEE07 // [  7  -9 -10  26]
@82 0986C2C19 // [25 22 27 19]
@83 FBFE3E415 // [ 21 -14  -8  -9]
@84 FE7DBF604 // [  4  -5 -10  -4]
@85 01FDC0BF8 // [-8  5 -9  3]
@86 FA793F806 // [  6  -4 -28 -12]
@87 0601C1200 // [ 0  9  7 12]
@88 080302623 // [35 19 12 16]
@89 FC82C1606 // [ 6 11 11 -7]
@8A F7767BFE8 // [-24 -33 -39 -18]
@8B FD833E1F9 // [ -7 -16  12  -5]
@8C FEFC7FBF9 // [ -7  -3 -15  -3]
@8D E779BE5F4 // [-12 -14 -26 -50]
@8E 08823C3EB // [-21 -31   8  17]
@8F 09050160D // [13 11 20 18]
@90 F9FA3E607 // [  7 -13 -24 -13]
@91 F2797D9EA // [-22 -20 -27 -28]
@92 FCFB3EFFC // [ -4  -9 -20  -7]
@93 FC8000A00 // [ 0  5  0 -7]
@94 E87A3FFF7 // [ -9  -1 -24 -48]
@95 047C3E7DA // [-38 -13 -16   8]
@96 F4FF80A12 // [ 18   5  -2 -23]
@97 EB76FA3F6 // [-10 -47 -37 -42]
@98 FCFC7E3D8 // [-40 -15 -15  -7]
@99 FF81BFE00 // [ 0 -1  6 -1]
@9A F7FE403FE // [ -2   1  -7 -17]
@9B ED82803FE // [ -2   1  10 -37]
@9C EFFF7D7EA // [-22 -21  -3 -33]
@9D F1F93E1F1 // [-15 -16 -28 -29]
@9E F074BC9EC // [-20 -28 -46 -32]
@9F 017CFE5E1 // [-31 -14 -13   2]
@A0 020080BF2 // [-14   5   2   4]
@A1 FB85BEDFA // [ -6 -10  22  -9]
@A2 03847EFF3 // [-13  -9  17   7]
@A3 F0F7BC9F5 // [-11 -28 -34 -31]
@A4 F37BFC3EA // [-22 -31 -17 -26]
@A5 EAF93B5D8 // [-40 -38 -28 -43]
@A6 FBFF7EDE6 // [-26 -10  -3  -9]
@A7 0001FF607 // [ 7 -5  7  0]
@A8 06FCBF3FC // [ -4  -7 -14  13]
@A9 078301A00 // [ 0 13 12 15]
@AA F47D80607 // [  7   3 -10 -24]
@AB F2F8BB9E0 // [-32 -36 -30 -27]
@AC 02F9FCFEC // [-20 -25 -25   5]
@AD FF7F013DC // [-36   9  -4  -2]
@AE 01FE809FB // [-5  4 -6  3]
@AF 0000817EC // [-20  11   2   0]
@B0 0383FFFF7 // [-9 -1 15  7]
@B1 00FE3E803 // [  3 -12  -8   1]
@B2 030000DFB // [-5  6  0  6]
@B3 FF7D801F4 // [-12   0 -10  -2]
@B4 FC803D7F8 // [ -8 -21   0  -7]
@B5 FC7FBE40E // [ 14 -14  -2  -8]
@B6 FD8181600 // [ 0 11  6 -5]
@B7 FE8201C04 // [ 4 14  8 -3]
@B8 FF0143000 // [ 0 24  5 -2]
@B9 FD81BF001 // [ 1 -8  6 -5]
@BA 0382FF201 // [ 1 -7 11  7]
@BB F8FFC0001 // [  1   0  -1 -15]
@BC 047FC01EE // [-18   0  -1   8]
@BD FA0001603 // [  3  11   0 -12]
@BE 01FF80600 // [ 0  3 -2  3]
@BF FE033F9E6 // [-26  -4  12  -4]
@C0 FD7F7F400 // [ 0 -6 -3 -6]
@C1 057FC1004 // [ 4  8 -1 10]
@C2 0301801FD // [-3  0  6  6]
@C3 FB01805EC // [-20   2   6 -10]
