@0 FB0100210 // [ 16   1   4 -10]
@1 000341C06 // [ 6 14 13  0]
@2 F57C7FFF8 // [ -8  -1 -15 -22]
@3 FC803F803 // [ 3 -4  0 -7]
@4 067D42E0C // [ 12  23 -11  12]
@5 FBFEC01FC // [-4  0 -5 -9]
@6 FC7DBFBFD // [ -3  -3 -10  -8]
@7 0502011FC // [-4  8  8 10]
@8 028181203 // [3 9 6 5]
@9 FAFF3FFFC // [ -4  -1  -4 -11]
@A 0D7DBD006 // [  6 -24 -10  26]
@B 018140003 // [3 0 5 3]
@C FB013F206 // [  6  -7   4 -10]
@D 0680001FA // [-6  0  0 13]
@E 0280C0DFE // [-2  6  3  5]
@F 0B0000C00 // [ 0  6  0 22]
@10 0A81009F7 // [-9  4  4 21]
@11 05024000A // [10  0  9 10]
@12 00027EE09 // [ 9 -9  9  0]
@13 FCFEBF208 // [ 8 -7 -6 -7]
@14 05FEBEC08 // [  8 -10  -6  11]
@15 057E80BFC // [-4  5 -6 10]
@16 007EBF000 // [ 0 -8 -6  0]
@17 FC01BFC0E // [14 -2  6 -8]
@18 048700C0A // [10  6 28  9]
@19 04837F808 // [ 8 -4 13  9]
@1A FC81C17F3 // [-13  11   7  -7]
@1B 01FF00000 // [ 0  0 -4  3]
@1C 00037E3EF // [-17 -15  13   0]
@1D F87A405F5 // [-11   2 -23 -16]
@1E 00FF3FE06 // [ 6 -1 -4  1]
@1F 0A84BF00B // [11 -8 18 21]
@20 04003FC01 // [ 1 -2  0  8]
@21 07010040A // [10  2  4 14]
@22 FB82007FD // [-3  3  8 -9]
@23 09007E9F8 // [ -8 -12   1  18]
@24 FB85FF9FD // [-3 -4 23 -9]
@25 FC81BE7E7 // [-25 -13   6  -7]
@26 0006417F6 // [-10  11  25   0]
@27 F8F93D200 // [  0 -23 -28 -15]
@28 040743A0A // [10 29 29  8]
@29 0001407F6 // [-10   3   5   0]
@2A 0182C11FA // [-6  8 11  3]
@2B FA7E3E9EE // [-18 -12  -8 -12]
@2C FA7AFC7F4 // [-12 -29 -21 -12]
@2D F57C005FC // [ -4   2 -16 -22]
@2E F7FB7C1E2 // [-30 -32 -19 -17]
@2F FE013E9F8 // [ -8 -12   4  -4]
@30 000100FF8 // [-8  7  4  0]
@31 04800020D // [13  1  0  9]
@32 F07CFF5FF // [ -1  -6 -13 -32]
@33 03FAFBDDB // [-37 -34 -21   7]
@34 F0FEBE5E8 // [-24 -14  -6 -31]
@35 F076FF5E1 // [-31  -6 -37 -32]
@36 FE007E9F0 // [-16 -12   1  -4]
@37 FAFFFDA0D // [ 13 -19  -1 -11]
@38 FBFE40001 // [ 1  0 -7 -9]
@39 F8FBFFDF4 // [-12  -2 -17 -15]
@3A 01FEFD3EB // [-21 -23  -5   3]
@3B F8FF7F203 // [  3  -7  -3 -15]
@3C EFF5BEBDF // [-33 -11 -42 -33]
@3D 027DBE9F5 // [-11 -12 -10   4]
@3E FF813FFFE // [-2 -1  4 -1]
@3F 008481A07 // [ 7 13 18  1]
@40 FBFD7BBF5 // [-11 -35 -11  -9]
@41 0280FD1FD // [ -3 -24   3   5]
@42 0705C0DEC // [-20   6  23  14]
@43 EAF97C3FD // [ -3 -31 -27 -43]
@44 00773D7E0 // [-32 -21 -36   0]
@45 FD7F40014 // [20  0 -3 -6]
@46 F803C0602 // [  2   3  15 -16]
@47 FC7C3FBEF // [-17  -3 -16  -8]
@48 0001C0800 // [0 4 7 0]
@49 0C83FFA00 // [ 0 -3 15 25]
@4A E7F5BE602 // [  2 -13 -42 -49]
@4B F6787E5F1 // [-15 -14 -31 -20]
@4C FB03813FB // [ -5   9  14 -10]
@4D FD7F7F205 // [ 5 -7 -3 -6]
@4E FA7CFFDFF // [ -1  -2 -13 -12]
@4F F879FF000 // [  0  -8 -25 -16]
@50 0181BE9D9 // [-39 -12   6   3]
@51 EE71B9E00 // [  0 -49 -58 -36]
@52 FBFEFEBDF // [-33 -11  -5  -9]
@53 FF7DBEC02 // [  2 -10 -10  -2]
@54 00007E9FE // [ -2 -12   1   0]
@55 F67BBF3F2 // [-14  -7 -18 -20]
@56 E8F2BDFF5 // [-11 -17 -54 -47]
@57 FF05FD7E1 // [-31 -21  23  -2]
@58 EF77B9BDD // [-35 -51 -34 -34]
@59 FC003EBE6 // [-26 -11   0  -8]
@5A 008180004 // [4 0 6 1]
@5B 0280BFC0B // [11 -2  2  5]
@5C FC7D3E9FA // [ -6 -12 -12  -8]
@5D F076FEDEF // [-17 -10 -37 -32]
@5E 0406BEDE9 // [-23 -10  26   8]
@5F F6F7BBDE0 // [-32 -34 -34 -19]
@60 0283FF3FB // [-5 -7 15  5]
@61 007D42C05 // [  5  22 -11   0]
@62 007EFF9FA // [-6 -4 -5  0]
@63 F3793E3ED // [-19 -15 -28 -26]
@64 FAFCBEFFF // [ -1  -9 -14 -11]
@65 088A42FF7 // [-9 23 41 17]
@66 EB76B8BF0 // [-16 -59 -38 -42]
@67 04817E3F1 // [-15 -15   5   9]
@68 020180BFC // [-4  5  6  4]
@69 FE8100BFE // [-2  5  4 -3]
@6A 00FC3E5EE // [-18 -14 -16   1]
@6B FF027FA03 // [ 3 -3  9 -2]
@6C 050BC4A08 // [ 8 37 47 10]
@6D EBF7F9FE0 // [-32 -49 -33 -41]
@6E 0383801F0 // [-16   0  14   7]
@6F FF814080A // [10  4  5 -1]
@70 FCFF819F7 // [-9 12 -2 -7]
@71 02FD7F1FA // [ -6  -8 -11   5]
@72 0B88C3603 // [ 3 27 35 23]
@73 FE0FC45FB // [-5 34 63 -4]
@74 F2773B1E9 // [-23 -40 -36 -28]
@75 0300BEFF0 // [-16  -9   2   6]
@76 097C02607 // [  7  19 -16  18]
@77 FCFEC1DF3 // [-13  14  -5  -7]
@78 0901807F7 // [-9  3  6 18]
@79 1788C3E0D // [13 31 35 47]
@7A 028BC3A22 // [34 29 47  5]
@7B FB7B3C7E7 // [-25 -29 -20 -10]
@7C 0280BE3FC // [ -4 -15   2   5]
@7D F98000211 // [ 17   1   0 -13]
@7E FB0140804 // [  4   4   5 -10]
@7F 0783C01F2 // [-14   0  15  15]
@80 100944812 // [18 36 37 32]
@81 048AC5428 // [40 42 43  9]
@82 FB80013F4 // [-12   9   0  -9]
@83 017CC01FF // [ -1   0 -13   2]
@84 0684C21FC // [-4 16 19 13]
@85 01FDC0A17 // [23  5 -9  3]
@86 05057D3F0 // [-16 -23  21  10]
@87 158A44222 // [34 33 41 43]
@88 0806C5629 // [41 43 27 16]
@89 02804000A // [10  0  1  5]
@8A FAFF807FF // [ -1   3  -2 -11]
@8B FB7E41804 // [  4  12  -7 -10]
@8C FB82BF1FC // [-4 -8 10 -9]
@8D 0781C01F9 // [-7  0  7 15]
@8E 228BC5C1C // [28 46 47 69]
@8F 0787C4626 // [38 35 31 15]
@90 FC8482412 // [18 18 18 -7]
@91 FF7FC1002 // [ 2  8 -1 -2]
@92 02FD7FC0C // [ 12  -2 -11   5]
@93 000240DF9 // [-7  6  9  0]
@94 098440C07 // [ 7  6 17 19]
@95 088C8200D // [13 16 50 17]
@96 0281BEC0A // [ 10 -10   6   5]
@97 03844300B // [11 24 17  7]
@98 080382215 // [21 17 14 16]
@99 007FBFDF9 // [-7 -2 -2  0]
@9A 0282BF800 // [ 0 -4 10  5]
@9B 0382C0C01 // [ 1  6 11  7]
@9C EC7B801FE // [ -2   0 -18 -40]
@9D F7763A7CB // [-53 -45 -40 -18]
@9E 0F8280DFF // [-1  6 10 31]
@9F FEFBFFA0E // [ 14  -3 -17  -3]
@A0 F981C0205 // [  5   1   7 -13]
@A1 FA003EBFA // [ -6 -11   0 -12]
@A2 FB0303005 // [  5  24  12 -10]
@A3 E6F4FCBEF // [-17 -27 -45 -51]
@A4 F97877FD7 // [-41 -65 -31 -14]
@A5 FEFF3E1F6 // [-10 -16  -4  -3]
@A6 FD00811EF // [-17   8   2  -6]
@A7 067F7FDF9 // [-7 -2 -3 12]
@A8 FF82C1600 // [ 0 11 11 -1]
@A9 F500C13FB // [ -5   9   3 -22]
@AA EC757C5DD // [-35 -30 -43 -40]
@AB EEF7BB9D7 // [-41 -36 -34 -35]
@AC 007E7BDE0 // [-32 -34  -7   0]
@AD FD7EBDFEC // [-20 -17  -6  -6]
@AE FD00FFA08 // [ 8 -3  3 -6]
@AF FF01BEFF7 // [-9 -9  6 -2]
@B0 FB7C80402 // [  2   2 -14 -10]
@B1 F6FA7EFF2 // [-14  -9 -23 -19]
@B2 F9773ADE4 // [-28 -42 -36 -14]
@B3 02FE7D9EA // [-22 -20  -7   5]
@B4 FDFC3F9F1 // [-15  -4 -16  -5]
@B5 0182FEFFA // [-6 -9 11  3]
@B6 FE014000B // [11  0  5 -4]
@B7 FC8000602 // [ 2  3  0 -7]
@B8 FF80C0010 // [16  0  3 -1]
@B9 FF7D401F9 // [ -7   0 -11  -2]
@BA FBFBC0400 // [  0   2 -17  -9]
@BB FF813F7F6 // [-10  -5   4  -1]
@BC FA7FFFA05 // [  5  -3  -1 -12]
@BD FB82011F9 // [-7  8  8 -9]
@BE FBFFFF405 // [ 5 -6 -1 -9]
@BF FE007E60B // [ 11 -13   1  -4]
@C0 FD7E00605 // [ 5  3 -8 -6]
@C1 05FE3F402 // [ 2 -6 -8 11]
@C2 017A80E07 // [  7   7 -22   2]
@C3 03803F1F6 // [-10  -8   0   7]
