@0 0100001F9 // [-7  0  0  2]
@1 FF7D3F405 // [  5  -6 -12  -2]
@2 0502815FF // [-1 10 10 10]
@3 FAFFBF80E // [ 14  -4  -2 -11]
@4 07FDFD400 // [  0 -22  -9  15]
@5 04FDBDDFB // [ -5 -18 -10   9]
@6 FE7C405F9 // [ -7   2 -15  -4]
@7 0302411FF // [-1  8  9  6]
@8 007D7E7FA // [ -6 -13 -11   0]
@9 0100BEFFF // [-1 -9  2  2]
@A 00013F1F7 // [-9 -8  4  0]
@B 0001C09F8 // [-8  4  7  0]
@C 03803F40D // [13 -6  0  7]
@D FEFEC13FA // [-6  9 -5 -3]
@E 01803FC07 // [ 7 -2  0  3]
@F FE81BFBF8 // [-8 -3  6 -3]
@10 020041001 // [1 8 1 4]
@11 00FDFEA00 // [  0 -11  -9   1]
@12 FF013F9F3 // [-13  -4   4  -2]
@13 0301C0E03 // [3 7 7 6]
@14 07808020A // [10  1  2 15]
@15 00FD3DE14 // [ 20 -17 -12   1]
@16 007CC01F5 // [-11   0 -13   0]
@17 F8FE3FBF3 // [-13  -3  -8 -15]
@18 F57EBEDF7 // [ -9 -10  -6 -22]
@19 FEFCFD7EE // [-18 -21 -13  -3]
@1A FFFEFEFFA // [-6 -9 -5 -1]
@1B 017CC0E04 // [  4   7 -13   2]
@1C FE8000005 // [ 5  0  0 -3]
@1D 02FA7F5FC // [ -4  -6 -23   5]
@1E F97CBFE09 // [  9  -1 -14 -14]
@1F 00FB7E400 // [  0 -14 -19   1]
@20 F8FF3C9ED // [-19 -28  -4 -15]
@21 05FE7E5FD // [ -3 -14  -7  11]
@22 FB80C03FC // [-4  1  3 -9]
@23 FB0140206 // [  6   1   5 -10]
@24 FB77FEE01 // [  1  -9 -33 -10]
@25 007DFF1FA // [-6 -8 -9  0]
@26 FDFEFF5F2 // [-14  -6  -5  -5]
@27 FD01C07F1 // [-15   3   7  -6]
@28 027D3F9FF // [ -1  -4 -12   4]
@29 050541C06 // [ 6 14 21 10]
@2A 027D40000 // [  0   0 -11   4]
@2B 097DBE7FC // [ -4 -13 -10  18]
@2C 008581200 // [ 0  9 22  1]
@2D FD01019FF // [-1 12  4 -6]
@2E 0D8382606 // [ 6 19 14 27]
@2F 0681C0A06 // [ 6  5  7 13]
@30 030142A10 // [16 21  5  6]
@31 FA0180800 // [  0   4   6 -12]
@32 0085807FA // [-6  3 22  1]
@33 160700202 // [ 2  1 28 44]
@34 040041E07 // [ 7 15  1  8]
@35 128702A0B // [11 21 28 37]
@36 FC01C280D // [13 20  7 -8]
@37 FB007E206 // [  6 -15   1 -10]
@38 0105BF5FF // [-1 -6 22  2]
@39 0283FF815 // [21 -4 15  5]
@3A 0C0640419 // [25  2 25 24]
@3B 07854200A // [10 16 21 15]
@3C 09848141C // [28 10 18 19]
@3D 060401212 // [18  9 16 12]
@3E 0081C0406 // [6 2 7 1]
@3F 007FC1FF4 // [-12  15  -1   0]
@40 FE7FC0A14 // [20  5 -1 -4]
@41 168941804 // [ 4 12 37 45]
@42 060402A17 // [23 21 16 12]
@43 06864361A // [26 27 25 13]
@44 068902E0E // [14 23 36 13]
@45 FD7EBFA09 // [ 9 -3 -6 -6]
@46 0000FF7F9 // [-7 -5  3  0]
@47 FC05401FF // [-1  0 21 -8]
@48 0682BFA0F // [15 -3 10 13]
@49 027DC040E // [14  2 -9  4]
@4A 008041010 // [16  8  1  1]
@4B FC02C1C10 // [16 14 11 -8]
@4C FE003EC09 // [  9 -10   0  -4]
@4D 0080C0202 // [2 1 3 1]
@4E 0A017F808 // [ 8 -4  5 20]
@4F F6013FDEF // [-17  -2   4 -20]
@50 EC73FCDED // [-19 -26 -49 -40]
@51 FC813D9EE // [-18 -20   4  -7]
@52 0384C1007 // [ 7  8 19  7]
@53 FB7CBFFF7 // [ -9  -1 -14 -10]
@54 03FB7EA09 // [  9 -11 -19   7]
@55 FC7DC13F8 // [-8  9 -9 -8]
@56 FCF5FE200 // [  0 -15 -41  -7]
@57 E8F2397E5 // [-27 -53 -56 -47]
@58 F37FBC3E7 // [-25 -31  -2 -26]
@59 F70100FF7 // [ -9   7   4 -18]
@5A FD8000202 // [ 2  1  0 -5]
@5B 07FD7FA01 // [  1  -3 -11  15]
@5C FD82C0E01 // [ 1  7 11 -5]
@5D F780C0DFC // [ -4   6   3 -17]
@5E E972B8BEF // [-17 -59 -54 -46]
@5F F57B7A7CD // [-51 -45 -19 -22]
@60 F9FC3F20B // [ 11  -7 -16 -13]
@61 FC0240808 // [ 8  4  9 -8]
@62 027E80FF9 // [-7  7 -6  4]
@63 07807F011 // [17 -8  1 15]
@64 0005011FC // [-4  8 20  0]
@65 EBF1FB7E1 // [-31 -37 -57 -41]
@66 FE807E3E3 // [-29 -15   1  -3]
@67 06033F608 // [ 8 -5 12 12]
@68 FCFEFF805 // [ 5 -4 -5 -7]
@69 F8FC823FE // [ -2  17 -14 -15]
@6A 0881BEFF9 // [-7 -9  6 17]
@6B 018041005 // [5 8 1 3]
@6C F5F5BCDFD // [ -3 -26 -42 -21]
@6D 050742C03 // [ 3 22 29 10]
@6E 057F0220C // [12 17 -4 10]
@6F 057EC09F8 // [-8  4 -5 10]
@70 FF81C1C0F // [15 14  7 -1]
@71 03860120C // [12  9 24  7]
@72 0403C1010 // [16  8 15  8]
@73 08FC3E80A // [ 10 -12 -16  17]
@74 118D85617 // [23 43 54 35]
@75 080140015 // [21  0  5 16]
@76 0001C1417 // [23 10  7  0]
@77 FD01C0012 // [18  0  7 -6]
@78 04044280B // [11 20 17  8]
@79 0D85C1DFB // [-5 14 23 27]
@7A 18860400B // [11 32 24 49]
@7B FF834441D // [29 34 13 -1]
@7C 0B8080411 // [17  2  2 23]
@7D FC7D02204 // [  4  17 -12  -8]
@7E F7027FDF7 // [ -9  -2   9 -18]
@7F FF0282E18 // [24 23 10 -2]
@80 0B0241A18 // [24 13  9 22]
@81 0C0641C0D // [13 14 25 24]
@82 FE7D40613 // [ 19   3 -11  -4]
@83 0603415FC // [-4 10 13 12]
@84 FF8040A08 // [ 8  5  1 -1]
@85 FBFF429FF // [-1 20 -3 -9]
@86 0E0301801 // [ 1 12 12 28]
@87 0C7FC1409 // [ 9 10 -1 24]
@88 02818041C // [28  2  6  5]
@89 F97FFD1ED // [-19 -24  -1 -14]
@8A 01003F5FA // [-6 -6  0  2]
@8B 02FE8260D // [13 19 -6  5]
@8C FE02FFC0E // [14 -2 11 -4]
@8D 02FE40FF9 // [-7  7 -7  5]
@8E FBFE40C16 // [22  6 -7 -9]
@8F FB79BF40B // [ 11  -6 -26 -10]
@90 FB79FDBE0 // [-32 -19 -25 -10]
@91 0D03FEDF7 // [ -9 -10  15  26]
@92 047F81815 // [21 12 -2  8]
@93 F87EFE209 // [  9 -15  -5 -16]
@94 0183007FE // [-2  3 12  3]
@95 FFFA823F9 // [ -7  17 -22  -1]
@96 EE76FE9F9 // [ -7 -12 -37 -36]
@97 F77D7C3E3 // [-29 -31 -11 -18]
@98 0702405EF // [-17   2   9  14]
@99 047F41003 // [ 3  8 -3  8]
@9A FDFD007FD // [ -3   3 -12  -5]
@9B 027D7FDFB // [ -5  -2 -11   4]
@9C 05FE80004 // [ 4  0 -6 11]
@9D 00FAC080B // [ 11   4 -21   1]
@9E FB80001FA // [-6  0  0 -9]
@9F FE03C33FD // [-3 25 15 -4]
@A0 01023F603 // [ 3 -5  8  2]
@A1 02FCFEE00 // [  0  -9 -13   5]
@A2 FC7DFEA00 // [  0 -11  -9  -8]
@A3 038142200 // [ 0 17  5  7]
@A4 020002E00 // [ 0 23  0  4]
@A5 FB8580403 // [ 3  2 22 -9]
@A6 FF83025FF // [-1 18 12 -1]
@A7 FD7D8100F // [ 15   8 -10  -6]
@A8 027B80A05 // [  5   5 -18   4]
@A9 FFFD801FE // [ -2   0 -10  -1]
@AA 017CBD600 // [  0 -21 -14   2]
@AB 0100801FB // [-5  0  2  2]
@AC 04FDC1A0C // [12 13 -9  9]
@AD 0380FFDF4 // [-12  -2   3   7]
@AE 0580BF3FF // [-1 -7  2 11]
@AF 007EC17FD // [-3 11 -5  0]
@B0 FCFEBF5FA // [-6 -6 -6 -7]
@B1 0000FE40B // [ 11 -14   3   0]
@B2 F90540E02 // [  2   7  21 -14]
@B3 FD800000E // [14  0  0 -5]
@B4 0083FF7FD // [-3 -5 15  1]
@B5 06FFC1BF7 // [-9 13 -1 13]
@B6 F8817EE0A // [ 10  -9   5 -15]
@B7 01FFFFDF5 // [-11  -2  -1   3]
@B8 0004407EF // [-17   3  17   0]
@B9 068282DF7 // [-9 22 10 13]
@BA 037F027FE // [-2 19 -4  6]
@BB 03817FDFE // [-2 -2  5  7]
@BC FC8140E0B // [11  7  5 -7]
@BD 01FEC23F5 // [-11  17  -5   3]
@BE FFFAC2A03 // [  3  21 -21  -1]
@BF FB81FFA08 // [ 8 -3  7 -9]
@C0 0080FFDFF // [-1 -2  3  1]
@C1 FF827F607 // [ 7 -5  9 -1]
@C2 0AFF003FE // [-2  1 -4 21]
@C3 FEFFBEBFE // [ -2 -11  -2  -3]
