@0 0400C17FD // [-3 11  3  8]
@1 017D00FFA // [ -6   7 -12   2]
@2 F27E00401 // [  1   2  -8 -28]
@3 FD020040B // [11  2  8 -6]
@4 03FDFFFF9 // [-7 -1 -9  7]
@5 04027F60D // [13 -5  9  8]
@6 FC83017FD // [-3 11 12 -7]
@7 FBFE0000A // [10  0 -8 -9]
@8 FA8241600 // [  0  11   9 -11]
@9 00FB01A07 // [  7  13 -20   1]
@A FD853FC09 // [ 9 -2 20 -5]
@B FF0180E01 // [ 1  7  6 -2]
@C FF8081601 // [ 1 11  2 -1]
@D 03FE7E1FE // [ -2 -16  -7   7]
@E F580C0000 // [  0   0   3 -21]
@F 06FC7FA01 // [  1  -3 -15  13]
@10 FE7FBF804 // [ 4 -4 -2 -4]
@11 0480FF600 // [ 0 -5  3  9]
@12 08003E20C // [ 12 -15   0  16]
@13 09FDC0600 // [ 0  3 -9 19]
@14 FA007F611 // [ 17  -5   1 -12]
@15 000240606 // [6 3 9 0]
@16 038180000 // [0 0 6 7]
@17 FB80BE000 // [  0 -16   2  -9]
@18 F576BE7F0 // [-16 -13 -38 -22]
@19 0380401EA // [-22   0   1   7]
@1A FA83015FB // [ -5  10  12 -11]
@1B 01803E401 // [  1 -14   0   3]
@1C FF833F3F6 // [-10  -7  12  -1]
@1D FE7B005ED // [-19   2 -20  -4]
@1E E9773D000 // [  0 -24 -36 -46]
@1F EEF2FA1D3 // [-45 -48 -53 -35]
@20 057EBFBE8 // [-24  -3  -6  10]
@21 08838000C // [12  0 14 17]
@22 0401FF80A // [10 -4  7  8]
@23 FA7CFFE08 // [  8  -1 -13 -12]
@24 F6FD3D204 // [  4 -23 -12 -19]
@25 F979BD9D2 // [-46 -20 -26 -14]
@26 EB77BCBF8 // [ -8 -27 -34 -42]
@27 FDFFBE7DE // [-34 -13  -2  -5]
@28 0F8A82600 // [ 0 19 42 31]
@29 FB03C1E02 // [  2  15  15 -10]
@2A 027FC01F1 // [-15   0  -1   4]
@2B F081FDBFA // [ -6 -19   7 -31]
@2C F9FCFEDFA // [ -6 -10 -13 -13]
@2D EFF8FB3F1 // [-15 -39 -29 -33]
@2E 00FBBE3F8 // [ -8 -15 -18   1]
@2F 1487BF3F6 // [-10  -7  30  41]
@30 0100C1C2C // [44 14  3  2]
@31 FE7DC1DFB // [-5 14 -9 -4]
@32 FAFA3C7E0 // [-32 -29 -24 -11]
@33 ECFEFF5F7 // [ -9  -6  -5 -39]
@34 037D7CBEC // [-20 -27 -11   6]
@35 F000C0604 // [  4   3   3 -32]
@36 17873C5FA // [ -6 -30  28  47]
@37 FA82C2823 // [ 35  20  11 -11]
@38 FBFE7F802 // [ 2 -4 -7 -9]
@39 F7FC7C9F0 // [-16 -28 -15 -17]
@3A F5F900003 // [  3   0 -28 -21]
@3B 03FE3FDED // [-19  -2  -8   7]
@3C EDF77DDFD // [ -3 -18 -35 -37]
@3D 23013E5DC // [-36 -14   4  70]
@3E 047B03434 // [ 52  26 -20   8]
@3F FA00001FE // [ -2   0   0 -12]
@40 FE7F3E1E1 // [-31 -16  -4  -4]
@41 128403219 // [25 25 16 37]
@42 F2FE44628 // [ 40  35  -7 -27]
@43 F87EBE3E5 // [-27 -15  -6 -16]
@44 1481C03F5 // [-11   1   7  41]
@45 FD0003048 // [72 24  0 -6]
@46 017FC1012 // [18  8 -1  2]
@47 1A87817FC // [-4 11 30 53]
@48 31134AC3D // [61 86 77 98]
@49 F40208C6F // [111  70   8 -24]
@4A FCF8BCDD9 // [-39 -26 -30  -7]
@4B 1704C1C05 // [ 5 14 19 46]
@4C FD8301021 // [33  8 12 -5]
@4D FCFEFF204 // [ 4 -7 -5 -7]
@4E 2A9044809 // [ 9 36 65 85]
@4F 2F984D87A // [122 108  97  95]
@50 FC84C6260 // [96 49 19 -7]
@51 F9FB3E5F7 // [ -9 -14 -20 -13]
@52 070403BF6 // [-10  29  16  14]
@53 FD02C0C16 // [22  6 11 -6]
@54 03FF4040C // [12  2 -3  7]
@55 3D9C07414 // [ 20  58 112 123]
@56 1B90CAC67 // [103  86  67  55]
@57 FA7F4663D // [ 61  51  -3 -12]
@58 018140A03 // [3 5 5 3]
@59 0E888280B // [11 20 34 29]
@5A F8057EC12 // [ 18 -10  21 -16]
@5B FF7F81807 // [ 7 12 -2 -2]
@5C 2513C840C // [12 66 79 74]
@5D 0C0403C2B // [43 30 16 24]
@5E FBF781A18 // [ 24  13 -34  -9]
@5F 028300015 // [21  0 12  5]
@60 1807C0E0A // [10  7 31 48]
@61 FD82FDE1C // [ 28 -17  11  -5]
@62 FA803F9F8 // [ -8  -4   0 -11]
@63 198F06211 // [17 49 60 51]
@64 00003DA04 // [  4 -19   0   0]
@65 FA77BBDF7 // [ -9 -34 -34 -12]
@66 078542608 // [ 8 19 21 15]
@67 1208C2C13 // [19 22 35 36]
@68 06FEFE40D // [ 13 -14  -5  13]
@69 FDFBBEBF5 // [-11 -11 -18  -5]
@6A 010281BFD // [-3 13 10  2]
@6B 0B847F3EC // [-20  -7  17  23]
@6C F272BA7FE // [ -2 -45 -54 -28]
@6D 018181BFC // [-4 13  6  3]
@6E 0A01FDFF7 // [ -9 -17   7  20]
@6F FD78BF3FB // [ -5  -7 -30  -6]
@70 F77E3E008 // [  8 -16  -8 -18]
@71 F9027FFF1 // [-15  -1   9 -14]
@72 06FF3EBFE // [ -2 -11  -4  13]
@73 FEF77AC06 // [  6 -42 -35  -3]
@74 F980FF3F9 // [ -7  -7   3 -13]
@75 FA0000A0E // [ 14   5   0 -12]
@76 FC00BD9F7 // [ -9 -20   2  -8]
@77 F901C15FE // [ -2  10   7 -14]
@78 01FC3B3E3 // [-29 -39 -16   3]
@79 07058200A // [10 16 22 14]
@7A 0077BC606 // [  6 -29 -34   0]
@7B 007FC1401 // [ 1 10 -1  0]
@7C FAFD3E9FB // [ -5 -12 -12 -11]
@7D FEF93CFE1 // [-31 -25 -28  -3]
@7E F503C0004 // [  4   0  15 -22]
@7F 01FFBC3EB // [-21 -31  -2   3]
@80 13080220B // [11 17 32 38]
@81 F5FEFF020 // [ 32  -8  -5 -21]
@82 FAFCFE400 // [  0 -14 -13 -11]
@83 EEFABE60A // [ 10 -13 -22 -35]
@84 F5FDBD7E7 // [-25 -21 -10 -21]
@85 F57E7E7FB // [ -5 -13  -7 -22]
@86 FB00FE5DC // [-36 -14   3 -10]
@87 0D84C0608 // [ 8  3 19 27]
@88 FC0280C19 // [25  6 10 -8]
@89 037EC07ED // [-19   3  -5   6]
@8A F379BD7FB // [ -5 -21 -26 -26]
@8B F980FE1E0 // [-32 -16   3 -13]
@8C FA807FDFC // [ -4  -2   1 -11]
@8D F879BCBD1 // [-47 -27 -26 -16]
@8E 0C82BF9F7 // [-9 -4 10 25]
@8F 0801C4224 // [36 33  7 16]
@90 F37B3FA00 // [  0  -3 -20 -26]
@91 F67B3C1F9 // [ -7 -32 -20 -20]
@92 0280FDDFB // [ -5 -18   3   5]
@93 F8FEC1A14 // [ 20  13  -5 -15]
@94 F975BD1DE // [-34 -24 -42 -14]
@95 0C8240DF4 // [-12   6   9  25]
@96 080842C2D // [45 22 33 16]
@97 F5FF7FE17 // [ 23  -1  -3 -21]
@98 F7FA7EFFE // [ -2  -9 -23 -17]
@99 02FE00801 // [ 1  4 -8  5]
@9A 02FE01FFC // [-4 15 -8  5]
@9B FCF83C1E2 // [-30 -32 -32  -7]
@9C 0D8300DFC // [-4  6 12 27]
@9D 0D86C502D // [45 40 27 27]
@9E F87A40C10 // [ 16   6 -23 -16]
@9F FE01C1013 // [19  8  7 -4]
@A0 FE00C01FF // [-1  0  3 -4]
@A1 04FEFF803 // [ 3 -4 -5  9]
@A2 F3F5BD5F8 // [ -8 -22 -42 -25]
@A3 0B7F805F7 // [-9  2 -2 22]
@A4 05838361B // [27 27 14 11]
@A5 03034080B // [11  4 13  6]
@A6 010142E0E // [14 23  5  2]
@A7 0681811FD // [-3  8  6 13]
@A8 01FFBF7FF // [-1 -5 -2  3]
@A9 F1FC7D9F7 // [ -9 -20 -15 -29]
@AA FAFF3FDF2 // [-14  -2  -4 -11]
@AB 078040401 // [ 1  2  1 15]
@AC 08003FA0C // [12 -3  0 16]
@AD 0201C0211 // [17  1  7  4]
@AE 020300E07 // [ 7  7 12  4]
@AF 068081DF2 // [-14  14   2  13]
@B0 FD7CBEFF3 // [-13  -9 -14  -6]
@B1 F77EFE7F4 // [-12 -13  -5 -18]
@B2 0182BF1E8 // [-24  -8  10   3]
@B3 020480E0C // [12  7 18  4]
@B4 FF8001FFA // [-6 15  0 -1]
@B5 F77F80A08 // [  8   5  -2 -18]
@B6 0000BF5FD // [-3 -6  2  0]
@B7 FF83C0BEF // [-17   5  15  -1]
@B8 FB7DFE5F1 // [-15 -14  -9 -10]
@B9 FFFF807F9 // [-7  3 -2 -1]
@BA 038000E02 // [2 7 0 7]
@BB FC7FC0E07 // [ 7  7 -1 -8]
@BC F9FB7F5FF // [ -1  -6 -19 -13]
@BD 02823F205 // [ 5 -7  8  5]
@BE 00023F1FC // [-4 -8  8  0]
@BF 03803F806 // [ 6 -4  0  7]
@C0 007E7E1F4 // [-12 -16  -7   0]
@C1 FA807F1F0 // [-16  -8   1 -11]
@C2 FE80801FE // [-2  0  2 -3]
@C3 FF7EC0401 // [ 1  2 -5 -2]
