@0 01023F9FF // [-1 -4  8  2]
@1 0100FFE04 // [ 4 -1  3  2]
@2 FB01BFFFA // [ -6  -1   6 -10]
@3 007F805FE // [-2  2 -2  0]
@4 01FD80404 // [  4   2 -10   3]
@5 00FE80000 // [ 0  0 -6  1]
@6 048040A07 // [7 5 1 9]
@7 FA7D01207 // [  7   9 -12 -12]
@8 00013F400 // [ 0 -6  4  0]
@9 F880BEC00 // [  0 -10   2 -15]
@A FF80FD1F7 // [ -9 -24   3  -1]
@B FF017F5F0 // [-16  -6   5  -2]
@C 0882C01FF // [-1  0 11 17]
@D 027F82605 // [ 5 19 -2  4]
@E 027E3F5FF // [-1 -6 -8  4]
@F FD8140401 // [ 1  2  5 -5]
@10 0A02C09FE // [-2  4 11 20]
@11 0183C0000 // [ 0  0 15  3]
@12 000182200 // [ 0 17  6  0]
@13 FE003F5F9 // [-7 -6  0 -4]
@14 030181001 // [1 8 6 6]
@15 FFFF3F20B // [11 -7 -4 -1]
@16 0702C0608 // [ 8  3 11 14]
@17 06813FDFE // [-2 -2  4 13]
@18 098342A17 // [23 21 13 19]
@19 080281812 // [18 12 10 16]
@1A FC8081A08 // [ 8 13  2 -7]
@1B FF02407FB // [-5  3  9 -2]
@1C F981403FC // [ -4   1   5 -13]
@1D 007EC0802 // [ 2  4 -5  0]
@1E 0D0641813 // [19 12 25 26]
@1F 0A8A44608 // [ 8 35 41 21]
@20 0E894162D // [45 11 37 29]
@21 077D0040E // [ 14   2 -12  14]
@22 F582BDBF7 // [ -9 -19  10 -21]
@23 02FD3E406 // [  6 -14 -12   5]
@24 0B80C1219 // [25  9  3 23]
@25 080A85410 // [16 42 42 16]
@26 1488C5226 // [38 41 35 41]
@27 03834302D // [45 24 13  7]
@28 0581801FD // [-3  0  6 11]
@29 FE827F3EF // [-17  -7   9  -3]
@2A FF0240206 // [ 6  1  9 -2]
@2B 0D05C0C0A // [10  6 23 26]
@2C 070784628 // [40 35 30 14]
@2D 0E834401C // [28 32 13 29]
@2E F67D40A09 // [  9   5 -11 -20]
@2F F57ABD3F5 // [-11 -23 -22 -22]
@30 00033F5E4 // [-28  -6  12   0]
@31 FE7EBDFFB // [ -5 -17  -6  -4]
@32 038602805 // [ 5 20 24  7]
@33 01FD82219 // [ 25  17 -10   3]
@34 0201C1A13 // [19 13  7  4]
@35 E878BC1F7 // [ -9 -32 -30 -48]
@36 F078BE1F3 // [-13 -16 -30 -32]
@37 FEFFBE5DC // [-36 -14  -2  -3]
@38 04FD81200 // [  0   9 -10   9]
@39 0304C0025 // [37  0 19  6]
@3A FD0240014 // [20  0  9 -6]
@3B F97AC19F7 // [ -9  12 -21 -14]
@3C EEF63C1F5 // [-11 -32 -40 -35]
@3D DFF4FD9EF // [-17 -20 -45 -65]
@3E F902FE7C2 // [-62 -13  11 -14]
@3F 0382C1405 // [ 5 10 11  7]
@40 FF81C1600 // [ 0 11  7 -1]
@41 F47D7EE00 // [  0  -9 -11 -24]
@42 FE7CBD5E9 // [-23 -22 -14  -4]
@43 F1767D7F1 // [-15 -21 -39 -30]
@44 E7F5BD7DA // [-38 -21 -42 -49]
@45 F9FFBA5DB // [-37 -46  -2 -13]
@46 FA7E3FA11 // [ 17  -3  -8 -12]
@47 FD81803FB // [-5  1  6 -5]
@48 F47B3DFFC // [ -4 -17 -20 -24]
@49 FBF4BC9E5 // [-27 -28 -46  -9]
@4A F77C8000B // [ 11   0 -14 -18]
@4B ECF33E5EB // [-21 -14 -52 -39]
@4C 03817BFCB // [-53 -33   5   7]
@4D 097EFF001 // [ 1 -8 -5 18]
@4E F47CFF400 // [  0  -6 -13 -24]
@4F EBF9C07E2 // [-30   3 -25 -41]
@50 07787B5D0 // [-48 -38 -31  14]
@51 018482610 // [16 19 18  3]
@52 F4FEBE409 // [  9 -14  -6 -23]
@53 FE81FC7F4 // [-12 -29   7  -3]
@54 047F7F406 // [ 6 -6 -3  8]
@55 F5FA7EBFA // [ -6 -11 -23 -21]
@56 ECFDFEA01 // [  1 -11  -9 -39]
@57 15837C9D3 // [-45 -28  13  43]
@58 128C05223 // [35 41 48 37]
@59 00014002F // [47  0  5  0]
@5A FBFEBF7F1 // [-15  -5  -6  -9]
@5B FE7CFE409 // [  9 -14 -13  -4]
@5C EEFF80405 // [  5   2  -2 -35]
@5D F8F9BF7FF // [ -1  -5 -26 -15]
@5E 14057E9F6 // [-10 -12  21  40]
@5F 138646C33 // [51 54 25 39]
@60 FD8081E1B // [27 15  2 -5]
@61 F77D8060A // [ 10   3 -10 -18]
@62 FE8141011 // [17  8  5 -3]
@63 067AFE5FC // [ -4 -14 -21  12]
@64 F4797E1FC // [ -4 -16 -27 -24]
@65 178581A05 // [ 5 13 22 47]
@66 12890442E // [46 34 36 37]
@67 000381C28 // [40 14 14  0]
@68 0000C13EB // [-21   9   3   0]
@69 F87F3EC0B // [ 11 -10  -4 -16]
@6A 007EC1603 // [ 3 11 -5  0]
@6B FF7E7FC0B // [11 -2 -7 -2]
@6C 118C8580B // [11 44 50 35]
@6D 0C85C301E // [30 24 23 25]
@6E FE02C2422 // [34 18 11 -4]
@6F 007F81FF1 // [-15  15  -2   0]
@70 0301BF5F8 // [-8 -6  6  6]
@71 037CFE400 // [  0 -14 -13   6]
@72 1580C1606 // [ 6 11  3 43]
@73 098C0701C // [28 56 48 19]
@74 1081C2C0E // [14 22  7 33]
@75 0504C301F // [31 24 19 10]
@76 FA8101004 // [  4   8   4 -11]
@77 FF8180404 // [ 4  2  6 -1]
@78 FF80BD005 // [  5 -24   2  -1]
@79 128000DFA // [-6  6  0 37]
@7A 090343E31 // [49 31 13 18]
@7B 1404FF612 // [18 -5 19 40]
@7C 018283C11 // [17 30 10  3]
@7D 000381E0E // [14 15 14  0]
@7E 01813F205 // [ 5 -7  4  3]
@7F F5F4BFA01 // [  1  -3 -46 -21]
@80 10037CFF2 // [-14 -25  13  32]
@81 FE8542818 // [24 20 21 -3]
@82 0B8401608 // [ 8 11 16 23]
@83 040783C1C // [28 30 30  8]
@84 08007F804 // [ 4 -4  1 16]
@85 087D423F7 // [ -9  17 -11  16]
@86 F47A8060C // [ 12   3 -22 -24]
@87 0B033E1E4 // [-28 -16  12  22]
@88 0F0240A03 // [ 3  5  9 30]
@89 09858320C // [12 25 22 19]
@8A 0A8042410 // [16 18  1 21]
@8B 047D40400 // [  0   2 -11   8]
@8C 0900821F6 // [-10  16   2  18]
@8D F7FA7FC19 // [ 25  -2 -23 -17]
@8E FDFFFD9F3 // [-13 -20  -1  -5]
@8F 1A06C1403 // [ 3 10 27 52]
@90 0E098222D // [45 17 38 28]
@91 0681C2C25 // [37 22  7 13]
@92 068202800 // [ 0 20  8 13]
@93 0901401FE // [-2  0  5 18]
@94 000042209 // [ 9 17  1  0]
@95 06023EFF9 // [-7 -9  8 12]
@96 128B03416 // [22 26 44 37]
@97 0B8604C1A // [26 38 24 23]
@98 000102A0E // [14 21  4  0]
@99 007D0040A // [ 10   2 -12   0]
@9A 03827E807 // [  7 -12   9   7]
@9B FF037FA13 // [19 -3 13 -2]
@9C 04803C9E8 // [-24 -28   0   9]
@9D 080240407 // [ 7  2  9 16]
@9E 0C0382A0C // [12 21 14 24]
@9F FF0301216 // [22  9 12 -2]
@A0 0581FF7F7 // [-9 -5  7 11]
@A1 07807FE00 // [ 0 -1  1 15]
@A2 FE82815FA // [-6 10 10 -3]
@A3 F2FFFFFFF // [ -1  -1  -1 -27]
@A4 FBFFBD3EA // [-22 -23  -2  -9]
@A5 FD023FDFB // [-5 -2  8 -6]
@A6 0481C160B // [11 11  7  9]
@A7 FF83BFC01 // [ 1 -2 14 -1]
@A8 030001600 // [ 0 11  0  6]
@A9 FE00FF213 // [19 -7  3 -4]
@AA F7FC803F6 // [-10   1 -14 -17]
@AB FD7B3E5ED // [-19 -14 -20  -6]
@AC FD81BEDF2 // [-14 -10   6  -5]
@AD 047C01409 // [  9  10 -16   8]
@AE 047F80601 // [ 1  3 -2  8]
@AF FE02811FD // [-3  8 10 -4]
@B0 FC817FC0C // [12 -2  5 -7]
@B1 F70281E14 // [ 20  15  10 -18]
@B2 F9FD3E9F0 // [-16 -12 -12 -13]
@B3 FF7DFE9E9 // [-23 -12  -9  -2]
@B4 FF7A40000 // [  0   0 -23  -2]
@B5 F701FFC04 // [  4  -2   7 -18]
@B6 FA80BFE01 // [  1  -1   2 -11]
@B7 05003FFF2 // [-14  -1   0  10]
@B8 07FFC001B // [27  0 -1 15]
@B9 047A7EFFB // [ -5  -9 -23   8]
@BA FEFC7EBFA // [ -6 -11 -15  -3]
@BB 03FCBD602 // [  2 -21 -14   7]
@BC FE00BF9FC // [-4 -4  2 -4]
@BD FE7FBEE08 // [ 8 -9 -2 -4]
@BE 0280C1BFB // [-5 13  3  5]
@BF FFFF401FA // [-6  0 -3 -1]
@C0 FF7EFE400 // [  0 -14  -5  -2]
@C1 0003BFFF5 // [-11  -1  14   0]
@C2 01823FE02 // [ 2 -1  8  3]
@C3 0700C0003 // [ 3  0  3 14]
