@0 FB6B48632 // [ 50  67 -83 -10]
@1 078881E53 // [83 15 34 15]
@2 E60FC2C0C // [ 12  22  63 -52]
@3 EF0B409D6 // [-42   4  45 -34]
@4 D2777CC46 // [ 70 -26 -35 -92]
@5 F5827B7A8 // [-88 -37   9 -21]
@6 09FA0664D // [ 77  51 -24  19]
@7 1BE338383 // [-125  -63 -116   55]
@8 0CF241022 // [ 34   8 -55  25]
@9 3976335FC // [  -4 -102  -40  114]
@A FBF5BCA3A // [ 58 -27 -42  -9]
@B 1483FF7D9 // [-39  -5  15  41]
@C 00000542A // [42 42]
