@0 FC15837E2 // [-30  27  86  -8]
@1 D57F027F2 // [-14  19  -4 -86]
@2 0E04C6FF1 // [-15  55  19  28]
@3 09867F9D3 // [-45  -4  25  19]
@4 F4FB3FDD6 // [-42  -2 -20 -23]
@5 FEF4B5E16 // [ 22 -81 -46  -3]
@6 07F601626 // [ 38  11 -40  15]
@7 F20B0E006 // [  6 112  44 -28]
@8 0F74435DC // [-36  26 -47  30]
@9 E7FB03238 // [ 56  25 -20 -49]
@A 007FFD9C8 // [-56 -20  -1   0]
@B FB0A399ED // [-19 -52  40 -10]
@C 0000013CB // [-53   9]
