@0 300B05818 // [24 44 44 96]
@1 F38B3379E // [ -98 -101   44  -25]
@2 0E85BCC68 // [104 -26  22  29]
@3 DD18F765A // [ 90 -69  99 -70]
@4 1272837EB // [-21  27 -54  36]
@5 B28180207 // [   7    1    6 -155]
@6 F883BDB9D // [-99 -19  14 -15]
@7 0706847D0 // [-48  35  26  14]
@8 0696747FD // [ -3 -93  89  13]
@9 D7F4FAA09 // [  9 -43 -45 -81]
@A 1B103B20B // [ 11 -39  64  54]
@B 08FE49BFB // [-5 77 -7 17]
@C 00003A624 // [ 36 -45]
