@0 001445E87 // [135  47  81   0]
@1 CF0ECF7FC // [ -4 123  59 -98]
@2 EA783DE0E // [ 14 -17 -32 -44]
@3 C3F879670 // [ 112  -53  -31 -121]
@4 F8F28A61C // [ 28  83 -54 -15]
@5 14E7F4835 // [ 53 -92 -97  41]
@6 F96EE0084 // [ 132 -256  -69  -14]
@7 339F7E854 // [ 84 -12 125 103]
@8 0322B49C6 // [-58 -92 138   6]
@9 B8804C7DB // [ -37   99    1 -143]
@A 460D3943B // [ 59 -54  52 140]
@B 2A7546786 // [-122   51  -43   84]
@C 000034FB5 // [-75 -89]
