@0 FD0B88829 // [41 68 46 -6]
@1 F38109643 // [ 67  75   4 -25]
@2 F97BC8992 // [-110   68  -17  -14]
@3 F0E27C001 // [   1  -32 -119  -31]
@4 19E844448 // [ 72  34 -95  51]
@5 5265781F3 // [ -13  -64 -107  164]
@6 0DF27D812 // [ 18 -20 -55  27]
@7 1B802EA06 // [   6 -139    0   55]
@8 DD8407432 // [ 50  58  16 -69]
@9 F1007C7C1 // [-63 -29   1 -30]
@A 0473F7008 // [  8 -72 -49   8]
@B 11157A983 // [-125  -44   85   34]
@C 000007DC2 // [-62  62]
