@0 0284C0BA8 // [-88   5  19   5]
@1 1B0583222 // [34 25 22 54]
@2 188470C88 // [ 136 -122   17   49]
@3 FE1B3864F // [ 79 -61 108  -4]
@4 0972423C0 // [-64  17 -55  18]
@5 D088739BB // [ -69 -100   33  -95]
@6 FE07807B5 // [-75   3  30  -4]
@7 F9758A3A5 // [-91  81 -42 -14]
@8 0A1A33E0F // [ 15 -97 104  20]
@9 FAE8459DA // [-38  44 -95 -11]
@A 0C0E7AE47 // [ 71 -41  57  24]
@B EFFC10176 // [-138  128  -16  -33]
@C 00003EE2A // [42 -9]
