@0 2186C2A3C // [60 21 27 67]
@1 D4FE3D65A // [ 90 -21  -8 -87]
@2 F1E40BFB4 // [ -76   95 -112  -29]
@3 EF71C4DFE // [ -2  38 -57 -34]
@4 136EC3800 // [  0  28 -69  38]
@5 2FF6FF3E8 // [-24  -7 -37  95]
@6 F98474FE6 // [-26 -89  17 -13]
@7 F700F9A2E // [ 46 -51   3 -18]
@8 0382BFFF4 // [-12  -1  10   7]
@9 0B113B3D0 // [-48 -39  68  22]
@A 09F8FA00F // [ 15 -48 -29  19]
@B 1B91FE7D0 // [-48 -13  71  55]
@C 00000A5F3 // [-13  82]
