@0 1DEE06C28 // [ 40  54 -72  59]
@1 F27A3F62A // [ 42  -5 -24 -28]
@2 F60C41649 // [ 73  11  49 -20]
@3 18FC48BF2 // [-14  69 -15  49]
@4 C475BFC2B // [  43   -2  -42 -120]
@5 EE7777F82 // [-126  -65  -35  -36]
@6 F4E2429EF // [ -17   20 -119  -23]
@7 E971779CD // [-51 -68 -59 -46]
@8 FEE38C26E // [ 110   97 -114   -3]
@9 1DF77CDFD // [ -3 -26 -35  59]
@A FAFCFDE15 // [ 21 -17 -13 -11]
@B 0C0DFC60D // [ 13 -29  55  24]
@C 00003B445 // [ 69 -38]
