@0 E88278C42 // [ 66 -58   9 -47]
@1 13FCF9BCE // [-50 -51 -13  39]
@2 0C057EAA1 // [161 -11  21  24]
@3 D386C6BF7 // [ -9  53  27 -89]
@4 30EF3EC35 // [ 53 -10 -68  97]
@5 1E83CD9CC // [-52 108  15  61]
@6 277336E01 // [  1 -73 -52  78]
@7 E478B55EA // [-22 -86 -30 -56]
@8 260845231 // [49 41 33 76]
@9 F686D3828 // [ 40 156  27 -19]
@A EDEB6FDF5 // [ -11 -130  -83  -37]
@B 07DBC5BCF // [ -49   45 -145   15]
@C 00003F205 // [ 5 -7]
