@0 0F6F04606 // [  6  35 -68  30]
@1 090EFD456 // [ 86 -22  59  18]
@2 EC0DBDC2D // [ 45 -18  54 -40]
@3 DE0A05DE9 // [-23  46  40 -68]
@4 007FFB636 // [ 54 -37  -1   0]
@5 0078C8C08 // [  8  70 -29   0]
@6 F97C83C36 // [ 54  30 -14 -14]
@7 0BEB76DA3 // [-93 -74 -83  23]
@8 ECE303233 // [  51   25 -116  -39]
@9 17EFF5805 // [  5 -84 -65  47]
@A F18738824 // [ 36 -60  28 -29]
@B 1FFD3946F // [111 -54 -12  63]
@C 00003EA01 // [  1 -11]
