@0 FEF57F5EF // [-17  -6 -43  -3]
@1 2A7D88D6B // [-149   70  -10   84]
@2 141F33A51 // [ 81 -99 124  40]
@3 C1913C681 // [ 129  -29   68 -125]
@4 F809F5232 // [ 50 -87  39 -16]
@5 C406437E4 // [ -28   27   25 -120]
@6 2B79FB41B // [ 27 -38 -25  86]
@7 030A0823E // [62 65 40  6]
@8 FA7A3DBC3 // [-61 -19 -24 -12]
@9 D3FA03418 // [ 24  26 -24 -89]
@A 23063DB8E // [-114  -19   24   70]
@B 1BF188A1A // [ 26  69 -58  55]
@C 00000B7A4 // [-92  91]
