@0 0AF0C825A // [ 90  65 -61  21]
@1 FE89C27FC // [-4 19 39 -3]
@2 C5F7FA9C1 // [ -63  -44  -33 -117]
@3 0C6B8642E // [ 46  50 -82  24]
@4 F1768583A // [ 58  44 -38 -30]
@5 2364B5E07 // [   7  -81 -110   70]
@6 E172415E2 // [-30  10 -55 -62]
@7 1E77C03FE // [ -2   1 -33  60]
@8 06FE039D6 // [-42  28  -8  13]
@9 0C07B7204 // [  4 -71  30  24]
@A FB767E00A // [ 10 -16 -39 -10]
@B 0A8845026 // [38 40 33 21]
@C 0000075C1 // [-63  58]
