@0 FA7A7C9FD // [ -3 -28 -23 -12]
@1 F485F39F8 // [  -8 -100   23  -23]
@2 0EFA4DFA6 // [-90 111 -23  29]
@3 01EE823DB // [-37  17 -70   3]
@4 43F8867FF // [ -1  51 -30 135]
@5 30E8C801A // [ 26  64 -93  97]
@6 0D0A7E40B // [ 11 -14  41  26]
@7 FA02BDA64 // [100 -19  10 -12]
@8 DFF3CD5FB // [ -5 106 -49 -65]
@9 0508BF42B // [43 -6 34 10]
@A FE658499E // [ -98   36 -106   -4]
@B FB073BC26 // [ 38 -34  28 -10]
@C 00000B3D6 // [-42  89]
