@0 2588FD1B9 // [-71 -24  35  75]
@1 01F132618 // [  24 -109  -60    3]
@2 110D80C23 // [35  6 54 34]
@3 1A8C80C2D // [45  6 50 53]
@4 0785023B3 // [-77  17  20  15]
@5 0A0A44400 // [ 0 34 41 20]
@6 148DC13A5 // [-91   9  55  41]
@7 E007FC1D8 // [-40 -32  31 -64]
@8 D9FDBB414 // [ 20 -38 -10 -77]
@9 F7753BFEB // [-21 -33 -44 -18]
@A 18003C42B // [ 43 -30   0  48]
@B E202063E0 // [-32  49   8 -60]
@C 000010A39 // [ 57 133]
