@0 1EFDF83F7 // [ -9 -63  -9  61]
@1 FA75F47DD // [-35 -93 -41 -12]
@2 22173BE0C // [ 12 -33  92  68]
@3 280A42825 // [37 20 41 80]
@4 EAA6FEF5D // [-163   -9  155  -43]
@5 ED00CD3F6 // [-10 105   3 -38]
@6 F781C31C0 // [-64  24   7 -17]
@7 EE174AFE4 // [-28  87  93 -36]
@8 3A68BF3C7 // [-57  -7 -94 116]
@9 0D7BC0DFF // [ -1   6 -17  26]
@A 14FBC5009 // [  9  40 -17  41]
@B D78539281 // [129 -55  20 -81]
@C 0000015F1 // [-15  10]
