@0 ED6F80DF4 // [-12   6 -66 -38]
@1 14F07321C // [  28 -103  -63   41]
@2 F17E0BBFF // [ -1  93  -8 -30]
@3 077883F69 // [-151   31  -30   14]
@4 F00CFC243 // [ 67 -31  51 -32]
@5 3CFBC89CD // [-51  68 -17 121]
@6 2A8E81FDE // [-34  15  58  85]
@7 15F53C80D // [ 13 -28 -44  43]
@8 F85B8F38B // [-117  121 -146  -16]
@9 24720240F // [ 15  18 -56  72]
@A 0471FEBDA // [-38 -11 -57   8]
@B F116EFE4B // [  75 -129   91  -30]
@C 00000A9B4 // [-76  84]
