@0 0CEA40E2B // [ 43   7 -87  25]
@1 0306891E2 // [-30  72  26   6]
@2 F573C3211 // [ 17  25 -49 -22]
@3 F4873C9F8 // [ -8 -28  28 -23]
@4 0277C75E3 // [-29  58 -33   4]
@5 FAFAB840A // [ 10 -62 -22 -11]
@6 FE062F9CE // [ -50 -132   24   -4]
@7 008981017 // [23  8 38  1]
@8 0C8C7E1EA // [-22 -16  49  25]
@9 FB8C3ED96 // [-106  -10   48   -9]
@A 090F01BE2 // [-30  13  60  18]
@B D982083DC // [-36  65   8 -77]
@C 00000ADA5 // [-91  86]
