@0 F20A72051 // [  81 -112   41  -28]
@1 C97C6D3E0 // [ -32 -151  -15 -110]
@2 15E898DC3 // [-61 198 -94  43]
@3 13F5831AD // [-83  24 -42  39]
@4 1D808B5B1 // [-79  90   2  59]
@5 2DF589E50 // [ 80  79 -42  91]
@6 03923A9AF // [-81 -44  72   7]
@7 F974803E2 // [-30   1 -46 -14]
@8 3602F6819 // [ 25 -76  11 108]
@9 EA8E3542C // [ 44 -86  56 -43]
@A 0B7E7B020 // [ 32 -40  -7  22]
@B C7FDFF7E4 // [ -28   -5   -9 -113]
@C 00003A056 // [ 86 -48]
