@0 DE75835D6 // [-42  26 -42 -68]
@1 1B84CB1EE // [-18  88  19  55]
@2 0DF737E09 // [  9 -65 -36  27]
@3 1878EF5FF // [  -1 -134  -29   48]
@4 20704A5CF // [-49  82 -63  64]
@5 FB9078241 // [ 65 -63  65  -9]
@6 008C41625 // [37 11 49  1]
@7 25EB03616 // [ 22  27 -84  75]
@8 D614B5BD0 // [-48 -83  82 -84]
@9 1478FEDEB // [-21 -10 -29  40]
@A 1891F8C1A // [ 26 -58  71  49]
@B FC83021CE // [-50  16  12  -7]
@C 000037812 // [ 18 -68]
