@0 F0FF4878C // [-116   67   -3  -31]
@1 0D80C57E7 // [-25  43   3  27]
@2 1C1B02228 // [ 40  17 108  56]
@3 F5FD783C2 // [-62 -63 -11 -21]
@4 F3FF7EE00 // [  0  -9  -3 -25]
@5 FE7A0281D // [ 29  20 -24  -4]
@6 1164CD7FC // [  -4  107 -109   34]
@7 D5EE415DA // [-38  10 -71 -85]
@8 F4F206A42 // [ 66  53 -56 -23]
@9 2E8C7A20F // [ 15 -47  49  93]
@A F7F7C2BCB // [-53  21 -33 -17]
@B 00003FE2F // [47 -1  0  0]
@C 000001C20 // [32 14]
