@0 F38ABF213 // [ 19  -7  42 -25]
@1 127FCA5DB // [-37  82  -1  36]
@2 F27237DEF // [-17 -66 -56 -28]
@3 E6F685A5D // [ 93  45 -38 -51]
@4 240542BEA // [-22  21  21  72]
@5 0E74F4859 // [ 89 -92 -45  28]
@6 EF717B22F // [ 47 -39 -59 -34]
@7 1C110025D // [93  1 68 56]
@8 0899001E2 // [-30   0 100  17]
@9 F3FCFEA05 // [  5 -11 -13 -25]
@A 138AFF42B // [43 -6 43 39]
@B 0C81C7E32 // [50 63  7 25]
@C 0000337D4 // [ -44 -101]
