@0 FE7BC461C // [ 28  35 -17  -4]
@1 F57F4BE28 // [ 40  95  -3 -22]
@2 EA8778E66 // [102 -57  29 -43]
@3 E2FDC4800 // [  0  36  -9 -59]
@4 E4707A014 // [ 20 -48 -63 -56]
@5 06FD3CFD2 // [-46 -25 -12  13]
@6 0E7036C02 // [  2 -74 -64  28]
@7 0E84BF410 // [16 -6 18 29]
@8 000F02DFC // [-4 22 60  0]
@9 0773C5004 // [  4  40 -49  14]
@A 1C01FDFDD // [-35 -17   7  56]
@B 2381BF814 // [20 -4  6 71]
@C 000035DD8 // [-40 -82]
