@0 2606C77F5 // [-11  59  27  76]
@1 007F0205B // [91 16 -4  0]
@2 E70FC3FED // [-19  31  63 -50]
@3 0E8AB602B // [ 43 -80  42  29]
@4 B100057EA // [ -22   43    0 -158]
@5 0691C5222 // [34 41 71 13]
@6 FB87101CB // [-53 128  28  -9]
@7 F9F383F67 // [-153   31  -50  -13]
@8 EDF1FAE1D // [ 29 -41 -57 -37]
@9 2BE8333EE // [ -18 -103  -96   87]
@A E78387636 // [ 54  59  14 -49]
@B FD15F6A2E // [ 46 -75  87  -6]
@C 00003B04C // [ 76 -40]
