@0 F0927AFBC // [-68 -41  73 -31]
@1 FA827F182 // [-126   -8    9  -11]
@2 2B88BCA1F // [ 31 -27  34  87]
@3 F7863D45F // [ 95 -22  24 -17]
@4 F87682619 // [ 25  19 -38 -16]
@5 E17E43E07 // [  7  31  -7 -62]
@6 0D8E0400F // [15 32 56 27]
@7 FB0F3EA8A // [138 -11  60 -10]
@8 1799F87B1 // [-79 -61 103  47]
@9 DDA77F7EE // [-18  -5 157 -69]
@A 2D04FC1DE // [-34 -32  19  90]
@B E079C7BCD // [-51  61 -25 -64]
@C 0000013EF // [-17   9]
