@0 DC7C85E40 // [ 64  47 -14 -72]
@1 F401FE83A // [ 58 -12   7 -24]
@2 CF7501F8E // [-114   15  -44  -98]
@3 DAE9BE633 // [ 51 -13 -90 -75]
@4 F0887D43F // [ 63 -22  33 -31]
@5 1978F9E19 // [ 25 -49 -29  50]
@6 D976BE455 // [ 85 -14 -38 -78]
@7 1404BA090 // [144 -48  18  40]
@8 0EFA86A34 // [ 52  53 -22  29]
@9 FA013EC07 // [  7 -10   4 -12]
@A 0E7682438 // [ 56  18 -38  28]
@B 44FFC285A // [ 90  20  -1 137]
@C 000038FC4 // [-60 -57]
