@0 1311FCDAF // [-81 -26  71  38]
@1 F67DB7BAE // [-82 -67 -10 -20]
@2 1CFD12DC7 // [-57 150 -12  57]
@3 1C8342A13 // [19 21 13 57]
@4 0D7A867CA // [-54  51 -22  26]
@5 D9F73FC2D // [ 45  -2 -36 -77]
@6 F9850CFDA // [-38 103  20 -13]
@7 E4820C42F // [ 47  98   8 -55]
@8 F883433B8 // [-72  25  13 -15]
@9 2318BB81B // [ 27 -36  98  70]
@A FD10061B8 // [-72  48  64  -6]
@B EF7FC8FBB // [-69  71  -1 -34]
@C 00003C5DC // [-36 -30]
