@0 FE8102C1E // [30 22  4 -3]
@1 03FFBF801 // [ 1 -4 -2  7]
@2 08F001C05 // [  5  14 -64  17]
@3 04744405B // [ 91  32 -47   8]
@4 019783FBE // [-66  31  94   3]
@5 D08EB8BD3 // [-45 -59  58 -95]
@6 E785C6A1F // [ 31  53  23 -49]
@7 ED0806DFF // [ -1  54  32 -38]
@8 0B7D43A2E // [ 46  29 -11  22]
@9 CC71F83ED // [ -19  -63  -57 -104]
@A ED04FE236 // [ 54 -15  19 -38]
@B F179C7FFF // [ -1  63 -25 -30]
@C 00003C22A // [ 42 -31]
