@0 0B82385FA // [ -6 -62   8  23]
@1 2BFA8DFD9 // [-39 111 -22  87]
@2 328DB869B // [155 -61  54 101]
@3 DE7EB1FFA // [  -6 -113   -6  -68]
@4 02EB80A37 // [ 55   5 -82   5]
@5 EE910320C // [ 12  25  68 -35]
@6 18808324B // [75 25  2 49]
@7 EF740778C // [-116   59  -48  -34]
@8 DD9ABC003 // [  3 -32 106 -69]
@9 FF6D0F030 // [ 48 120 -76  -2]
@A 0906F51DD // [-35 -88  27  18]
@B E3FD0DF6D // [-147  111  -12  -57]
@C 0000021EF // [-17  16]
