@0 D579003DD // [-35   1 -28 -86]
@1 066AFEFCC // [-52  -9 -85  12]
@2 0F80C87CB // [-53  67   3  31]
@3 2277FF9F4 // [-12  -4 -33  68]
@4 FB067E1E0 // [-32 -16  25 -10]
@5 E4FFCB5AD // [-83  90  -1 -55]
@6 EDFFC4C23 // [ 35  38  -1 -37]
@7 FE7E42C3C // [60 22 -7 -4]
@8 02690B41A // [ 26  90 -92   4]
@9 360ABE20D // [ 13 -15  42 108]
@A E6818E1EF // [-17 112   6 -51]
@B F60E76213 // [ 19 -79  57 -20]
@C 00003C621 // [ 33 -29]
