@0 DD667DE3B // [  59  -17 -103  -70]
@1 2FFDC785F // [95 60 -9 95]
@2 FF7D0541C // [ 28  42 -12  -2]
@3 0CF6431C1 // [-63  24 -39  25]
@4 F482405F7 // [ -9   2   9 -23]
@5 F6FAFDBA3 // [-93 -19 -21 -19]
@6 FF0387E2F // [47 63 14 -2]
@7 0AEB42BFB // [ -5  21 -83  21]
@8 0A6FC3E04 // [  4  31 -65  20]
@9 590601221 // [ 33   9  24 178]
@A B7EC843F4 // [ -12   33  -78 -145]
@B F5FD6E83D // [  61 -140  -11  -21]
@C 000036E45 // [ 69 -73]
