@0 5180039D6 // [-42  28   0 163]
@1 FEF87F5DC // [-36  -6 -31  -3]
@2 F2F18C1A0 // [-96  96 -58 -27]
@3 2C70775BA // [-70 -70 -63  88]
@4 FF6AC6637 // [ 55  51 -85  -2]
@5 10800283B // [59 20  0 33]
@6 047744DCD // [-51  38 -35   8]
@7 CC813BA32 // [  50  -35    4 -103]
@8 F0F8CCC1F // [ 31 102 -29 -31]
@9 F20AB5BE5 // [-27 -83  42 -28]
@A EE8D3B3FA // [ -6 -39  52 -35]
@B F61EFB3E5 // [-27 -39 123 -20]
@C 0000099CD // [-51  76]
