@0 F8F947368 // [-152   57  -27  -15]
@1 FE7DB9FDD // [-35 -49 -10  -4]
@2 160004E10 // [16 39  0 44]
@3 5F8DFF1AA // [-86  -8  55 191]
@4 D30F417AD // [-83  11  61 -90]
@5 F5088739B // [-101   57   34  -22]
@6 FF7C92F9A // [-102  151  -14   -2]
@7 FE8D901F3 // [-13 128  54  -3]
@8 E8E3FF7B0 // [ -80   -5 -113  -47]
@9 38F7F7BF6 // [-10 -67 -33 113]
@A F705CBE1E // [ 30  95  23 -18]
@B 02A2AC84F // [  79 -156  138    5]
@C 00003C649 // [ 73 -29]
