@0 F196F8E33 // [ 51 -57  91 -29]
@1 E5F8EFB78 // [-136 -131  -29  -53]
@2 0374391C3 // [-61 -56 -48   6]
@3 DC0CBFA86 // [134  -3  50 -72]
@4 4A0BFF017 // [ 23  -8  47 148]
@5 067C82644 // [ 68  19 -14  12]
@6 FC063560D // [ 13 -85  24  -8]
@7 F82BBF6BC // [188  -5 174 -16]
@8 240EFEB7D // [-131  -11   59   72]
@9 B50F8BA26 // [  38   93   62 -150]
@A 1312C79B3 // [-77  60  75  38]
@B 007D0A640 // [ 64  83 -12   0]
@C 000005D89 // [-119   46]
