@0 D8FF8843A // [ 58  66  -2 -79]
@1 E9854264D // [ 77  19  21 -45]
@2 047F419CE // [-50  12  -3   8]
@3 076DFF412 // [ 18  -6 -73  14]
@4 E60A0CBC9 // [-55 101  40 -52]
@5 D8FB3A5EF // [-17 -46 -20 -79]
@6 CA96767E5 // [ -27  -77   89 -107]
@7 220288DDD // [-35  70  10  68]
@8 0107FFFA9 // [-87  -1  31   2]
@9 F2857D5F2 // [-14 -22  21 -27]
@A 180E4C9F8 // [ -8 100  57  48]
@B EA1074DF0 // [-16 -90  65 -44]
@C 000003015 // [21 24]
