@0 000BFAD9F // [-97 -42  47   0]
@1 E868F4BC7 // [-57 -91 -93 -48]
@2 137386589 // [-119   50  -50   38]
@3 DFEAFE058 // [ 88 -16 -85 -65]
@4 26A103B73 // [-141   29  132   77]
@5 E87E89885 // [133  76  -6 -48]
@6 FB0736DF5 // [-11 -74  28 -10]
@7 021D8B65A // [ 90  91 118   4]
@8 1E0E00F61 // [-159    7   56   60]
@9 C21A41A15 // [  21   13  105 -124]
@A 3D07093C7 // [-57  73  28 122]
@B E8814060B // [ 11   3   5 -47]
@C 0000071CE // [-50  56]
