@0 01108063F // [63  3 66  2]
@1 F6F1813EE // [-18   9 -58 -19]
@2 05760DF00 // [-256  111  -40   10]
@3 06F3889EC // [-20  68 -50  13]
@4 098C40C25 // [37  6 49 19]
@5 ECD841A3F // [  63   13 -159  -39]
@6 DC80B7618 // [ 24 -69   2 -71]
@7 EE15420C0 // [192  16  85 -36]
@8 0BFC8ADB5 // [-75  86 -14  23]
@9 DB2B46026 // [ 38  48 173 -74]
@A 1E00423C1 // [-63  17   1  60]
@B 1B09B8A00 // [  0 -59  38  54]
@C 000001D94 // [-108   14]
