@0 01FF3E1DD // [-35 -16  -4   3]
@1 FB69775DF // [-33 -70 -91 -10]
@2 38F15221E // [ 30 145 -59 113]
@3 200D04BAB // [-85  37  52  64]
@4 0DF7839F7 // [ -9  28 -34  27]
@5 13F30E008 // [  8 112 -52  39]
@6 3C0C411E6 // [-26   8  49 120]
@7 CAE5F4FE3 // [ -29  -89 -105 -107]
@8 F07E06FFC // [ -4  55  -8 -32]
@9 2A0B469D9 // [-39  52  45  84]
@A F8FAF9FB7 // [-73 -49 -21 -15]
@B E975BEF81 // [-127   -9  -42  -46]
@C 00000484A // [74 36]
