@0 1677825F8 // [ -8  18 -34  44]
@1 E893CAE45 // [ 69  87  79 -47]
@2 E31E7A5CF // [-49 -46 121 -58]
@3 F4E78C9F6 // [-10 100 -98 -23]
@4 EC728701C // [ 28  56 -54 -40]
@5 DF824179B // [-101   11    9  -65]
@6 BEEA423CE // [ -50   17  -87 -131]
@7 DCF78204C // [ 76  16 -34 -71]
@8 D0F9BB004 // [  4 -40 -26 -95]
@9 2E7DAF7E7 // [ -25 -133  -10   92]
@A FF883DDF5 // [-11 -18  32  -1]
@B 2912FC631 // [ 49 -29  75  82]
@C 00003C3E2 // [-30 -31]
