@0 00F2F9787 // [-121  -53  -53    1]
@1 1CF63799A // [-102  -68  -40   57]
@2 16214080F // [ 15   4 133  44]
@3 ED0C7ABEE // [-18 -43  49 -38]
@4 05F6ADDFB // [  -5 -146  -38   11]
@5 EF8F84DC5 // [-59  38  62 -33]
@6 2BF60E61C // [ 28 115 -40  87]
@7 DDED88801 // [  1  68 -74 -69]
@8 08F015636 // [ 54 171 -64  17]
@9 287B05C14 // [ 20  46 -20  80]
@A 266E0756A // [-150   58  -72   76]
@B FD063784C // [ 76 -68  24  -6]
@C 00000C208 // [ 8 97]
