@0 FF75833FC // [ -4  25 -42  -2]
@1 0C0308A6F // [111  69  12  24]
@2 F904C7997 // [-105   60   19  -14]
@3 13787E1AD // [-83 -16 -31  38]
@4 E0628261D // [  29   19 -118  -64]
@5 17014D431 // [ 49 106   5  46]
@6 067E0BBF7 // [-9 93 -8 12]
@7 F2DA7B5CE // [ -50  -38 -151  -27]
@8 EAFA4DE5D // [ 93 111 -23 -43]
@9 2AFC7480F // [ 15 -92 -15  85]
@A C7FB36000 // [   0  -80  -20 -113]
@B F0803FDF4 // [-12  -2   0 -31]
@C 00003E814 // [ 20 -12]
