@0 2CFED8FA6 // [-90 199  -5  89]
@1 021DCE611 // [ 17 115 119   4]
@2 F59FF0E27 // [  39 -121  127  -21]
@3 D47BF7E67 // [103 -65 -17 -88]
@4 EDF484040 // [ 64  32 -46 -37]
@5 06FA75C33 // [ 51 -82 -23  13]
@6 0D7405201 // [  1  41 -48  26]
@7 F37D3C9EE // [-18 -28 -12 -26]
@8 D512BDDDC // [-36 -18  74 -86]
@9 FA65B678A // [-118  -77 -106  -12]
@A 2AFE45400 // [ 0 42 -7 85]
@B 1882FC400 // [  0 -30  11  49]
@C 00000B9E4 // [-28  92]
