@0 437B8FBDF // [-33 125 -18 134]
@1 0220C1238 // [ 56   9 131   4]
@2 14857C6DB // [219 -29  21  41]
@3 F41A7721A // [ 26 -71 105 -24]
@4 036EBEFC8 // [-56  -9 -70   6]
@5 F4833EDD0 // [-48 -10  12 -23]
@6 060C3ADB9 // [-71 -42  48  12]
@7 D3FF02582 // [-126   18   -4  -89]
@8 0E9BF45F9 // [ -7 -94 111  29]
@9 F36B3E5D7 // [-41 -14 -84 -26]
@A 1889823D3 // [-45  17  38  49]
@B 0801C13B4 // [-76   9   7  16]
@C 00000701E // [30 56]
