@0 2401471DB // [-37  56   5  72]
@1 DA03BF613 // [ 19  -5  14 -76]
@2 F37EFF1D6 // [-42  -8  -5 -26]
@3 EA903C410 // [ 16 -30  64 -43]
@4 0BFA7E474 // [116 -14 -23  23]
@5 00888141C // [28 10 34  1]
@6 3274C7FE8 // [-24  63 -45 100]
@7 FAFFB720F // [ 15 -71  -2 -11]
@8 ED7C7B403 // [  3 -38 -15 -38]
@9 F101FAD9F // [-97 -42   7 -30]
@A 1B8440A10 // [16  5 17 55]
@B 0C7B001DB // [-37   0 -20  24]
@C 00000CE0D // [ 13 103]
