@0 EDF1FC9ED // [-19 -28 -57 -37]
@1 EC7846406 // [  6  50 -31 -40]
@2 E38706631 // [ 49  51  28 -57]
@3 F5808BDE8 // [-24  94   2 -21]
@4 E1923ADD3 // [-45 -42  72 -61]
@5 E3FE041DA // [-38  32  -8 -57]
@6 EC840462E // [ 46  35  16 -39]
@7 ED750A40E // [ 14  82 -44 -38]
@8 2107813BA // [-70   9  30  66]
@9 2C7CFA9DE // [-34 -44 -13  88]
@A E4F78B5F4 // [-12  90 -34 -55]
@B 1A7877E65 // [101 -65 -31  52]
@C 00003E804 // [  4 -12]
