@0 DB833E809 // [  9 -12  12 -73]
@1 F270C1050 // [ 80   8 -61 -28]
@2 0B03C49E3 // [-29  36  15  22]
@3 0E7084A1F // [ 31  37 -62  28]
@4 CA11FFDE4 // [ -28   -2   71 -108]
@5 EAFD837C8 // [-56  27 -10 -43]
@6 ED823EDF1 // [-15 -10   8 -37]
@7 258E0260B // [11 19 56 75]
@8 086FBE1A7 // [-89 -16 -66  16]
@9 1D6EFA21A // [ 26 -47 -69  58]
@A C80783630 // [  48   27   30 -112]
@B 07963D452 // [ 82 -22  88  15]
@C 00002F226 // [  38 -135]
