@0 EFF8FEC12 // [ 18 -10 -29 -33]
@1 1179F9614 // [ 20 -53 -25  34]
@2 EE82C4E23 // [ 35  39  11 -35]
@3 088743A28 // [40 29 29 17]
@4 0883FBBB4 // [-76 -35  15  17]
@5 01FB03C0C // [ 12  30 -20   3]
@6 F1F6005C9 // [-55   2 -40 -29]
@7 E8F7BD7E5 // [-27 -21 -34 -47]
@8 1677C3DCB // [-53  30 -33  44]
@9 0CEBBC007 // [  7 -32 -82  25]
@A 00740340B // [ 11  26 -48   0]
@B E5FF2D848 // [  72 -148   -4  -53]
@C 000006C36 // [54 54]
