@0 13ABAF595 // [-107 -134  174   39]
@1 B3EA79C81 // [ 129  -50  -87 -153]
@2 BEBE94DA0 // [ -96  166  250 -131]
@3 BD1D04FE1 // [ -31   39  116 -134]
@4 4A9F42EAA // [170  23 125 149]
@5 34403FB4F // [-177   -3 -256  104]
@6 0E3FFCE75 // [117 -25 255  28]
@7 D0F4D2208 // [  8 145 -45 -95]
@8 E56F0B342 // [-190   89  -68  -54]
@9 33FA45928 // [-216   44  -23  103]
@A 8786EB83A // [  58 -164   27 -241]
@B 02F74C000 // [  0  96 -35   5]
@C CA07CCE15 // [  21  103   31 -108]
@D E99AC5401 // [  1  42 107 -45]
@E F178601D1 // [ -47 -256  -31  -30]
@F 7FED78D8B // [-117  -58  -75  255]
@10 BC7C235B3 // [ -77 -230  -16 -136]
@11 D52010464 // [100 130 128 -86]
@12 2DFD2152E // [-210 -246  -12   91]
@13 056F685AF // [ -81 -190  -67   10]
@14 2C84F72FF // [255 -71  19  89]
@15 E46F3BE9A // [154 -33 -68 -56]
@16 3D483C9AB // [ -85  -28 -224  122]
@17 F9AC0BFC4 // [-60  95 176 -13]
@18 7FDD71B94 // [-108 -115 -139  255]
