@0 79643FE16 // [  22   -1 -112  242]
@1 AF7B295F7 // [  -9 -182  -20 -162]
@2 0B1BFA5FB // [ -5 -46 111  22]
@3 322B929D6 // [-42 148 174 100]
@4 535DC7BBD // [ -67   61 -137  166]
@5 488481FB6 // [-74  15  18 145]
@6 2E7CD0D25 // [-219  134  -13   92]
@7 0C9180AA9 // [169   5  70  25]
@8 34F0AA5B4 // [ -76 -174  -62  105]
@9 97FA105CB // [ -53  130  -24 -209]
@A 096D82E1F // [ 31  23 -74  18]
@B DF30D0C2D // [ 45 134 195 -66]
@C D2E079BE0 // [ -32  -51 -127  -91]
@D E299752D5 // [213 -87 101 -59]
@E 0AED7B03E // [ 62 -40 -75  21]
@F E2CCBFAE4 // [ 228   -3 -206  -59]
@10 020F0C7E1 // [-31  99  60   4]
@11 AD786AF23 // [-221 -169  -31 -166]
@12 75C84519A // [-102   40 -223  235]
@13 E76DB9C2E // [ 46 -50 -74 -50]
@14 22A9B5A61 // [ 97 -83 166  69]
@15 D46E19FE7 // [-25 207 -72 -88]
@16 525A8D614 // [  20  107 -150  164]
@17 E49744A0C // [ 12  37  93 -55]
@18 D411C6E82 // [130  55  71 -88]
