@0 043FF7FB1 // [-79 -65 255   8]
@1 BD91C7C55 // [  85   62   71 -133]
@2 0720C7843 // [ 67  60 131  14]
@3 EB0C3026D // [ 109 -127   48  -42]
@4 A71143C08 // [   8   30   69 -178]
@5 1CEB027D6 // [-42  19 -84  57]
@6 33EFAC28F // [ 143 -159  -66  103]
@7 C95D92822 // [  34  148 -138 -110]
@8 F232CBE07 // [  7  95 203 -28]
@9 7FE8BBE27 // [ 39 -33 -94 255]
@A A666FA858 // [  88  -44 -101 -180]
@B 257A7222F // [  47 -111  -23   74]
@C 27BFF8035 // [ 53 -64 255  79]
@D 5C8085BC3 // [-61  45   2 185]
@E B900FAFFE // [  -2  -41    3 -142]
@F 1119C5F73 // [-141   47  103   34]
@10 F503325A7 // [ -89 -110   12  -22]
@11 3DF986E58 // [ 88  55 -26 123]
@12 B0A4F6FFE // [  -2  -73  147 -159]
@13 1DDEB798F // [-113  -68 -134   59]
@14 DE7083A31 // [ 49  29 -62 -68]
@15 366EC5C2D // [ 45  46 -69 108]
@16 BD37AD0A1 // [ 161 -152  222 -134]
@17 DCEAC7005 // [  5  56 -85 -71]
@18 6EFA3D5E4 // [-28 -22 -24 221]
