@0 2E12E008C // [ 140 -256   75   92]
@1 BB03AC833 // [  51 -156   14 -138]
@2 029704A62 // [98 37 92  5]
@3 CA9863F7B // [-133 -225   97 -107]
@4 EA7305700 // [-256   43  -52  -44]
@5 345DF7429 // [  41  -70 -137  104]
@6 95063CC3D // [  61  -26   24 -214]
@7 22BFFB6B4 // [180 -37 255  69]
@8 27F455C9C // [156 174 -47  79]
@9 F197B714C // [-180  -72   94  -29]
@A F9F46A675 // [ 117 -173  -47  -13]
@B 27ECCE455 // [ 85 114 -77  79]
@C 0080E9720 // [-224 -181    3    1]
@D C7E0CD045 // [  69  104 -125 -113]
@E F288B8DB2 // [-78 -58  34 -27]
@F E94D39614 // [  20  -53 -204  -46]
@10 3B2C561A3 // [-93 176 177 118]
@11 4253B9871 // [ 113  -52 -178  132]
@12 0770EF41C // [  28 -134  -61   14]
@13 802FFA7D4 // [ -44  -45  191 -256]
@14 E3963EDEC // [-20 -10  88 -57]
@15 7FF601654 // [ 84  11 -40 255]
@16 1CE57E2A0 // [ 160  -15 -107   57]
@17 501ABA296 // [150 -47 106 160]
@18 F14CC4225 // [  37   33 -205  -30]
