@0 5F6619E0D // [  13  207 -104  190]
@1 7FB258018 // [ 24 192 201 255]
@2 260C64DED // [ -19 -218   49   76]
@3 EC5106A35 // [  53   53 -188  -40]
@4 0B80F1EB3 // [ 179 -113    3   23]
@5 A20A07B31 // [-207   61   40 -188]
@6 0B0BC4527 // [-217   34   47   22]
@7 08F1EBF77 // [-137 -161  -57   17]
@8 0B8ECCE4A // [ 74 103  59  23]
@9 708E027A1 // [-95  19  56 225]
@A DF1939B00 // [-256  -51  100  -66]
@B 17EB7DFFB // [ -5 -17 -83  47]
@C C556C185D // [  93   12 -165 -118]
@D EA8023FBA // [ -70 -225    0  -43]
@E 099ED0492 // [146 130 123  19]
@F 47BFFDA53 // [ 83 -19 255 143]
@10 06D143EC6 // [ 198   31 -187   13]
@11 D08574FAD // [-83 -89  21 -95]
@12 418B14F4A // [-182  167   44  131]
@13 17E571071 // [ 113 -120 -107   47]
@14 1255064F3 // [ 243   50 -172   36]
@15 152F07C36 // [ 54  62 188  42]
@16 340B79B3C // [-196  -51   45  104]
@17 D862775D3 // [ -45  -70 -119  -80]
@18 1494BDB31 // [-207  -19   82   41]
