@0 91E77EDB2 // [ -78  -10  -99 -221]
@1 B4D23EE26 // [  38   -9 -184 -151]
@2 0842B0C32 // [  50 -122 -246   16]
@3 340FC5FF7 // [ -9  47  63 104]
@4 DFB60BA1F // [ 31  93 216 -65]
@5 D47AD3CAC // [172 158 -21 -88]
@6 4E7A393AB // [-85 -55 -24 156]
@7 9ADD04A44 // [  68   37 -140 -203]
@8 9904F49F1 // [ -15  -92   19 -206]
@9 C17EB9EA0 // [ 160  -49   -6 -126]
@A 0FFD968A5 // [165 180 -10  31]
@B CD96787E8 // [ -24  -61   89 -101]
@C 7FE6521F1 // [ -15  144 -103  255]
@D 25ED4DA3D // [ 61 109 -75  75]
@E EDD8827C3 // [ -61   19 -158  -37]
@F A1C389191 // [-111   72 -242 -189]
@10 02A0057F2 // [-14  43 128   5]
@11 FFBA917CF // [-49 139 234  -1]
@12 E676F46BF // [191 -93 -37 -52]
@13 09FAD24A4 // [164 146 -21  19]
@14 B00CA83AF // [ -81 -191   50 -160]
@15 B96A4A424 // [  36   82  -87 -142]
@16 DFF344612 // [ 18  35 -51 -65]
@17 27E1453B5 // [ -75   41 -123   79]
@18 DF20CE0C3 // [195 112 131 -66]
