@0 90C5DA407 // [   7  210 -233 -223]
@1 4CD98B9ED // [ -19   92 -154  153]
@2 074053193 // [-109  152 -255   14]
@3 C763FEAC7 // [ 199  -11 -113 -114]
@4 F61E200FC // [ 252 -256  120  -20]
@5 DF20FE427 // [ 39 -14 131 -66]
@6 DEF80D279 // [121 105 -32 -67]
@7 F9D8725A8 // [ -88 -110 -159  -13]
@8 C65ACD039 // [  57  104 -149 -116]
@9 0D24F3641 // [  65 -101  147   26]
@A 7F98D259C // [-100  146   99  255]
@B 16F345F4E // [-178   47  -51   45]
@C 20D8B841D // [  29  -62 -158   65]
@D C0E089FC2 // [ -62   79 -126 -127]
@E 55EFBFC58 // [ 88  -2 -66 171]
@F EB3FC53DA // [-38  41 255 -42]
@10 ACCA6E2B7 // [ 183 -143 -215 -167]
@11 FD9A05044 // [ 68  40 104  -5]
@12 DE2581665 // [101  11 150 -68]
@13 31100A033 // [51 80 64 98]
@14 0052B73B8 // [ -72  -71 -182    0]
@15 82FE29C98 // [ 152 -178   -8 -251]
@16 CD8E01941 // [-191   12   56 -101]
@17 462282FEF // [-17  23 138 140]
@18 047DF4DFE // [ -2 -90  -9   8]
